#version: 0.2
© s
Ã ©s
l e
Å ĳ
e r
a t
Ġ s
a l
k Ã
e g
z Ã
a n
Ġ t
Ġ h
Ġ v
e k
s Ã
l Ã
a z
a k
m Ã
Ġ f
e s
t t
i n
n y
¡ l
¡ s
i s
Ġ az
e m
o r
¡ r
o n
o l
Ã ¡l
Ġ n
e z
b e
o g
Ġ kÃ
© r
o k
a g
Ġ a
© g
Ġ Ã©s
Ã ¼
Ã Ń
o s
Ġs z
a r
i k
j Ã
eg y
Ã ¡s
Ġ A
z t
¡ t
m eg
Ġ meg
¡ n
c s
Ġ p
Ã ¡r
Ã ©r
r e
d e
k e
b b
l y
a s
r Ã
Ġ le
og y
z e
Ġ egy
a p
v e
ag y
be n
e le
Ġ is
Ġ b
l t
m e
ĠkÃ ¶
Ġ mÃ
© t
n i
Ġh ogy
sÃ ©g
© n
Ġs zÃ
v Ã
Ġ i
¡ g
m i
b an
k i
a d
h e
in t
Ġt Ã
Å ±
o z
Ġn em
Ġf e
o tt
Ġ g
n k
l Åĳ
Ã º
Ń t
r a
o m
j a
i t
© k
© p
Ġ ki
n t
le t
u t
© ny
³ l
Ã ¡n
â Ģ
he t
© l
Ã ©n
i g
Ġ M
ÃŃ t
s zÃ
e tt
e d
a m
n ek
Ã ¡t
Ġ cs
Ġ j
n ak
¡ k
Ġ E
Ġ al
Ġ be
lÃ ³
Ã ©l
a i
Ġ d
u s
at Ã
o t
i Ã
Ġsz er
¡ ny
z er
sÃ ¡g
m in
k ez
Ġ S
u l
Ġ Ã©r
Ã¡l t
ĠtÃ ¶
Ġ r
Ġ min
k or
Ġ ke
Ã ©t
u nk
Ġ K
Ġfe l
d Ã
Ġ (
Ġ jÃ
Ġg y
Ġ 1
Ġ ak
Ġ c
ar t
Ã ³l
ol t
a j
s zer
es e
Ġ lÃ
kÃ ¶
¡ sÃ
Åĳ l
on t
Ġ ez
e lÅĳ
l l
o d
atÃ ³
Ã ©k
u d
re n
Ġ me
l le
u k
¡ m
Ġv agy
iÃ ³
¡ z
Ã¼ l
Ġ âĢ
ze t
n e
ol y
d Åĳ
Ġ 2
¶ n
Ġt e
Ġv Ã
0 0
Ġ Ãº
Ġ mi
Ġ T
Ġ B
al Ã
sÃ Ńt
as z
Ġ H
¶ s
Ġle g
o zÃ
k er
a b
ek e
Ġt er
m er
Ġ ny
Ã¡l l
h at
© v
Ġ N
mÃ ©ny
s e
Ġ de
n Ã
Ġa d
lÃ ¡s
r t
ly e
on d
¼ l
Ã©s z
ve t
ve l
d Ã©s
Ġ ren
k al
Ġ elÅĳ
at t
Ġ F
Ġle het
ĠA z
i l
Ġn agy
c iÃ³
ol g
Ġn Ã
Ġh e
j e
Ġv an
Ġ I
Ġ ker
m ag
v al
i z
ez e
h Ã
Ġ P
¡ bb
b er
¡ ban
de n
es t
Ġv olt
Ġ ÃŃ
Ġ ut
m Å±
¶ tt
ĠmÃ ¡r
z Åĳ
at Ã¡s
Ġt ud
Ġ rÃ
Ã ©v
eke t
. .
l Ã©s
Ġh a
ĠkÃ¶ zÃ
b a
ok at
Ġ er
Ġ em
k ap
eze t
Ã ¶s
© ben
t a
Ġ in
Ġcs ak
e lÃ
as zt
Ġ V
Ġ l
Ġ -
n Ã¡l
m int
rÃ ³
g e
Ã¡l y
Ġ Ã©v
Ġ mag
Ã ©p
Ã©s zÃ
z Ã©s
©r t
Ã ¡k
z a
ĠâĢ ĵ
Ġj ele
e lle
Ġ an
ĠmÃ ©g
h oz
© ly
Ġ kap
o ny
i a
u g
Ġt art
m a
v a
Ã ī
Ġ D
h atÃ³
Ġke ll
Ġ mint
Ġ G
Ã¼ k
ĠmÃ ¡s
alÃ ³
Ġa mi
Ġa me
Ġ C
Ġn e
lÃ Ńt
Ġv al
t i
Ġ L
ol d
Ġhe ly
le g
s ze
jÃ ¡n
b Ã³l
Ġmin den
Ġ Ã¼
Ġf og
agy ar
Ġv is
y e
s Åĳ
Ġsz e
ke t
Ġ kez
Ġ Ã¶s
sÃ©g e
Ġf or
lye n
le n
mÃ ¡ny
kÃ ©n
is zt
© z
Ġv i
jÃ ¡t
Ġp r
¶ k
³ d
es z
ĠkÃ ©p
Ã¼ nk
o bb
Ġaz t
u m
ĠvÃ ©g
Ġ Ã¡ll
es zt
Ġ kor
Ã©s e
¡r a
e lt
Ġ ese
© let
j uk
n ny
¡ ciÃ³
Ġs em
¶ l
Ġszer e
ĠtÃ¶ bb
Ġi g
ese n
j t
Ã©r t
Ã ¡sÃ
Ã ģ
Ġ R
Ġn ap
Ġf Ã
o p
0 1
kÃ©n t
Ġh Ã
rÃ ³l
mer t
Ġ J
h ez
u lt
Ġ Ã¡t
szÃ ¡g
¼ k
Ġame ly
vÃ ©
Ġal ap
¶ r
aj d
het Åĳ
¼ lÃ
âĢ Ŀ
Ġren d
l i
A z
ĠÃº j
Ġese t
f or
Ġ mÅ±
ozÃ ¡s
ĠkÃ¶ z
ĠÃ©r t
k o
de l
¡ mÃ
p e
Ġb i
o b
o vÃ
Ġi dÅĳ
u n
¡ val
Ġ oly
v ez
jÃ ¡k
u r
Ġh asz
k is
c i
or szÃ¡g
m ond
© le
l sÅĳ
Ġak kor
at ok
es zÃ
an i
k Ã©szÃ
os t
Ã¡s a
or t
dÃ ³
Ġszer int
i d
ÃŃ r
Ġt al
e b
ozÃ ³
ik us
r Åĳl
Ġ Åĳ
Ã©r e
Ġt an
c sÃ
c h
Ġ kis
Ġem ber
Ġa r
vÃ ©ny
f e
ĠlÃ ¡t
Ã ©ben
Ġoly an
al m
ĠjÃ ³
rt Ã©n
Ġmin d
Ġh an
Ġh oz
Ã¡l is
m ik
¡ d
z i
ĠkÃ¶ vet
Ġ elle
o sÃŃt
s t
o lÃ³
Ġv Ã¡l
a bb
ĠszÃ ¡mÃ
ÃŃ v
ett e
lÃ ¡g
¡ lÃ³
er t
Ġjele nt
Ġ 3
Ã¼ let
ed ig
Ġ ok
ĠÃŃ g
zÃ ¡s
Ġs ok
Ġ elÃ
¼lÃ ¶n
Ġut Ã¡n
Ã ©let
s za
ĠkÃ ©r
Ġs or
n a
¶ v
Ã ©ny
Ġv alÃ³
kÃ ©p
Ń n
" :
ke l
Ġj og
ĠtÃ ¡
ĠszÃ ¡m
ze n
Ġte l
Ġ O
ovÃ ¡bb
e lÃ©s
ĠÃŃg y
er e
t ek
Ġ Ã¡lt
Ġaz on
, "
i r
Ã©n ek
lÃ ©
Ġp edig
o zt
Ġv Ã¡r
t Ã©s
zÃ ©rt
Ġbi zt
Ġh at
b Åĳl
Ġ eg
e lsÅĳ
ĠtÃ¶ rtÃ©n
a v
ĠkÃ¶ r
Ã¡r s
Ġf oly
r i
Ġ mert
old al
ze l
ĠkÃ ©t
Ġ Ã©p
Ġsze mÃ
ĠE g
ĠkÃ ¼lÃ¶n
n g
m agyar
Ġ re
Ġ Ã©let
Ġa h
at os
l an
eg ÃŃt
ont os
a kÃ
Ġ Ãī
r an
vÃ ¡n
Ġ Ã¡l
Ġ elsÅĳ
k at
© vel
v ezet
jÃ ¡r
ĠE z
Ġle s
i v
t len
Ã ĸ
ik ai
Ã¡s t
lÃ ¡t
ĠâĢ ŀ
ĠszÃ ³
zÃ ³
Ã ©g
Ġsz ab
Ã ¶n
mÃ ¡s
Ġles z
Ġad at
³ g
Ã¼ lt
Ġhasz nÃ¡l
zÃ ¡
m ajd
Ġ ele
t ele
mik or
p ont
Ġ magyar
ĠÃº g
ĠÃºg y
Ġ mond
Ã ¡z
Ã ³g
Ġ majd
f i
n ap
os zt
Ń v
Ġal kal
ĠnÃ ©
Ã©s zet
Ġi l
c e
an y
Ġkap cs
z at
ÃŃ z
Ġ2 01
s zt
Ã ¶r
szer Å±
Ġgy er
Ġsz em
Ġ kÃ©szÃ
ĠÃ¡lt al
Ġg ond
m ar
y an
al om
lle tt
nny i
f Ã
Ġh al
Ġt ovÃ¡bb
n Åĳ
Ġsz ak
Ġvi lÃ¡g
z ak
Ġil let
l v
sÃ©g es
.. .
Ġf Åĳ
ad Ã¡s
Ġs egÃŃt
ĠszemÃ ©ly
t eg
j Ã¼k
vÃ ©t
f ele
Ġs t
ĠkÃ¶zÃ ¶tt
t em
Ġv Ã¡lt
Ġ int
h a
Ġ ug
t er
Ġ Ã¡r
Ã©s i
Ġnagy on
i m
as s
t Åĳ
¼ let
Ã¼ g
ĠmÃ ³d
Ġme ly
m unk
Ġfe j
f og
n d
b Ã
Ġv e
hÃ ¡z
in cs
ĠÃ¶s s
¡ b
kÃ ¼l
¡ j
Ġf ele
© d
Ġ1 9
s al
k oz
Ġez t
in k
Ġsz olg
a mi
Ġtal Ã¡l
me t
e ni
ne t
© ke
ĠÃ©r d
a sÃ¡g
ĠÃ¶s sze
zÃ ¡r
at a
¼ nk
g Ã
Ġ ol
Ġ munk
Ġak i
rÃ ¡ny
Ġmeg t
me nt
Åĳ k
Ġf i
Ġlehet Åĳ
ĠjÃ ¡r
Ġc sÃ
ĠS z
Ġegy e
k om
Ã©s t
Ġeg Ã©sz
az d
¶l d
he ly
ze tt
ak or
¶ nt
Ġ 4
Ã ©vel
e i
l al
ĠszÃ ¼k
sÃ©ge t
Ġ 5
Ã¡s i
Ġkapcs ol
j ele
ĠN em
kÃ ¡r
ad Ã
n ni
ĠjÃ ¡t
ĠtÃ¶ r
e lv
³ k
ra m
h asz
ez t
ĠH a
Ġc Ã©l
m ek
¶ lt
Ġ "
Ġ z
at i
©r e
Ġug yan
m ost
v i
Ġi de
Ġd olg
Ġszere t
Ã¡s ok
Ġrend szer
Ġig az
iz s
k on
Ġv ezet
Ġal att
n er
Ġsz int
Ġ most
Ġ Ãĸ
Åĳ s
m un
Ġelle n
Ġillet ve
Ã¡ll al
Ġtel j
Ġhoz zÃ¡
³ r
³ t
ĠK Ã
Ġ kom
oz ott
\ \
¶ rÃ
in g
o mÃ¡ny
Ã³g y
Ġr Ã©s
ĠtÃ ¡m
Ġegy ik
n nek
Ġr Ã©sz
kÃ ¡
ĠÃ¶ss z
Ã ©z
) ,
Ġf Ã©r
ek t
v as
n Ã©l
Ã¡r t
¶ t
Ġv on
Ã ¡ban
ĠM agyar
in ek
Ġ ott
am int
at al
Ġc ÃŃ
Ġ Z
lÃ ¡sÃ
Ġb iz
¡n ak
m ai
is z
Ġn ek
i p
Ġak ik
Ġ Ãģ
v er
ĠEg y
Ġfe lÃ
Ã¡n ak
ĠkÃ Ń
Ġb Ã¡r
k ol
vÃ ¡ny
n ne
ren d
a jÃ¡t
ĠtÃ º
Ġmeg fele
Ġ mar
Ġ U
Ġfe lt
m ut
ĠrÃ ¡
at lan
Ġp er
Ġi tt
Ġhan g
Ġval amint
Ã¼ tt
e bb
Ġ Ã©l
": "
lÃ ©k
es sÃ©g
mÃ ©t
Ġvis sza
k od
ĠszÃ¡mÃ ¡ra
l at
Ġp Ã©n
¼ lt
" ,"
ez Åĳ
for mÃ
os an
dÃ ¡
Ġar ra
og ram
Ġin d
Ġan y
Ġ oldal
s zak
Ġren del
Ġb eszÃ
z ik
Ã¡r a
Ġami t
h u
d ik
ĠkÃ¶vet kez
ve n
t Ã³l
Ġmi att
Ġ kon
Ġke d
l m
Ġter mÃ
¡ cs
hÃ ¡ny
ĠlÃ ©t
Ġf ig
sÃ ³
ĠM i
Ã ¡bb
e ng
Ġt ele
Ġhan em
Ġme llett
ĠelÅĳ tt
ĠÃ¼ g
kÃ¶ z
Ġjele n
aj t
Ġ w
ez Ã©s
m Ã©szet
Ġp ar
u rÃ³
alÃ ¡d
Ġvis z
in d
Ġn incs
Ġs ik
) .
Ġv er
ĠmÅ± kÃ¶
ĠszÃ ¡z
Ã ¶nt
l ap
Ã¡l lÃŃt
ek kel
© lt
Ã©l kÃ¼l
ele m
Ġa mikor
t al
k ar
t am
Ã ¶t
Ġs ajÃ¡t
pe n
ut Ã
¶ z
Ġ orszÃ¡g
ĠkÃ ¼l
nÃ ©
ĠÃº t
le szt
eg e
Ġ Ã¶n
Ġegy Ã¼tt
âĢ ¦
u p
sÃ º
00 00
ĠvÃ¡l aszt
Ġ or
t ak
Ġrendel kez
Ġkez elÃ©s
adÃ ³
em e
ny i
k ut
Ġ elt
¡ bÃ³l
u lÃ¡s
o f
u lÃ³
Ġp Ã©l
olÃ³ g
Ã¡s z
Ġt Ã¡rs
izs g
Ġbe teg
Ġgy Ã³gy
Ġazon ban
¡ ba
Ġs e
ĠÃ¼g y
Ġmegfele lÅĳ
ul l
Åĳ t
Ġ mun
© b
i ll
Ġ Ã©n
Ġer ed
nt e
os z
Ã ¶rÃ
o v
ol na
ye n
Ġgond ol
Ġ W
ek ben
Ġ 6
Ġbizt osÃŃt
Ġah ol
Ã ©b
Ġt Ã¡r
fe j
Ġv Ã¡llal
Ġszolg Ã¡lt
v on
Ġter Ã¼let
ĠszÃ Ńn
Ġig Ã©ny
at ot
Ġj obb
le m
Ġi lyen
s or
ĠÃŃ r
Ġh ar
Ġp Ã¡r
urÃ³ p
Ġcs alÃ¡d
Ġt est
v Ã¡r
v is
Ġn Ã©lkÃ¼l
p r
¡sÃ ¡r
Ã ¶tt
ny v
a c
Ġfog lal
hasz nÃ
em ber
se l
ĠtÃ¡m og
o lÃ¡s
Ġker es
Ġ ben
Ġb Åĳ
d ig
an t
Ġ ja
Ġalkal m
Ġgy akor
Ãº jt
Ġsor Ã¡n
m oz
Ġa kÃ¡r
ĠkÃ©r dÃ©s
ÃŃ j
ÃŃt ott
ĠD e
ï ¿
ï¿ ½
ok kal
os s
ĠS zÃ
Ġv olna
Ġt iszt
Ã ¡m
tt e
¶ g
Ġp ont
k ozÃ¡s
sÃ©g i
k ozÃ³
jÃ ©k
Ġf ontos
Ġsik er
k a
Ã¡r om
ÃŃt Ã
or s
Ġbiz ony
Ġa jÃ¡n
Ġ2 00
Ġan nak
t art
Ġalap jÃ¡n
Ġ ma
ĠG y
Ġval ami
y i
Ġfoly am
Ġ kar
on sÃ¡g
Ġpr ogram
Ġh agy
t r
ĠkÃ¶zÃ ¶s
2 01
³ z
Ġt ag
ek int
Ġh Ã©t
Ġmeg v
Ġered mÃ©ny
Ġbe lÃ
ĠjÃ ³l
de t
Ġis mer
formÃ ¡ciÃ³
¡ hoz
ad t
l mÃ
Ġhat Ã¡r
Ġter mÃ©szet
ge n
an ak
Ġmind ig
Ġt Ã¼
S Z
Ġg azd
Ġd Ã¶nt
Ġ esz
Ġh i
Ġmag as
kÃ ¡bb
de tt
m al
ge l
o kÃ
se ny
om b
an g
sÃ©g ek
ĠtÃº l
z em
Ġle tt
Ġeset Ã©n
utÃ ³
o mÃ
Ġ kut
at ott
ke dÃ©s
egy e
Ġ es
Ġker Ã¼l
Ńv Ã¼l
Ġcs ap
es s
ezt e
Ġ1 0
ud ap
ye l
Ġaz ok
d i
Ã ³t
udap est
ĠkÃ¶ lt
is zen
¡ tt
lye t
¶k ke
Ġa zÃ©rt
Ġ 8
nk or
z al
Ġszab ad
Ã ¡cs
Ġny il
ĠtermÃ ©k
k Ã©s
Åĳ e
Ã ¡ciÃ³
Ã ©ke
ĠszÃ ¡l
Ġ2 0
is t
Ġker eszt
Ã ļ
p ort
h ogy
Åĳe n
ĠjÃ¡t Ã©k
alm az
Ġ ed
z ab
Ġ mut
e zÃ©rt
v Åĳ
us zt
© ve
ĠlÃ ©p
Ġany ag
Ġ 7
i c
atÃ ¡sÃ
ĠkÃ©szÃ Ńt
l a
Ġszer zÅĳ
szÃ ¡m
e tlen
Ġak ar
ĠszÃ¡mÃ Ńt
jÃ ©n
Ġmunk a
Ġ ezÃ©rt
Ã©s Ã©t
ĠhÃ ¡z
ĠC s
k ot
Ġfor d
Ġ ko
o mÃ¡s
Ã į
rÃ ¡n
us z
aj n
rÃ³ b
hat Ã¡r
Ġi rÃ¡ny
© hez
in ak
se n
. )
zÃ ¡l
Ġp Ã¡ly
dÃ¡ ul
Ġin formÃ¡ciÃ³
as on
Ġ moz
j on
³ s
Ġt Ã©r
Ġ ra
h on
ĠkÃ¶r ny
od a
Ã ¡ny
Ã©s ek
Ġer Åĳ
jÃ ¡ban
ĠmÃ ©r
ĠÃ©rt e
ĠI st
ĠtÃ¶r vÃ©ny
Ã¡n os
ĠelÃ ©g
ob lÃ©
f al
alm as
rÃ ¡
Ã ©ly
mÃ©ny ek
Ġszab Ã¡ly
Ġsem mi
t Åĳl
n em
ĠkÃ¶ nny
op ort
Ġf ogy
Ġr Ã©szÃ
Ġj elle
leg es
v os
Ġszer vezet
any ag
i ai
Ġw eb
ĠkÃ¶ tele
v es
Ġfel ad
Ġh iszen
ĠelÃ ©r
Ġ elv
ĠÃ©r int
i e
ĠszÃ¼k sÃ©ges
oz at
eke n
Ã ¶lt
ol it
am p
Ġn Åĳ
Ġtelj es
ele k
ik a
Ġr eg
Ġnem zet
Ġvan nak
Ġgyer mek
an d
l nÃ
Ġmi ll
Ġke v
Ġmeg jele
Ġmi lyen
ÃŃtÃ ³
2 0
ĠnÃ ©p
ke ny
¶ m
Ġv izsg
ĠhÃ ³
Ġbe le
l g
h Ã¡t
l ag
Ġvon at
bÃ ¶
Ġh Ã¡rom
l ik
t Ã¡r
je sÃŃt
szÃ Ńn
Ġez ek
ok ban
Ġs Ã¼
Ã¡sÃ ¡t
ĠmÃ¡s ik
Ġ Ã¶t
Ġh Ã¡t
n c
Ġf il
Ġegy Ã©b
Ã ³r
del mi
Ġh atÃ¡s
Ġpr oblÃ©
Ġb ar
os sÃ¡g
Ġv Ã©r
Ġ eng
Ġt ekint
Ġh os
ĠrÃ ©g
z s
Ġf Ã©l
b ben
f oly
Ġmin Åĳ
ĠÃ©v es
Ġt esz
szÃ ¶n
e nt
Ġamely ek
aszt al
Ġi d
z or
ul ajd
ĠÃ©rd ek
g al
akÃ Ńt
Ġ kÃ©s
Ã¼g g
Ġfel hasznÃ
Åĳ bb
j obb
ese bb
me l
e ner
r o
s zab
h al
ez ett
zÃ ¡n
Ġt Å±
ĠszolgÃ¡lt atÃ¡s
cs i
jÃ©k ozt
Ġv ÃŃz
¡g y
kÃ ©t
fe l
Ġint Ã©z
ĠbelÃ ¼l
ĠvÃ¡r os
ĠtÃ¶rtÃ©n e
º lt
ĠMagyar orszÃ¡g
Ġad ott
Ġa dÃ³
Ġhely zet
ĠtÃ ©ny
Ġt ap
Ġh az
t or
Ġ kat
n agy
at ban
ĠÃ©p ÃŃt
is mer
Ġa bb
âĢ ĵ
ĠkÃ ¡r
Ġeset ben
oss z
Ġver seny
ĠN agy
Ġkor mÃ¡ny
szÃ ¶r
¡ p
Ġfor mÃ
e p
Ã ©hez
Ġtel jesÃŃt
Ã ³k
i um
ĠszÃ ¼
Ġvisz ont
ott a
Ġ 9
Ã ©le
in e
Ġc Ã©g
ke d
ut Ã¡n
mÃ ©r
or d
Å Ĳ
r Ã¡s
ĠszÃ ©p
tele n
Ġgyer ek
ĠpÃ©l dÃ¡ul
¡ lÃ¡s
v ar
ĠkÃ¶ ze
ÃŃt Ã¡s
u b
\\ \\
Ġmun kÃ
E g
vÃ© keny
Ã ¡b
Ġny ug
e lmÃ
Ġok t
od ik
Ń g
Ġmeg old
ĠkÃ¶r Ã¼l
ĠszemÃ©ly es
Ġegy szerÅ±
v it
s zik
ch n
Ġhasz n
Ġme nt
Ġszint e
ez ni
al Ã©k
ĠM eg
ĠrÃ©s ze
Â Ń
i kÃ
Ġ1 5
ĠM in
Ġad atok
I I
Ġnagy obb
Ã©s zt
m ad
Ġfelt Ã©t
Ġki al
Ã ĵ
Ġmar ad
¶ bb
Ġle nne
¡ ja
ĠfÃ ¡j
Ġleg jobb
ĠvÃ ©
l ak
j egy
H a
Ġkor Ã¡bb
Ã ©ve
urÃ³p ai
ĠcsÃ ¶kke
szÃ º
Ġren de
Ã ¶bb
vÃ ©g
cs ak
iÃ ¡k
o ok
Ã ³z
¼ g
ol ni
Ġme nnyi
³ ta
at ni
ĠrÃ©s zt
m est
Ġgy ors
Ã©s Ã©re
Ġh ason
Ġmin de
jÃ ©t
Ġleg yen
ĠB udapest
a it
Ġvezet Åĳ
Ġhogy an
Ġ1 8
ĠnÃ© hÃ¡ny
ĠszÃ ¡r
ÃŃ rÃ³
fÃ ©le
Ġny Ãºjt
Ġ Ã¶rÃ
Ġfoly t
ĠszÃ Ńv
Ġfej leszt
ĠhÃ³ nap
Ġj ut
Ã ³ta
Ġt ulajd
t Ã¡k
Ġ oszt
ran d
Ġ Ã©t
Ġalkalm az
Ġmeg hatÃ¡r
e nd
Ġegy mÃ¡s
kÃ ©ben
ĠkÃ©p es
ĠvÃ ¡sÃ¡r
Ġte vÃ©keny
Ġme l
Ġer e
t Ã©ben
Ã ³s
Ġ eb
Ġszere p
l fog
Ġeng ed
Ġl akÃ
kÃ¶ zÃ
¶ vet
Ã ©d
g t
ĠtÃ ©
dÃ ©k
lÅĳ s
for d
Ġfe n
jÃ¡n ak
het i
l lÃ¡t
Ġh ÃŃr
ĠkÃ¼lÃ¶n bÃ¶
olg Ã¡r
Ġmi t
ĠO r
me nnyi
asÃ¡g i
Ġny om
Ġin kÃ¡bb
Ġa p
Ã©s re
at ja
ĠnÃ ¶
ĠsegÃŃt sÃ©g
Ġin g
¶v Åĳ
Å± r
Ġvagy ok
ok nak
f Ã©r
Åĳ r
©g y
ĠÃ©r de
m us
atÃ¡s i
n al
m egy
Ġ u
Ġval a
ek nek
ĠtÃ¡ v
1 9
t ik
Ġl ak
m o
Ġ elmÃ
Eg y
ja i
A T
l ott
ĠS zer
e nnek
be t
Ġh iÃ
E z
me ly
d t
ĠF e
ap ot
Ġh Ãº
rÃ ©
ĠgyÃ³gy szer
ĠkÃ©p vis
ĠÅĳ ket
sÃ ©
ett Ã©k
Ġ Ãļ
ĠlehetÅĳ sÃ©g
szÃ Ń
ĠEg ye
Ġfor int
Ġez zel
E L
ĠkÃ¶ nyv
at koz
rÃ ¡g
atÃ ©k
Ġker Ã¼lt
z olg
or Ãº
Ã ¡p
ĠszÃ¼k sÃ©g
ĠbeszÃ ©l
ele t
Ġc ik
tal an
Ġi z
Ġv ele
r is
e li
e lfog
ĠfÃ ©ny
nkor mÃ¡ny
Ã¼l Ã©s
ig e
Ã ľ
em ut
kez elÃ©s
lÅĳ dÃ©s
ĠtalÃ¡l hatÃ³
ĠÃ©rde kÃ©ben
Ġah ogy
ĠÃ¡l lÃŃt
at ÃŃv
ĠkÃ¶ t
ĠkÃ¶vetkez Åĳ
e llÃ¡t
ak at
h Ã©r
Ġ :
r it
Ġh iv
ĠKÃ ¶
Ġtele p
Ġnyil vÃ¡n
Ġfi zet
e tÃ©s
jele nt
ĠszÃ³ lÃ³
l jÃ¡r
ĠtovÃ¡bb i
f on
ĠfÃ©r fi
ÃŃ p
Ġtap asztal
p l
Ġ elfog
© lÅĳ
Å± jt
dÃ ¶tt
Ġis mert
Ġal ak
Ġ Â
©v Åĳ
Ġki cs
Ġh it
ĠlÃ©t re
a cs
em es
atos an
e ljÃ¡r
ĠÃī s
Ġke lle
ĠtÃ¶ lt
Ġegy es
hat ja
Ġi gen
ĠnÃ ©z
v Ã¡lt
alÃ ¡bb
Ġtelj esen
mÃ ¡l
l h
ĠT e
ĠszerzÅĳ dÃ©s
ok on
Ġar rÃ³l
ĠÃºj ra
Ġh on
Ġle l
ĠB e
Ġi r
Ġki t
M i
Ġ Ã©ve
r u
Ġegy szer
Ġp olit
Ġegy ed
ĠkÃ¼lÃ¶nbÃ¶ zÅĳ
ĠkÃ¶rny ezet
e lnÃ
Ã©r Åĳl
ĠtÃ¡ jÃ©kozt
nagy obb
Ġvizsg Ã¡l
ĠkÃŃ vÃ¡n
Ġg Ã©p
Ġper c
Ġ ennek
het etlen
kÃ¶ zi
sÃº ly
rÃ³b Ã¡l
zÃ©s e
l ni
ĠszÃ¡z alÃ©k
Ġj e
Ġol vas
ja bb
m at
z let
Ġb ek
z ott
Ã¡sÃ ¡ra
Ġvis s
is ta
d a
ĠL e
s zor
Ġter vez
Ġmi vel
Ġegy re
Ġ eljÃ¡r
ĠE r
Ġ megy
le tt
m u
Ġint er
ĠkÃ¶ szÃ¶n
Ġker e
³ ra
¡ v
Ġnek i
Ġd ol
l o
Ã¡l aszt
ak i
fi zet
ĠÃ©rt Ã©k
Ã¼ lÃ
ek re
oz ik
fal se
al mi
ĠkÃ ŃvÃ¼l
1 0
s i
ĠA d
p ar
ĠÃĸ n
Ã ¡val
mÃ©ny e
ĠÃ©r kez
kÃ ³
mÃ ¡t
Ġf al
Ġfi atal
ĠâĢ ľ
ele n
zÃ Ńt
ĠkÃ¶zÃ ¼l
Ġhos szÃº
Ġkereszt Ã¼l
Ġ zÃ¡r
rend szer
Ġbizt onsÃ¡g
Ġp l
re l
e nek
Ġ elnÃ
an dÃ³
Ġf ok
jÃ º
Ġember ek
ĠKÃ ¶z
Ġvonat kozÃ³
Ġfig yel
Ġminden ki
ĠtÃ¡r g
ÃŃt Ã©s
Ġfogy aszt
sÃ©g Ã©t
er Åĳ
de lem
Ġez e
Ġhason lÃ³
b i
c a
al ma
Ġ mer
Ġtan ul
Ã¡s sal
ĠnÃ ©gy
k ult
Ġal kot
hÃ ©z
Ġp ontos
ĠmÃ³d on
Ġ1 2
ass z
Ġja v
ĠS ze
ozÃ ¡sÃ
Ġan nyi
ĠtÃ¶rtÃ©n Åĳ
ĠfelhasznÃ ¡lÃ³
ĠmÃ¡s odik
nkormÃ¡ny zat
00 0
kÃ©szÃ Ńt
ert Åĳ
Ġmeg b
Ġb or
Ġje l
Ġfil m
ĠfÃ¡j d
Ġ Ã³ta
n Ã©k
sÃ¡g i
ok ra
Ġ ze
ĠlÃ¡t og
Ġeze n
oz ni
Ġhely i
Ġszere pe
d ÃŃj
ad ott
ĠcÃŃ m
Ġ ellÃ¡t
m ot
sÃ¡g ot
Ġer re
t ett
Ġpr o
Ġor vos
Ġleg alÃ¡bb
Ġb emut
is b
Ġs Ãº
© lÃ
Ġcs oport
k l
g atÃ³
Ã¡s ra
Ġv eszÃ
Ã ³ra
Ġed dig
©re t
h ol
Ã ©lÅĳ
ener g
Ġaz zal
v eg
Ġweb oldal
vÃ© delmi
ĠtÃ¡rs ad
ĠegÃ©sz sÃ©g
ĠhiÃ ¡ny
Ġ Ã©le
ĠÃ©rt Ã©ke
in Ã¡l
Ġ Ãį
Ġte chn
Ġt i
m on
fÃ ¶ld
ci Ã¡lis
kÃ ©r
Ġcs at
e lh
Ġa utÃ³
Ġben ne
ren de
Ġke llett
atÃ©k ony
y a
Ġvolt ak
am ar
c ia
elt e
sÃ ©r
Ġut ol
ĠmÃ ©rt
Ġd i
let e
N em
f Åĳ
Ġte hÃ¡t
Ã¡n t
ĠfÃ ¶ld
Ġv esz
Ġmill iÃ³
ĠkÃ ©ny
le k
Ġtart almaz
jÃ ¡bÃ³l
Ġleg nagyobb
Ġh aj
n dÃ
Ġbar Ã¡t
Ġny elv
Ġmond ta
ĠR e
ĠÃ¡ll apot
m od
u Ã¡lis
ett em
ĠkÃ¶ zt
Ã³l ag
h ar
d olg
ĠÃ©p pen
ĠkÃ¶z vet
h ÃŃv
ĠkÃ ©z
ĠN e
s zi
Ġ 0
c k
gÃ ³
vÃ¡r os
dÃ ©
r ak
Ġmeg Ã¡ll
hat nak
szÃ ³
Ġugyan is
mest er
E T
Ġtulajd on
Ġt Åĳ
Ġb Ã
ĠszÃ Ń
- -
zÃ ¼k
ett ek
ek ed
ĠrÃ ¶v
Ġmag Ã¡t
p art
Ġki fej
z iÃ³
Ġ3 0
om ag
ĠkÃ©s Åĳbb
ĠÃŃ rt
Ġr ossz
Ġ zÃ
ar ab
Ġok oz
Ġegye n
ĠjÃ ¶vÅĳ
bb i
Ġeb ben
Ġszem ben
Ġszer vez
Ġal Ã
e sÃŃt
e x
Ġtud ja
Ã¼ lÅĳ
ia c
l j
Ġ X
ad Ã©k
ĠtÃ¶rtÃ©ne t
E R
ĠalÃ ¡
ĠsÃº ly
ere nc
g azd
ĠÃ¡ll am
Ġez er
Ġ Ã©lÅĳ
al Ã¡n
f elÃ
Ġott hon
Ġjelle m
ĠÃ©rd emes
k Ã©sz
Ġs port
ĠcsÃ¶kke nt
ĠmÅ±kÃ¶ dÃ©s
m es
omÃ¡ny os
at on
Ġfele lÅĳs
ĠszÃ ¼let
Ġ energ
b or
Ġem lÃ©k
© j
Ġh ol
Ġne hÃ©z
mÃ ¡k
sÃ ¼l
Ġl ap
ĠvÃ ©le
e lm
ko zt
ĠkÃ¶zÃ ©p
Ġsok kal
rÃ ¡k
rÃ ¡ciÃ³
Ġ op
ĠcÃŃ mÅ±
% -
nÅĳ r
Ġd ÃŃj
Ġember i
al i
Ġmag a
me n
s a
ĠtÃ¡rg y
Ġabb an
Ã ¡v
. âĢĿ
j ed
ĠvÃ¡l asz
lÃ ¡m
Ġp art
p er
sÃ ©k
lÃ ¡
Ġmeg s
Ã¼ r
ol ja
ĠkÃ©szÃ ¼lt
e v
len Ã¼l
Ġ est
az it
as t
Ġ on
n dÅĳ
zÃ ¼let
Ġfe lÃ©
sÃ¡g a
f t
Ġleg t
Ġszem pont
alÃ ¡ban
ndÃ ©g
f Ã©l
Ġ kult
Ġf in
Ġutol sÃ³
Ã ¡g
jÃ ¡ra
Ġmoz g
ĠmÃ©g is
Ġ mo
n ik
Ġv it
ĠÃ¼ zlet
ĠlÃ ©ny
t an
z int
! !
ĠkÃ¼lÃ¶n Ã¶s
ĠmÃ³d szer
Ġrend ez
âĢ ŀ
se bb
ni a
ott ak
ĠlÃ ©vÅĳ
ĠÃ©v i
Ġleg f
vÃ ¡
j ekt
kÃ©p pen
m an
ĠkÃ¶ zel
lÃ ©t
Ġ1 4
Ġkev Ã©s
ĠK i
Ã¼g yi
Ġ elh
lÃ ¡r
at Ã¡t
r on
Ġele k
ge t
© be
ĠkÃ¶vet Åĳen
an k
ÃŃ rt
o h
ĠNem zet
atÃ³ k
ĠtÃ¡mog atÃ¡s
Ġkez d
Ġki zÃ¡r
Ġtal Ã¡n
ĠR Ã
Ã¼ n
be li
Ġalkal ma
Ġig a
Ġme n
Ġ Ã¶r
kÃ¶ r
de ti
Ġszolg Ã¡l
Ġjelent kez
Ġ1 6
ad i
Ġmi Ã©rt
s s
Ġj egy
ĠM ar
Ġte t
Ġelek tr
het nek
Ġ1 1
mÃ ¡n
Ã ¶k
Ġja vas
sÃ Ń
k Åĳ
Ġbe t
Ã©szÃ Ńt
ĠÃ©r vÃ©ny
ĠelÅĳ re
Ġkics it
ĠmegÃ¡ll ap
olÃ³g iai
att al
Ã¡r d
ĠjÃ º
ĠkÃ¶z ben
von al
h agy
rÃ ¡t
Ġeset Ã©ben
© ket
Ġsz o
Ġszak mai
sÃ ¡r
Ġjelen leg
szab Ã¡ly
Ġcsap at
nÃ ¶
Ġer Åĳs
Ġkom oly
ĠmÃ Ńg
Ãº j
ĠrÃ©sz let
Ġhar mad
ĠN y
vÃ ©n
d er
r al
ny e
h ajt
jÃ ¶n
Ġh ÃŃv
Ġgy Ã¡rt
v alÃ³
Ġis mÃ©t
Ġ oda
mÃ©ny t
Ġkis ebb
Ã ©lt
Ġ ,
ĠT er
mÃ ³d
Ġazt Ã¡n
y elem
o x
vezet Åĳ
Ġut Ã
att a
ozt a
ĠbÅĳ r
er es
ak t
Ġf ut
kez e
ĠÃ©p Ã¼let
ny omÃ¡s
ĠpÃ¡ly Ã¡z
mÃ ¡r
Ġtud om
lÃ ¡n
ĠmÅ± v
ĠszÃ ³l
uk at
l og
Ġt ÃŃp
Ġh atÃ³
kÃ ¡t
ĠvÃ©g re
f f
iz mus
Ã¡s ban
ĠsegÃŃtsÃ©g Ã©vel
n s
ĠM Ã¡r
Ġ /
al Ã¡l
Ġ1 3
Ġve ndÃ©g
ĠelÃ©r hetÅĳ
Ġbeteg sÃ©g
hetÅĳ e
d or
hetÅĳe n
s zolg
ez dÃ©s
ĠIst e
Ġ kl
Ã©s sel
ke dÅĳ
kÃ¶z ben
Ġkapcsol atos
kez elÅĳ
Ã¡r os
mÃ¡l is
Ġny it
Ġak t
Ġhon lap
E N
Ġf Ã¼gg
ĠA zt
e tÅĳ
ĠidÅĳ szak
ĠszÃ¡m os
g ek
ĠkÃ©pvis elÅĳ
kÃ¶ vet
ĠMin den
ĠtÃ¡ p
isb rand
hÃ ¡
szÃŃn Å±
ĠÃ¶ssz es
vi lÃ¡g
ĠhozzÃ¡ jÃ¡r
je n
kol a
Ġ mot
³ ber
Ġbizt os
u lÃ¡sÃ
unk at
szÃ ¡l
Ġd o
ÃŃt ani
Ġst r
vÃ©t e
ĠÃ¼ zem
Ġkez e
Ġjobb an
sÃ©g Å±
Ġdol og
h es
ĠÃ¼ nne
ĠÃ¡l lÃ³
Ġpar azit
ĠszÃ¡l lÃŃt
vÃ©te l
elÅĳ tt
Ġ1 7
ĠÃ©v ek
l ine
kÃ ŃvÃ¼l
Ġh atÃ©kony
Ġf ertÅĳ
ker es
lÃ ©p
ĠA l
ĠrÃ ¶g
Ã¡r i
Ġhal lg
Ġenged Ã©ly
ĠrÃ¶v id
Ġd ÃŃ
Ġval aki
ĠjÃ¡t s
Ġnemzet kÃ¶zi
ĠcÃ©l ja
net e
ette l
e ll
Ã µ
2 00
v Ã¡laszt
Ã¡bb i
Ġ19 9
Ġmun kÃ¡
tte l
ig az
Ġfelad at
Ã¼ nte
Ġp ap
Ġelle nÅĳr
Ġi m
ze d
kÃ ©let
ak ran
ĠelmÃ ºlt
Ġp an
Ġne vez
Ġf ot
Ġs o
ĠE zt
Ġbek ezdÃ©s
¶ rtÃ©n
on g
v ek
nt art
Ã ¡lÃ³
mennyi ben
ĠlÃ ©g
ige t
zÃ©s i
kÃ ¼
Ġsze n
ook ie
Ġt it
ajn os
s zint
Ġnek em
Ġper sze
ĠtÃ¶bb i
3 0
Ġmeg ny
Ġmegjele n
Ġkapcsol atban
sza bb
i dÅĳ
Ã¡r Ã³l
¶ rt
ĠÃ©rint ett
ĠkÃ¶lt sÃ©g
Ġ [
Ġjog os
ĠS t
ott sÃ¡g
Ġ2 5
kÃ¶ dÃ©s
Ġhaz ai
³ v
ĠmÃ ©ret
Ġfe hÃ©r
Ġs p
ak ar
Ġne ve
Ġsz av
lÃ ¡l
rÃ ©t
ĠH ogy
m ele
ĠlÃ ¡b
Ġf unk
Ġst b
Ġki r
lÅĳ k
Ġgy Ã
Ġsz or
ĠjÃ ¶n
Ġra j
ĠkorÃ¡bb an
w w
Ã ¶rtÃ©n
ott Ã¡k
zÃ©s t
hat atlan
ĠÃ©v ben
Ã¡sÃ ¡val
ĠveszÃ ©ly
ĠmÃ ¡j
ĠIste n
ajn ok
Ã¶n g
je l
Ã ©j
e urÃ³pai
/ /
ni kÃ
Ġkez dÅĳ
Ġadat kezelÃ©s
Ġp ill
Ġ za
ĠnÃ ¶v
Ġtan Ã¡cs
ul at
Ġminde nt
mer ikai
Ġd ok
ĠmÃ³d osÃŃt
2 1
Ġ mai
k ik
Ġd arab
le r
Ġharmad ik
at ikus
t ni
sor ban
atÃ¡s a
ĠajÃ¡n l
ĠlakÃ ¡s
Ġmeg elÅĳ
ĠN Ã
G Y
oz za
tt p
Ġmely ek
be teg
il is
kÃ ¡n
Ġb al
y Å±
okÃ ¡s
Ġaz okat
Ġ kol
vÃ ¡lÃ³
ĠutÃ ³
ĠmÃ º
er n
Ġele m
Ġegye tlen
l mond
ĠszÃ ¡n
Ġal Ã¡bbi
Ġsiker Ã¼lt
mÃ º
b bet
Ġfig yelem
Ã©szet i
¼g y
Ġut a
Ġa b
ĠÂ §
Ġ Ã³ra
o w
: //
tt al
hat unk
\\\\ \\\\
Ġcs omag
k am
Ġa ut
al ap
Ġame lyet
ull adÃ¡s
es ek
c kÃ
ĠszÃ ¶v
Ġvagy unk
ĠlÃ ¡tt
iÃ ¡ban
ĠÃ¡lt alÃ¡ban
Ġf Å±
f Ã¼gg
ĠM ind
sÃ©g gel
ĠÃį g
ĠEz ek
Ġesz kÃ¶zÃ
h hez
ĠjÃ ¶tt
Ġelfog ad
Ã¡l lÃ³
ĠÃº jabb
Ġb Å±
Ã¡sz lÃ³
Ġdo hÃ¡ny
Ġmeg le
iÃ ¡
Ġ mod
zt e
Ġt em
Ġp i
ĠtermÃ©szet es
Ã ³ber
Ġked vez
Ġi ll
Ġvisz ony
Ġ ÅĲ
Ġ mikor
ĠIst vÃ¡n
u e
Ġtele fon
ĠÃ©s z
ĠE nnek
ĠsÃ¼ tik
Ġhaszn Ã¡lt
Ġf ris
nÅĳ tt
ÃŃt Ã¡sa
Ġkap ott
Ġle nni
ĠbÃ¡r mi
Ã¡s okat
Ġkapcs olÃ³
ÃŃ l
ĠÃįg y
jÃ ³
ak kor
zÃ ¡k
Ġszint Ã©n
Ġtesz i
Ġkial akÃŃt
ĠlÃ ¡ny
Ã¡sÃ ¡nak
Ġbe lsÅĳ
t y
¶ gÃ
zÃ ¡t
Ġmin iszt
lt e
h ang
Ġd Ã©l
or y
Ġgyakor lat
Ġmeg kÃ¶
ĠvÃ¡lt ozÃ¡s
Ġah hoz
k an
sÃ ¡k
ÃŃt ja
Ġh ir
ĠtÃ¶ kÃ©let
ĠS Z
Ġtal Ã¡lt
M eg
an u
ĠFe l
p t
ĠL Ã¡szlÃ³
cs e
m os
Ġbe Ã¡llÃŃt
Ġp rÃ³bÃ¡l
Ġkez de
Ġgy Å±jt
Ġhiv atal
n ge
ĠzÃ ¶ld
ĠkÃ¶ ny
Ã ³v
Ġh or
Ġp iac
Ġalkal om
e lj
i de
Ġh Åĳ
Ġp olgÃ¡r
Ġhe lyen
Ġt a
ĠkÃ ¼
Ã ¡ba
Ġmag am
ĠtÃ¡v ol
Ġgy Åĳ
Ġmegs z
i Ã¡rd
ez ik
kÃ ¼nk
ĠintÃ©z mÃ©ny
ik e
Ġ kÃ©sz
lÃ ©g
ĠSze nt
Ġkial ak
u tt
Ġ Ã©j
Ã¼n ket
ĠkÃ¶z le
y ek
Ã ¶m
Ġd ob
k b
Ġmegv alÃ³
ĠrÃ©g i
Ã©s Ã©vel
Ġoszt Ã¡ly
Ġ Ãľ
Ġlegt Ã¶bb
zÃ ¡sÃ
ÃŃt vÃ¡ny
Ġkor lÃ¡t
hat juk
ĠÃ¼nne p
ne vez
Ġiga zÃ¡n
Ġan g
Ġcik k
ĠszÃ ©le
ĠlÃ¡t hatÃ³
ĠvÃ©g Ã©n
ĠnÃ¶ vÃ©ny
ĠelÅĳ szÃ¶r
ĠF t
ĠÃ¡t lag
Ã©n k
f a
Ġnap on
ar d
Ġbizony os
Ġgy akran
Ġh ÃŃ
eg Ã©szÃŃt
3 6
os abb
ĠI n
Ã¡n k
s on
Ġa merikai
u c
Ġadat okat
Ġhely ett
Ġpill an
ontos abb
o csÃ
Ġjellem zÅĳ
1 2
ĠtevÃ©keny sÃ©g
ĠA nd
Ġfor g
ÃŃt Åĳ
Ã©s zen
Ġjelent Åĳ
Ġjelent Åĳs
l me
ak ban
Ġgazd asÃ¡gi
© bÅĳl
Ġtud juk
ĠpÃ©n z
nÃ ¡
5 0
Ã©s Ã©nek
Ġcs inÃ¡l
e lmond
ot e
eszt Åĳ
Ġere deti
Ġaz az
es zer
zÃ ¶tt
ĠmegfelelÅĳ e
ĠmegfelelÅĳe n
old og
ĠszÃ¡m a
s p
it Ã¡s
f ig
egy ed
Ġis ko
ĠEgye sÃ
j unk
ĠkÃ¶z pont
ĠM e
jÃ ¡val
n an
ĠtÃ¶rtÃ©n t
foly am
Ġar c
Ġ Ã©g
kor i
nt i
Ġfen ntart
e ndÅĳ
p tem
ĠÃ¶ss zet
Ġ elmond
ĠmeghatÃ¡r ozott
Ġem e
Ġt ett
Ġvi de
Ġ ex
k in
u ment
ĠkÃŃ nÃ¡l
lÃ©s e
Ġ Ã¡m
.. ..
Ġa rÃ¡ny
lÃ¡s a
ĠjÃ ¶
de tÃ©s
ĠA k
ĠvÃ¡llal kozÃ¡s
ĠrÃ ³l
ĠÃ¡ltal Ã¡nos
Ġnap i
Ġre p
Ġjelle g
Ġazon nal
ar i
ĠvÃ©r nyomÃ¡s
1 8
ptem ber
ĠkÃ ³r
zÃ ©ke
Ġh id
© ni
. ,
Ġt or
h i
g yan
© zet
K Ã
ĠkizÃ¡r Ã³lag
Ġkapcsol at
Ġn Ã¡l
kÃ¶ nyv
ĠI nt
ĠtÃ¶rtÃ©n ik
jÃ ¡s
fÃ¶ld i
vÃ©t elÃ
Ġem lÃŃt
Ġs okat
Ġszen ve
dÃ ¡sÃ
zÃ ¼nk
ĠE urÃ³p
ĠMagyarorszÃ¡g on
¡b orÃº
u kor
mele g
Ġv a
acs ony
Ã¼ ket
Ġmegt alÃ¡l
v agy
Ġb ÃŃrÃ³
Ġki Ã¡llÃŃt
ĠH e
Ġcs up
Ġegye tem
rÃ ¶k
ĠNÃ ©
Ġf Ã¼g
ol c
kÃ ©rt
ĠÃŃ zÃ¼let
Ġc ookie
Ġeset leg
Ġh atÃ¡sÃ
Ġsz akÃ
e ny
ĠfÃ¡jd alom
t Ã©t
vÃ ¡sÃ¡r
zÃ ©r
a y
1 1
ĠtovÃ¡bb Ã
Ġez eket
ĠtovÃ¡bbÃ ¡
k os
ĠE urÃ³pai
Ġgy Ã¼
Ġokt Ã³ber
Ġkir Ã¡ly
r Ã©szt
n ull
ap cs
m ezÅĳ
Ġte nni
ĠlÃ©ny eg
ĠÃ¶rÃ ¶k
ĠK ft
ĠkÃ¶szÃ¶n hetÅĳen
i Ã¡t
t unk
ĠfeltÃ©t ele
ĠkÃ¼lÃ¶nÃ¶s e
¶ kÃ¶
Ġ eurÃ³pai
o lÃŃt
Ġsz ob
mai l
anu Ã¡r
ĠK or
Ġ kik
ss z
al l
ĠkÃ¼lÃ¶nÃ¶se n
ge tlen
0000 0000
Ġellen Ã©re
ĠSz ab
t it
Ġfel nÅĳtt
Ġ1 00
Ġelt Ã©r
Ġle ve
Ã©t er
ĠA lap
Ġfolyam atosan
¡ zt
n ki
ĠkezelÃ©s e
Ġg ar
g a
³ ri
Ġ kam
Ġ kal
Ġr ek
ĠÃ¶ssz eg
olt a
a inak
Ġp Ã¡rt
Ã ©zet
ege t
Ġford ul
egye n
Ġfunk ciÃ³
Ġszak ember
mÃ ¡
Ġmeg szÃ
ĠkorÃ¡bb i
p Ã¡r
Ġtanul mÃ¡ny
ĠhÃ ¡lÃ³
Ġalkalm as
Ġnem csak
ĠvÃ©g ig
Ġ Ã³r
ÃŃt ett
º t
ĠNemzet i
alm at
Ãģ S
¶ nkormÃ¡nyzat
bi zt
Ġut c
Ġid Ã©n
Ġs Åĳt
il ag
Ã ¶nkormÃ¡nyzat
lÃ ¡k
n ok
ĠcsÃ º
ĠkÃ¶nny e
Ġkom p
ĠkÃŃ sÃ©r
Ġad dig
ĠmÃ ºlt
ĠmÃ ©ly
©n ek
Ã©rt e
ĠJ Ã¡nos
r Ã©sz
o c
Ġ kb
1 5
Ġol va
sÃ©g ben
ĠgyÃ ¶
Ġannyi ra
ĠP r
ci us
ĠkÃ¶zÃ¶tt i
er ek
Ġlegf ontosabb
¡ciÃ³ s
Ġko ckÃ
Ġ Ã¶nkormÃ¡nyzat
¡n c
Ġrend kÃŃvÃ¼l
ozÃ¡s a
Ġhi b
Ġte het
Ġ ag
us ok
Ġke let
n Ã©nk
Ã ¡gy
ĠAd at
atÃ¡s t
od Ã¡s
A L
hasz nÃ¡l
m as
Ġszerint i
ĠnÃ© met
âĢĿ ,
t Ã©se
vÃ ¡t
ĠmÃ©rt Ã©k
ad ni
Ġfej lÅĳdÃ©s
ĠszÃ¶v eg
l kez
Ġviss zat
Ġs Ã©r
Ġamely nek
Ġmeg rende
ok t
Ġr u
. "
Ġj elÃ
ĠigÃ©ny be
ad Ã¡ly
Ġny ÃŃ
Ġmut at
l kÃ©p
ĠSz olg
Ġrendez vÃ©ny
Ġalkalma zÃ¡s
l mi
Ġpro jekt
p al
kÃ ¡l
adÃ¡s ul
h er
Ġf iz
Ġf est
ĠkÃ¶tele zett
Ġbe jelent
Ġ5 0
Ã©s Ã©hez
v ÃŃz
Ġmill iÃ¡rd
zÃ ©k
k ul
Ġjelent i
E K
ĠvÃ¡lt oz
szÃ ¡z
mÃ Ńg
vÃ ©l
k ont
ĠÃ©rd eke
p Ã©n
Ġa mik
att int
Ġmeg hal
ov ember
Ġke tt
sÃ ¼
Ġhely ez
© m
c ember
Ġ Y
is zer
n es
u z
Ġ2 4
Ã ¶rt
Ġsz eg
cs oport
Ġon line
ĠfÃ©r gek
Ġfel sÅĳ
zÃ©s ek
Ġjog szabÃ¡ly
Ġbe lÅĳ
ĠfelÃ ¼let
Ġkelle ne
Ã¡b or
ĠtÃ©ny leg
ĠÃ©r ez
ĠI s
_ _
Ġn or
Ġpolit ikai
Ġ Ã³v
eme l
re d
ĠK r
Ġcs er
je lÃ
lÃ¡s i
¼g yi
sÃ¡g Ã¡t
Ã ©lÃ
L e
O S
Ġfor r
Ġb Ãº
ĠÃģ ll
ĠD r
sÃ ¶
fej leszt
ĠCs ak
kÃ ¡k
Ġr it
ĠÃī n
Ġter em
sÃ ¼k
Ġjogos ult
ĠnÃ ©v
ĠE lÅĳ
Ã ³ri
ĠterÃ¼let e
ĠvalÃ³ szÃŃnÅ±
Ġh isz
a le
Ã ©ni
nap i
ĠT an
u mi
Ã¡k at
Ġt o
Ġki vÃ¡lÃ³
Ġsz okÃ¡s
us t
Ġkat eg
ĠidÅĳ pont
ĠkÃ¶nnye n
Ã¡lt atÃ³
Ġeg Ã©szen
z ni
ĠvÃ©g zett
N agy
n Ã¼nk
ĠP Ã©ter
Ġak art
bÃ ©
¶l cs
keze t
Ġmegv Ã¡lt
e sÃ
Ġh Å±
Ġigaz i
ĠpÃ©n zÃ
Ġcsup Ã¡n
d al
Ã¡rs asÃ¡g
ĠF erenc
p Ã
ci on
ĠkÃ¼l sÅĳ
sÃ ¡t
Ġb Ã©r
is mert
Ġsze ptember
ĠvÃ ¡gy
Ġj anuÃ¡r
Ġs pe
- ,
Ġgyors an
ĠvÃ© del
het jÃ¼k
A R
or vos
v Ã©r
Ġmel lÃ©k
ig y
ĠmÃ ¶gÃ
Ġdok ument
ĠÃ¶n mag
O R
Ã¶r g
ar k
Ġreg iszt
on ikus
Ã©r ium
g yÅ±
ĠT ud
kÃ ©
ran cia
att Ã³l
f aj
e lkez
Ġfoglal koz
ĠkÃ¼lÃ¶n leges
ĠelsÅĳ sorban
Ġind ul
Ġszere n
Ġazon osÃŃt
Ġh amar
Ġeme l
Ġalap vet
ĠfÃ¼g getlen
ĠvÃ©g Ã¼l
Ġle t
Ãº ra
ra j
Ġ Ã¼l
Ġv elÃ
âĢĿ .
ĠB i
er i
Ã¡n dor
ur Ã¡lis
b Ã¡n
le x
ne tek
mÅ± v
jÃ ¶tt
Ġny ert
Ã¡l ni
mu nikÃ
g az
Ġi rÃ¡n
ĠhÃ ¡tt
oz nak
o lÃ¡sÃ
Ġlehet sÃ©ges
at okat
ĠF Åĳ
l s
Ã ³d
h Ãº
Ġkere tÃ©ben
Ġve nni
Ġt eszt
S zer
Ġ elkez
ĠM ik
ĠutÃ³ bbi
Ġd r
ĠelnÃ ¶
pr ilis
Ġ Ã©d
Ġse nki
Ġing atlan
ge teg
ĠrÃ©szÃ ©re
eket e
Ġv ett
ĠkockÃ ¡z
Ġfele tt
Ġs ajt
Ġfig ye
Ġtag ja
³ i
A N
ege n
Ġrendelkez ik
Ã¡sÃ ¡r
szab ad
Ġki egÃ©szÃŃt
Ġs eb
Ã¶ng Ã©sz
vÃ©t ele
Ġmint ha
e lkÃ©p
Ġviss z
O L
Ġza var
Ã¡sÃ ¡hoz
Ġb aj
ĠvÃ ©d
ĠM ost
ĠkÃ¶ rÃ
am in
Ġt r
d ek
Ġal acsony
zet es
ĠZ s
ĠkÃ©szÃ ¼l
Ġvagy is
Ġrende let
Ġb oldog
Ġsz elle
M in
Ġegyed i
E D
s h
Ġhat almas
ĠfÃ ¶l
ment es
l kÃ©szÃŃt
Ġhe t
ĠmÃ¡j us
ĠvÃ©g e
ĠÃ¡l lÃ¡s
Ġta val
ĠegyÃ¼tt mÅ±
Ġcsat lak
Ġ agy
Ġma x
ĠB al
ĠkÃ©szÃ ¼lÃ
ĠegyÃ©b kÃ©nt
ĠtermÃ©szet esen
ĠkÃ©p est
lye l
ag Ã³g
f ekt
is s
Ġfog ad
Ġing yen
dt e
ĠÃ¡l lt
mi t
zat i
Ġnemzet i
ĠÃ©p p
ĠÅĳ k
ĠÃī r
ĠrÃ¶g zÃŃt
ĠvÃ ¡g
Ġsz ok
Ã©r i
Ġhat Ã¡ly
ĠszÃ¡z ad
ĠJ Ã³z
j eszt
ĠigÃ©ny e
nÃ ¶k
ĠtÃ¶ bbet
u sÃº
ĠkÃ¼ z
un g
ĠvalÃ³ ban
d ni
Ġhal Ã¡l
ĠlehetÅĳ vÃ©
kÃ ¼lÃ¶n
Ġp or
l csÃ
lÃ©s i
Ġ elkÃ©p
Ġa min
k es
Ġtud ni
Åĳ i
Ġbe foly
Ġz sÃŃ
iv Ã¡l
Ã¡z s
het Ã¼nk
g Ã©p
Ãī S
ĠidÅĳ ben
Ã¼r dÅĳ
ĠkÃ©p e
t atÃ³
ĠegyszerÅ± e
ĠegyszerÅ±e n
E S
ĠB Ã¡r
Ġalkalom mal
Ä ±
Ġ ek
Ġny er
Ġn Åĳk
S z
he tt
Ġze ne
f ed
h eze
ĠdohÃ¡ny zÃ¡s
Ġg omb
ĠkÃ¶tele s
ĠszÃ©le s
ĠÃ©l mÃ©ny
i on
Ġde cember
Ġren dÅĳ
Ġ ur
zÅĳ dÃ©s
ĠszÃ ©k
Ã©s ben
Ãº t
dÃ ¡k
Ġoldal on
Ã©k ony
ĠkÃ ¡
ĠhÃº s
Ġt ur
ĠF Ã
ez ette
Ġismer e
O N
Ã¡lt alÃ¡n
Ġnyil atkoz
Ġfin om
Ġ meleg
vÃ ³
abb an
b ar
ok bÃ³l
ÃŃr Ã¡s
Ġ kont
ĠB iz
ut a
Ġren geteg
Ġki vÃ¡laszt
k attint
l hely
Ġtart ott
Ġ2 1
ĠkÃ¶zÃ ©
Ġb Ã¶ngÃ©sz
se f
in kÃ¡bb
Ġn ovember
Ġmag Ã¡n
ĠszÃ ¶vet
as zÃ
ig it
ny al
sÃ ¡
Ġst ÃŃl
ĠnÃ¶ vel
ĠmÃ ©t
l mÅ±
Ġn egyed
Ġb ank
Ġt ÃŃz
Ġmunk at
os ok
ĠelÅĳ ford
Ġmin Ã©l
pl om
Ġv ar
Ġd iÃ¡k
ni us
oz it
ĠÃ¡ll ami
ÃŃtott a
ve tt
Ġang ol
orszÃ¡g i
l vÃ©g
ĠnÃ¶v eked
in c
ill ag
de x
vÃ ©ben
ĠelnÃ ¶k
Ġlehet ett
Ġjog i
at kozÃ¡s
Ġso ha
Ã³g Ã©p
omÃ ¡n
in a
Ġb er
Ġ: )
Ġpontos an
ĠA r
hÃ¡z i
Ġne v
ĠtÃ¶ meg
k ony
mÃ ©ly
s em
ĠP er
ĠÃ¡l d
¶rÃ ¶s
sÃ ©rt
d ez
Ġ &
Ġpr of
ĠÃ©let e
u h
ĠmÃ¡r cius
ĠkÃ¶tele zÅĳ
ass a
al a
Ġir od
ĠpÃ©n zt
Ġki der
H ogy
an cs
ĠÃ©v vel
Ġame nnyi
iv atal
ĠV i
Ġ zen
Ã¡t or
sÃ©ge i
Ġide je
ĠT a
Ġgazd ag
ĠNagy on
Ġmeg szer
ĠmegvalÃ³ sÃŃt
Ġgyerek ek
ocsÃ ¡t
ĠtÃ¡rsad almi
ĠvÃ©le mÃ©ny
e nnyi
³ n
Ġelle ni
sze l
Ġmeg ismer
Ġ kattint
e lhely
Ãģ N
ĠEgye tem
at juk
ĠtÃ¼ net
v g
Ġhar c
¡ lÃ¡sÃ
C s
jÃ¡t Ã©k
D e
ul ni
Ġtekint e
Ġmot or
ĠtermÃ©k ek
h ttp
ĠM Ã©g
t ud
Ġegye t
Ġked ven
ed agÃ³g
ĠcsalÃ¡d i
Ġegy Ã©ni
Ġmely nek
kÃ ¡s
T I
ĠÃ¶ssze fÃ¼gg
ĠtalÃ¡l koz
bb an
ĠI tt
ĠhasznÃ¡l at
ab il
Ġp e
ĠlehetÅĳ sÃ©get
¡ prilis
Ã ¡prilis
ĠU ni
ĠfÃ ¶
Ġsok szor
t ra
Ġvis e
szi ch
jÃ©n ek
Ġb ÃŃr
ĠszemÃ©ly i
t uk
Ġ elhely
felÃ ©
Ġt ette
zÃ ©
ad Ã¡sa
ĠE l
Ġtan ulÃ³
e lvÃ©g
G y
j anak
kod Ã¡s
ai l
1 6
Ġl ab
ek ciÃ³
olÃ³g ia
hÃ ¶z
e lkÃ©szÃŃt
ĠeljÃ¡r Ã¡s
nk inek
ĠmÅ± ve
Ġfigyelem be
az on
E M
Ã©rte lmÅ±
1 4
ĠmÅ±kÃ¶ dik
ĠelÅĳ adÃ¡s
Ġsz a
ĠM a
Ã ©be
3 2
ni e
Ġ elvÃ©g
lye nkor
ĠterÃ¼let Ã©n
uszt us
Ã ¡tt
Ġap rÃ³
Ġal ig
Ġut al
ĠV an
ĠinformÃ¡ciÃ³ k
Ġsze x
ĠJÃ³z sef
ĠA mennyiben
Ġsok an
Ġa szt
r es
Ġter me
ul a
Ġ2 2
ĠOr szÃ¡g
ĠrÃ³l a
k re
ĠbÃ¡r mely
ne l
ĠS ok
ĠU gyan
r om
Ġa mÃŃg
Ġsor ozat
nÃ© m
Ġz aj
Ġszerep lÅĳ
Ġ kul
Ġ kin
Ãģ L
of t
rÃ³b Ã¡lt
Ġ at
ĠG o
ak ra
eme t
ĠÃ©d es
Ã ¡ja
t Ã©r
Ġme lyet
v an
Ġv egy
ĠA n
Ġ mezÅĳ
ol va
ĠgyÃ¼ mÃ
1 7
Ġ elkÃ©szÃŃt
zÃ ©t
Ġ Ã¡prilis
ĠvÃ¡lt ozt
Ġte ng
ĠB ar
eszt ivÃ¡l
Ġmo de
ĠÃ©rdek es
Ġd er
jÃ ©ben
z eg
ĠvÃ©g ez
m ob
ĠM ag
het ik
ul hat
Ġi par
ĠproblÃ© ma
Ġ eny
b eszÃ
ĠtÃ¡rs asÃ¡g
zÃ³ ta
olt am
Ġ201 8
v izsg
Ġig yek
hatÃ³ k
Ġf aj
l ok
oszt Ã¡ly
ko dÃ³
Ġkon f
ĠM Å±
ĠN ap
ĠkÃ Ńn
Ġinter net
Ġsz om
Ġegy Ã¡ltalÃ¡n
ĠÃºt on
¶l g
ĠeredmÃ©ny e
ÃŃr us
Ġdolg ozÃ³
Ġb ab
f ogy
ĠâĢ Ķ
ĠjÃ¡ts z
Ã¡ciÃ³ s
Ġhang sÃºly
hasznÃ ¡lÃ³
ne n
k rit
v Ã¡llal
Ġiz g
Ãģ R
Ġf a
zÃ¡n k
Ġal akÃŃt
ĠE zÃ©rt
© mi
Ġf Ã¼
Ġkateg Ã³r
Ġr ag
e nge
Ġmel lÃ©
Ġmegold Ã¡s
vÃ ¡g
Ġcs od
Ġkut atÃ¡s
mag e
ĠmÃ¶gÃ ¶tt
s d
vÃ© d
Ġparazit Ã¡k
ĠÃ¡ll andÃ³
Ã¡l at
r os
Ġ mik
ĠK ar
201 9
Ã©s eket
Ã ¡bÃ³l
© ig
ĠÃŃr Ã¡s
og le
Ġlel ki
Ġ4 0
ĠelÅĳ zÅĳ
on i
lÃ Ń
ĠszakÃ ©rt
Ġmeg g
ok rÃ³l
Ġrendelkez Åĳ
Ġest e
szÃ ¼k
ĠproblÃ© mÃ¡k
nÃ ©z
Ġide ig
ozit ÃŃv
on ban
j og
ĠkÃ¶zÃ¶s sÃ©gi
Ġaut om
se t
Ġmin ket
Ġvi rÃ¡g
Ġar any
Ġp Ã
ĠT ovÃ¡bb
Ġ mos
ce nt
Ġszer v
c o
eb ook
ĠÅĳ r
ÃŃ g
t est
Ġu ni
ĠnÃ©p szerÅ±
h vg
ĠÃ©sz re
e hhez
tt er
Ġke l
ch an
Ġelektr onikus
Ġsze nt
csÃ º
Ã¡sÃ ¡ban
ĠÃŃ rÃ³
Ġs ajnos
li us
k u
Ġt av
. -
c ert
ĠszÃ ©t
ĠajÃ¡n dÃ©k
ĠmÃ ©
mÃ ¡d
ĠintÃ©z kedÃ©s
ĠszÃ¡r ma
Ġgyermek ek
Ġele jÃ©n
Ã¼ s
Ġind ult
aszt Ã
d nek
8 0
ut h
ĠJ Ã
le s
kÃ©p p
ik at
let ek
Ġkom munikÃ
ĠszÃ¼let ett
5 5
ĠeszkÃ¶zÃ ¶k
c ont
ere n
ĠÃ¡ll at
ĠÃ©v ekben
Ġesz kÃ¶z
ĠbelÅĳ le
Ġ ehhez
Ġese mÃ©ny
Ġhely re
ug usztus
ĠÃĸ nkormÃ¡nyzat
ĠE U
Ġkut y
Ġvolt am
ĠtÃ¡rsad alom
Ġl ass
e zÃ
Ġmind egy
Ġak inek
Ġegy Ã©rtelmÅ±
4 0
hat jÃ¡k
I N
ĠvÃ¡l ik
Ġr ak
Ġszerint em
im p
ĠÅĳ t
ĠsÃºly os
am a
Ġ o
kÃ Ń
ĠI I
Ġben n
ĠfelÃ ¼l
ĠformÃ ¡
lÃ³ s
tek int
ru Ã¡r
Ã¡cs ony
Ġle veg
part ner
Ġigaz gatÃ³
Ġgyakor l
Ġki em
Ġin f
ĠÃģ lt
s zem
ĠszÃ¡mÃŃt Ã³gÃ©p
Ġ201 6
ĠtovÃ¡bb ra
Ġmag ad
Ġ attÃ³l
Ġkat on
Ġmag uk
ont a
ĠidÅĳ t
Ġhely szÃŃ
Ġraj ta
i mage
l ve
ĠmÃ ©d
ese t
Ġmar adt
om ra
; &
ar Ã¡nt
l d
n Ã©nek
sÃ ¡s
kÃ¶ ze
cs ap
Ġleg inkÃ¡bb
Ġr om
p Åĳ
ke dik
Ġhagy omÃ¡nyos
sÃŃt Ã©s
Ġkere t
-- --
ulÃ¡s a
l nek
cont ent
ĠtÅ± z
ĠÃ©v ti
º j
2 5
Ġmi kÃ¶zben
i Ã¡s
ny Ãºjt
ĠSzolg Ã¡ltatÃ³
Ġ mob
z o
Ġenerg ia
asztÃ ³
m az
at ai
Ġpan asz
ez Ã©se
Ġ201 4
©le k
Ġz s
t Ã¡l
Ġne heze
ĠelÅĳ ny
csÃ ³
ĠE zen
y Åĳ
ĠbÅĳ v
Ġh ad
Ġtud jÃ¡k
Ġp ort
Ġne kÃ¼nk
Ġmeg p
sÃ©g Ã©nek
Ġegy arÃ¡nt
ac ebook
ĠhatÃ³ sÃ¡g
ul nak
aj on
Ġbefoly Ã¡s
ze um
ĠkÃ¶zÃ ¶lt
e ti
ny it
rÃ ©g
szÃ ¡mÃ
ĠA mikor
Ġmeg Ã©r
ke delmi
Ġd al
ĠÃ©r zÃ©ke
Ġ201 5
Ġmond ja
Ġind ok
ĠÃ©rt Ã
ĠbÃ¡rmi lyen
Ġgazd asÃ¡g
Ã©sz sÃ©g
ĠrÃ©szt ve
Ġh ajt
Ġmegjele nt
ĠMi vel
rÃ© m
Ġhaz a
f il
ĠV agy
Ġmint egy
ĠkÃ¼lÃ¶n b
Ġmeg Ã©rt
ere nd
i mÃ¡lis
je nek
ĠÃļ j
Ġ201 3
uk t
Ã¡n s
Ġp ozitÃŃv
Ġkev esebb
ur g
cs Åĳ
Ġszer k
Ġmunkat Ã¡rs
1 3
Ġ esÃ
Ġor osz
ĠjÃº nius
ĠegÃ©sz sÃ©ges
Ġszeret e
p Ã¡ly
ĠkÃ¶nny Å±
k m
il vÃ¡n
t Ã¡rs
ĠG Ã¡bor
ĠÃ¼ ze
t ag
d es
al Ã¡nos
ad Ã¡st
l ind
al ak
Ġl i
ĠSzer e
Ã©p ÃŃt
up er
Ġjut ott
Ġvala mely
u ma
ĠtÃ¶kÃ©let es
szak i
kÃ Ńt
Ġ un
Ġtart Ã
ĠvÃ¡r hatÃ³
Ġgy ulladÃ¡s
vis elÅĳ
lÃ¡s t
ĠK Ã©p
Ġter he
Ġhaszn os
ĠlÃ¡t vÃ¡ny
Ġtart alma
szer t
Ġkezde mÃ©ny
zÅĳ k
st ory
Å±r Å±
Ġ of
Ġfog ja
ĠtartÃ ³
Ġ ennyi
ĠtÅ± nik
unk ban
ĠT i
Ãº l
u hÃ¡z
Ġelle nt
c c
ĠszÃ ©l
isbrand content
Ã¶t Ã©t
ĠK Ã¡r
Ġfe b
ek rÅĳl
Ġked ves
ĠvÃ©gre hajt
ĠkÃ¶zÃ ¶n
Ġok a
Ã©z us
ike t
Ġ .
Ġtart ozik
ebb Åĳl
ĠrÃ©szÃ ©t
ĠvÃ¡l og
je bb
ekt Åĳl
ny Ã¶r
Ġsz ed
lm iszer
ĠK is
Ġer rÅĳl
Ã ¡lÃ¡s
ker Ã¼l
ez i
ĠÃŃ z
Ġse jt
ko lÃ³
Ġ ...
Ġtem plom
Ġmunk av
rÃ ¶
lÅĳ dÅĳ
Ġle n
Ġvise l
Ġl ist
Ġ mester
Ġtart ozÃ³
jegy zÃ©s
âĢ Ļ
j ak
Ġleg g
l va
KÃ ¶
Ã ©bÅĳl
Ġnek ik
atÃ ©g
ĠM ert
Ġ krit
Ġ ezÃ
ĠegÃ©szsÃ©g Ã¼gyi
ĠkÃ¶vet Åĳ
ĠutÃ¡n a
ĠE m
il a
im um
eg ed
ond ol
ĠkÃ¼l fÃ¶ldi
pe t
ĠpÃ©nzÃ ¼gyi
Ġ kony
mÃ©t er
O K
dÃ ¶n
Ġmod ern
ĠelnÃ¶ ke
ĠmÃ ©lt
kez ett
Ġfen n
ĠtÃ ©t
Ġakt ÃŃv
Ġ2 3
id esz
Ġdokument um
©r Åĳl
Ã¶rg y
Ġr em
ĠdÃ¶nt Ã©s
Ġlak ossÃ¡g
ĠerÅĳ sÃŃt
ĠtÃ¡ b
Ġfoly Ã
Ġpi he
Ġ +
ĠÃ¼zlet i
alm ak
j Ã¼nk
Ġfoglal kozt
ĠteljesÃŃt mÃ©ny
Ġfolyam at
igit Ã¡lis
Ġis t
uk ciÃ³
r ol
Ġ201 7
ĠL eg
a ink
Ġol aj
K i
Ġke ver
Ġnap ja
ĠfÃ©rfi ak
ĠfÅĳ leg
Ġsz al
Ã ³i
© vÃ©n
ĠkapcsolÃ³ dÃ³
ĠvalÃ³ sÃ¡g
Ġs i
k op
Ġugyan akkor
la ment
Ġszinte n
ĠegyÃ¼ttmÅ± kÃ¶dÃ©s
a in
Ġre jt
kez Ã©s
ac k
ĠV Ã¡ros
S A
szerÅ± e
¡ jÃ©kozt
szerÅ±e n
Ġ201 1
ĠkÃ¶vet e
am os
S zÃ
ĠhÃ ¡ny
Ġkedven c
r Ã¡lt
Ġcs e
Ã ¡jÃ©kozt
att Ã¡k
Ġfel dolg
Ġ mon
e ns
ĠmÃ©rtÃ©k ben
unk ra
Ġfe nti
Ã¼g y
Ġsz Å±
Ã©s Å±
lcsÃ ¶n
Ġfiz ikai
Ġlesz nek
Ġt u
Ġter m
ĠKr iszt
Ġt ab
Ġ ebbÅĳl
Ġuta zÃ¡s
Ġmagas abb
Ġak ciÃ³
l hetÅĳ
2 2
Ġb Ã©l
ĠlÃ¡t ni
Ġbe fekt
ĠZ olt
ess z
Ġhagy omÃ¡ny
Ġvi ll
Ġegyed Ã¼l
Ã¡sÃ º
c z
Ġigaz sÃ¡g
c om
mÃ ¡val
ĠfolyÃ ³
Ġvalami t
Ġv ÃŃ
Ġve t
Ġmeg h
ĠjÃº lius
ĠszÃ¡mÃ º
Ġter jed
lete t
Ġf ekete
Ġreg gel
ĠvÃ ©let
ge tÃ©s
ĠÃ©rte lm
Ġszerete t
ĠkÃ ©rt
6 0
Ãº r
Min den
Ġvisszat Ã©r
ce p
Ġh as
Ġtud unk
ezt Ã©k
mÃ©r sÃ©k
Ã¼lÃ ¶n
Ġfor rÃ¡s
Ġmennyi re
Ġny e
ĠÃ¼gy fÃ©l
Ãº g
7 3
i zÃ¡l
Ġkon cert
ĠlakÃ ³
a f
Ġfot Ã
ĠÃ©r zÃ©s
Ġlegg y
Ġs Ã¶tÃ©t
e vÅĳ
Ġis kola
Ġny olc
ĠmÃ¡s od
zÃ ³d
ĠS Ã¡ndor
ĠszÃ¡mÃŃt ott
szer e
ĠÃ¶n Ã¡llÃ³
om os
Ġki p
Ġh egy
n nÃ©l
Ġb log
ai val
b iz
Ġfeb ruÃ¡r
n unk
atÃ ¡val
atÃ ¡ban
ol jÃ¡k
ĠGo ogle
lÃ©s t
Åĳ je
Ġhal l
jÃ¡r Ã³l
e lind
csÃ ¡n
ezette n
k rÃ©t
Ġ Ã©lt
Ġd em
min iszt
at iszt
Ġek kor
orszÃ¡g ban
ĠnÃ©lkÃ¼l i
u hÃ¡
Ġti lt
ÃŃt eni
Ġp szich
Ġfigyel met
Ġt akar
ĠmÃ¡s ok
ĠformÃ ¡ban
ĠszÃ¼ lÅĳ
Ġs Ã
ĠkÃ¶t Ã¶tt
II I
Ġhe lyet
Ġa ugusztus
Ġmeg adott
e ls
r Ã¡l
ĠZolt Ã¡n
Ġmegb ÃŃz
Ġsz omb
Ġvalami lyen
Ġamennyi ben
ĠE bben
Ġg ener
Ġmeg ter
c ÃŃ
ĠtÃŃp usÃº
Ġ elind
ĠTa mÃ¡s
Ã©s Ã©ben
ĠnÃ© ha
ĠcsÃ¶kke n
olÃ¡s a
Ġne vel
m ez
ĠkÃ¶ltsÃ©g vet
nye l
Ġez elÅĳtt
gazd asÃ¡gi
l in
sÃ¡r nap
ĠA tt
Ġki b
m m
it e
ĠKÃ¶z pont
at art
Ġs Ã¡r
Ã©sz ek
kol ai
ĠJ Ã©zus
ket ing
ĠkevÃ©s bÃ©
Ġ201 2
vÃ¡ros i
ĠmÅ±kÃ¶ dÅĳ
ud var
Ġ ev
o sÃ
p ad
Ġut ca
dÃ ©ly
\\\\\\\\ \\\\\\\\
ĠC h
ug Ã¡r
ĠrÃ¡ adÃ¡sul
ĠrÃ©sz ben
ĠtÃ ¡nc
ĠmunkÃ ¡t
ak ter
Ġ Ã¡b
Ġc m
Ġb ajnok
ĠtÃ¡jÃ©kozt atÃ³
Ġtan Ã¡r
ĠtÅĳ le
ĠrÃ ©t
Ġhos szabb
ĠkÃ©p zÃ©s
Ġ Ã¡tt
ĠÃļ g
¡d iÃ³
Ġelt Ã¡v
rÃ ¡z
ĠÃļg y
ĠhasznÃ¡l ata
ĠnÅĳ i
ĠEurÃ³p a
oz z
em ben
ĠlÃ¡tog atÃ³
ĠfotÃ ³
ovÃ ¡
Ġ mas
ed ves
s ok
Ġgyakor i
ĠfÃ ©le
ĠZ rt
ĠÃ¶t let
ĠGy Ã¶rgy
A K
c he
Ġjelenleg i
" ,
¡ Ã©rt
ĠhÃ ¡borÃº
hat s
dÃ ¶s
2 4
ĠtÃ¶bb ek
Ġb eszer
Ġp uszt
Ã¼let e
Ġ km
r eg
ĠÅĳ s
. :
Ġpr oszt
ĠtÃ¶lt Ã¶tt
Ġsiker es
dÃ ¶nt
Ã©se n
ĠkÃ©szÃ¼lÃ ©k
iÃ ¡val
Ġp ir
Ġlehet ne
Ã¡sÃ¡r Ã³l
r at
Ġbizt osan
ĠÃ©l vez
t at
ĠP ar
Ġtelep Ã¼lÃ©s
Ġgyer m
Ġ Ã¡gy
ĠvizsgÃ¡l at
ĠjÃ¡tÃ©k os
r um
Ġmi re
Ġegy ben
Ġb Ã¼nte
y Ã³gy
ĠhasznÃ¡l ni
Ġh ord
Ġ6 0
ok hoz
Ġ2 7
Ġfel hÃŃv
Ġsz Åĳ
ĠorszÃ¡g os
ĠT Ã¶bb
Ġb erend
ozÃ¡s i
in ket
Ġszerepe t
Ġhid eg
Ġspe ciÃ¡lis
Ġc ukor
E G
Ġtaval y
ĠfeltÃ©t elek
p olit
hatÃ³ sÃ¡g
Ġfolyam atos
ak on
Ãī s
zÃ¡l tal
ĠRÃ ¡
mÃ©szet esen
Ġ Ãĵ
ĠbelÃ ©p
Ġtud nak
Ġmeg erÅĳ
¡ ig
ĠKÃ¶ zÃ
ĠjÃ¡r Ã
Ġi dÃ
hats z
ĠjÃ¡rÃ ³
Ġnek ed
ult ak
ly an
ĠgyÃ¶ nyÃ¶r
© kÃ
j Å±
szÃ ¶
ĠkÃ¡r os
A P
mar ad
kod ik
ĠtÃ¼ netek
ĠHogy an
ĠkÃ¶vete l
ad ja
ce n
" .
ĠhozzÃ¡ fÃ©r
ĠszÃ©p e
Ġad ni
ĠkÃ¶zvet len
ĠPer sze
Ġszo ciÃ¡lis
mi ll
Ġf egy
ĠmÅ± sor
s uk
Ġkez det
o u
Ġide i
mÃ ¡ban
in Ã¡lt
e nni
lÃ ¡ny
eb ben
Ġv Ã©t
ĠmunkÃ ¡l
Ġtud omÃ¡nyos
Ġmely ik
B e
Ġp Ã³t
e lme
Ġkol lÃ©g
ĠvalÃ³ s
ny t
Ġegyszer re
Ġ2 6
¶l csÃ
hat od
4 5
szÃŃ r
i vel
lnÃ ¶k
nÃ ¡k
Ġmond ani
Ġ Ã¡g
Ġad ja
Ġ201 0
Ġmind az
Ġhit e
Ġve zÃ©r
Ġhivatal os
Ãº s
ĠlehetÅĳ sÃ©ge
szÃ ¡r
Ġz si
Ġtulajd onsÃ¡g
Ġkult urÃ¡lis
e it
Ġny Ã¡r
ĠÃ©le lmiszer
Ġlehet nek
ĠK Ã©r
an Ã
ĠJÃ ³
Ġa zÃ³ta
eszÃ Ńt
Ġv eszt
ĠidÅĳ tart
o va
le bb
ĠÃ¶s zt
on a
mÃ ©k
Ġ Ã³ri
Ġadat ai
ĠkÃ¶zÃ¶s sÃ©g
ĠEgyesÃ ¼let
Ġs incs
Ń ciÃ³
iv il
Ġker t
Ġter v
t Ã¶rt
Ġak adÃ¡ly
s zeg
Ġazon os
Ġki vit
Ġjelleg Å±
ĠF or
V I
ez er
ĠvÃ ¶rÃ¶s
Ġid egen
ÃŃt i
Ġh om
Ġmozg Ã¡s
ĠÃ¼ veg
Ġan nÃ¡l
i tt
szÃ Ńv
Ġ2 8
Ġfris s
kÃ¶ lt
Ġgond os
t Ã¶tt
ti on
ĠÃ©vti zed
ĠrendÅĳ r
Ġnyug dÃŃj
ĠfelÃ ºj
Ġ mat
szolg Ã¡lt
Ġamin ek
Ġf rancia
ĠszÃ³ rak
Ġbi rt
Ġak it
lÃ ¡z
ĠNÃ© met
ng ed
Ġvide Ã
Ġtud tam
ĠhatÃ¡r idÅĳ
or k
Ġh ull
ati on
M agyar
p a
Ġsemmi t
Ġlass an
Ġrek lÃ¡m
i kÃ¡
ĠtÃ¡rgy al
ĠtÃ© ma
o mi
n ed
Ġcs illag
ĠÃģll am
ĠS zak
ĠkÃ¶ lcsÃ¶n
ĠEz zel
jelÃ ¶lt
Ġs Ã©t
fog lal
ĠkÃ¶zvet lenÃ¼l
ĠcsÃ Ń
ok r
ĠtÃ¶bb szÃ¶r
ke dett
Ġtud ok
s zo
ĠkÃ¼l d
olt ak
Ġszak asz
ĠAnd rÃ¡s
ĠelÃ ©
Ġalapvet Åĳ
ĠemlÃŃt ett
Ġkifej ezetten
a jÃ¡n
Ġab lak
Ġf Ã¼rdÅĳ
ĠnyilvÃ¡n tart
ĠFel hasznÃ¡lÃ³
sÃŃt ett
Ã¡ll alÃ³
y Ã
Ġami vel
Ġl og
csÃ ¶kke
l ismer
Ġ19 8
rÃ ©n
7 0
ele s
ĠhatÃ¡s a
Ġle b
Ġmegsz Å±
¡ jÃ¡t
Ġszabad sÃ¡g
er mek
Ã ¡j
hasz n
Ġrendelkez Ã©sre
mag as
Ġmut atja
Ġki ad
Ġsz iget
ĠtÃŃp us
Ġg e
Ġker Ã¼let
ÃŃt Ã¡si
Ġmeg Åĳr
Ġhely es
Ġtart ja
ozÃ ŃciÃ³
Ġszerepe l
ĠszÃ©pe n
Ġadat kezelÅĳ
Ġ kre
isz ony
k y
ĠkÃ¶t e
Ġv iz
ĠsegÃŃt sÃ©get
Ġfi Ãº
Ġd igitÃ¡lis
os szabb
assz ikus
Ġfel fed
ĠmÃ©t er
ĠM Ã¡s
pe l
er eg
kÃ¶z pont
Ġ201 9
Ġs eg
udapest i
Ġszeren csÃ
ol i
ĠÃģlt alÃ¡nos
e lismer
h ass
ĠI gaz
ĠbÃŃrÃ³ sÃ¡g
Ġmegt art
Ġker Ã©k
un a
ĠbeszÃ ¡m
or e
Ġember t
Ġamely ben
ĠjÃ¶ ve
Ġfel ismer
ozt ak
sÃ¡g Ãº
Ã ©ig
Ġtulajdon os
Ġ Ã©nek
ĠM int
or g
Ġak ti
dÃ ¡m
sÃŃt Åĳ
Ġamely eket
Ġsz ig
Ġide jÃ©n
ia ci
ol hatÃ³
ĠÃºj sÃ¡g
ĠesÃ ©ly
Ġpap ÃŃr
ĠbÅ± n
Ġstr atÃ©g
Ġnye l
Ġleveg Åĳ
ĠkÃ¶rÃ¼l mÃ©nyek
Ġki emel
Ġ els
Ġi lle
Ġra jt
ĠÃ¶rÃ ¶m
ĠhÃ©t vÃ©g
Ġ old
ĠszolgÃ¡ltatÃ¡s ok
izs gÃ
ĠÃ©r zel
Ġmeg fog
jÃ ¡ba
Ġer dÅĳ
Ġ Ã¶nt
Ãºg y
ĠhÃ¡z i
Ġme d
ĠkÃ¶zle kedÃ©s
Ġt ip
* *
Ġszeret nÃ©k
f jÃº
ĠhÃ©t e
Ġpart ner
Ġ eszt
ĠhÃ©te n
ĠbeszÃ ©lt
Ġmeg kez
ĠF acebook
av ar
ĠkÃ©ny elm
Ġkul cs
ĠtÃ¶ rÃ
Ġ elismer
Ġa ssz
olÃ³g us
ez nek
ozÃ ³d
Ġle ÃŃr
l b
Ġke mÃ©ny
ĠkÃ©szÃŃt ett
ĠjÃ¡r mÅ±
Ġfelad atok
ĠhasznÃ¡l hatÃ³
Ġto jÃ¡s
ĠvideÃ ³
gyÅ± lÃ©s
nete t
ĠajÃ¡n lat
uhÃ¡ zÃ¡s
ĠvÃ¡sÃ¡r lÃ³
ĠBiz ottsÃ¡g
ĠelÅĳ bb
Ġp edagÃ³g
Ġtelep Ã¼l
or a
d b
Ġszeret ne
ja it
ĠszÃ¡n dÃ©k
k t
ĠhÃ¡z as
Ġkap csÃ¡n
al an
de ni
Ġolva sÃ³
Ġme c
ĠV Ã©g
ĠOrszÃ¡g os
Ġszeret nÃ©nk
Ã ¶z
od ott
ĠvezetÅĳ je
nek ar
zet e
Ġegy hÃ¡z
let i
Ġismere t
u ra
Ġi mÃ¡d
tt Ã
ĠeltÃ¡v olÃŃt
ĠtÃ ©l
Ġkar Ã¡csony
rt elen
k g
Ġszav az
sÃ ¼nk
ĠÃŃzÃ¼let i
aj os
ulÃ¡sÃ ¡t
h t
ĠajÃ¡n lott
s egÃŃt
mÃ ©n
y al
Ã¡l ja
Ġbeteg sÃ©gek
ĠkÃ©p essÃ©g
ol ikus
jÃ ©re
N e
Ġh Ã¼
ĠjÃ³ t
Ġfigye lm
Ġsemmi lyen
Ġnev Å±
e mÃ©ny
u x
ĠÃ©rkez ett
at jÃ¡k
Ġf ek
ĠÃŃr ja
k nak
ĠÃ¼gy fele
ok ba
Ġid eg
Ġhe lye
9 0
Ġtartalmaz za
Ã©t Åĳl
Ġpr od
Ġtart Ã³s
ist Ã¡k
Ġki ter
ĠP e
Ġhir detÃ©s
Hogy an
l mint
rÃ ¡sÃ
Ġ kop
ĠrÃ ©vÃ©n
Ã©se i
k kor
vÃ©t eli
Ġteng er
ĠterÃ¼lete n
is e
o cs
Ġminde nkinek
ĠBudapest e
Ġa jt
Ġmob il
Ġvala mennyi
Ġ elj
mÃº g
r y
mÃºg y
ĠÃ©s zak
ot Ã
l met
Ġtart ani
¡ zÃ³
zÃ ¡ciÃ³
k ur
E Z
Ġ Ã¶lt
Ã¡t Ã³l
ĠOr bÃ¡n
het ed
ĠÃ¡r am
hely i
k amp
jÃ¡t ok
ĠtermÃ ©ke
er g
Ġf r
Ġmi utÃ¡n
ol juk
Ġan ti
ĠszÃŃv esen
hetÅĳ k
p p
b ajnok
Ġv ad
rÃ³ n
a ik
ĠtÃ¡p lÃ¡l
ĠzsÃŃ r
zÃ¡s zÃ³
Ġmind kÃ©t
ol aj
ĠÃ¶ssz esen
ÃŃt Ã©se
lan d
almaz ott
ĠcsÃ ¼
Ġbe nyÃºjt
i Ã¡n
ak kal
Ġszelle mi
ĠvÃ¡laszt Ã¡s
is ko
ĠdÃ¶nt Ã¶tt
olÃ³ d
kÃ¶ ny
ver seny
Ġzsi dÃ³
ĠdÃ©l utÃ¡n
cs ke
Ġjav ÃŃt
n om
Ġte j
ĠszÃ¡l l
Ã¡z is
2 3
Ġmeg kap
Ġt eme
ĠminÅĳ sÃ©gi
v Ã©s
âĢ ľ
Ġ olt
Ġ3 1
eg atÃŃv
ĠszÃ¡rma zÃ³
ĠfÃ¶ lÃ
ĠbiztonsÃ¡g i
ĠEgyesÃ ¼lt
Ġf Ã¡r
Ġugyan az
ny Åĳ
Ġs ar
Ġtag jai
Ġcsod Ã¡l
ce l
ĠmÃ©r kÅĳ
Ã©re n
Ġami re
Ãº jabb
nny it
ĠSzÃ ¶vet
Ġmeg oszt
Ġtiszt a
ĠtÃ¡ bor
¶ ket
er c
ul i
l om
ĠutÃ¡n i
sÃ¡g gal
ĠkÃ¶nyv tÃ¡r
Ġnyug od
ĠÃ³r akor
Ġtechn ikai
ĠfÃ©r eg
Ġb udapesti
ny om
Ã ¡hoz
Ġ Ã©lÃ
u sÃ
Ġmagyar Ã¡z
le ve
ott am
Ġrendszer esen
Ġtart al
Ġszempont bÃ³l
Ġad ag
ĠAk kor
ĠnyÃŃ lt
ĠÃ¶szt Ã¶n
mÃ ¶r
Ġ ï¿½
Ġabb a
z atok
Ġkereszt Ã©ny
ce pt
© Ã©rt
ĠÃ¶rÃ ¶
ĠgyÃ³gyszer ek
Ġd rÃ¡g
al t
Ġ man
sÃ ¼lt
szÃ ©k
Ġdi ag
? ?
I S
ĠszolgÃ¡lt atÃ³
for m
ĠrÃ ¡n
ĠÃ¶n kÃ©nt
ci al
Ġmeg f
Ġs os
atÃ¡sÃ ¡t
2 6
Ġdol lÃ¡r
ĠegymÃ¡s t
Ġakt uÃ¡lis
elÅĳ re
Ġme ne
ĠM egy
ĠvalÃ³szÃŃnÅ± leg
kÃ¶ tele
Ġelv Ã¡r
Ġc ivil
Ġfel mÃ©r
Ġkon krÃ©t
ĠkÃ©pes ek
ĠH ar
Ġt ran
Ġmeg int
ĠS e
ĠvalÃ³ di
Ġal sÃ³
e nnÃ©l
ĠstÃŃl us
ĠhatÃ¡r oz
ir at
vÃ¡r i
ĠI m
N Y
4 8
ĠBudapeste n
mÃ ¡nak
ĠE d
Ġ mes
ĠÃľ g
o de
Ġmode ll
ĠvÃ© dÅĳ
Ġu j
n Ã¡nk
Ġrep Ã¼lÅĳ
vÃ© delem
ĠkerÃ¼l nek
Ġreg Ã©ny
Ġmeg kÃ©r
Ġdolg oz
Ġg Ã¡z
ber t
sÃ¡g ban
Ġhang ul
fel jebb
Ġ kan
l kerÃ¼l
ĠfertÅĳ zÃ©s
ast ag
c ri
Ġhal ad
Ġalkalmaz ott
ĠkÃ¶zpont i
olt Ã¡k
Ġv as
M Ã¡r
ĠhÃ¡tt Ã©r
ze lÃŃt
Ġhoz zÃ¡t
Ġkl asszikus
Ġsz im
Ġcsat or
Ġvesz i
Ġki hÃŃv
faj ta
le l
A zt
e lkerÃ¼l
Ġmunkav Ã¡llalÃ³
Ã¶r vÃ©ny
Ġingyen es
Ġhoz ott
ĠfelhasznÃ ¡lÃ¡s
Ġol asz
ke n
Ã ¡d
iÃ ¡ba
kez Åĳ
ĠszÃ¡r az
ĠminÅĳ sÃ©gÅ±
Ã©l dÃ¡ul
T e
Ġp oszt
Ġalatt i
Ġmagyar orszÃ¡gi
ĠjÃ³ val
http s
at e
Ġbe l
q u
ĠinformÃ¡ciÃ³ kat
ĠfelhasznÃ¡lÃ³ i
Ġva sÃ¡rnap
Ġke lt
Ġ ennÃ©l
ve lt
Ġ )
j ut
Ġbe fej
Ġazok nak
or b
ĠFÃ ¶ld
ĠvÃ ¡d
ek hez
ĠAdat kezelÅĳ
Ġkor r
Ġte n
omÃ ³
ab a
Ġ elkerÃ¼l
Ġrem ek
Ġber uhÃ¡zÃ¡s
ek nÃ©l
sÃ ©t
Ã¡s ai
Ġi lyenkor
Ġorvos i
ĠszÃ ©n
ata it
ĠÃ¼ d
Ġhallg atÃ³
cs er
Ġbe vezet
Ġnap ig
Ġ lÃ³
je t
Ġtervez ett
Ġop er
Ġforg alom
Ġregiszt rÃ¡ciÃ³
Ġol csÃ³
Ġ20 20
lÃ ¡ciÃ³
ap p
n kÃ©nt
elÃ ©g
ĠmÃº lva
O M
ĠkÃ¶te t
ĠpolgÃ¡r mester
Ġtud Ã¡s
ĠeltÃ©r Åĳ
nevez ett
ĠT he
ĠgyÃ¶nyÃ¶r Å±
okÃ º
Ġelmond ta
Ġmegy ei
ĠÃ©rdek lÅĳdÃ©s
ĠjÃ¡r t
ĠV ik
szÃ ¶vet
Ã¶rÃ ¶g
c ik
¡l lÃ³
f in
Ġtud od
Ġtart Ã³z
Ġb r
Ġn egatÃŃv
Ġfel kÃ©szÃ
k kal
ĠP Ã¡l
Ġmeg mut
ĠmegszÃ ¼
ĠfelÃ ©p
ĠpÃ¡lyÃ¡z at
i ben
Ġmond juk
kÃ¶ n
Ġsza va
Ì ģ
dÃ ¶
b Ã©r
ul lÃ¡m
Ġminiszt ere
ĠlÃ ©
z ob
Ġg l
Ġtab lett
Ġtechn olÃ³g
szÃ ©d
Ġfor gal
ĠhÅĳ mÃ©rsÃ©k
A d
© kÃ©n
ĠSzÃ ¡m
Ġmag ukat
c t
ĠV er
Ġv es
Ġuni Ã³s
Ġg Ã
em Å±
Ġtesz ik
Ġsz ez
Ġj utt
Ġvon al
Ġmeg Ãºj
Ã¡jÃ©kozt atÃ³
kap cs
Ã©l i
d ob
ve lÅĳ
ĠÃ¡ll nak
ĠAtt ila
al akÃŃt
Ġst atiszt
Ġszempont jÃ¡bÃ³l
Ġjavas lat
al kot
fe hÃ©r
ol nak
ĠUni Ã
ĠÃ¡r t
ĠB r
Ġmar keting
Ġt es
e ve
Ġmegrende lÃ©s
ĠA ki
Ġd iv
ak ciÃ³
le vÃ©l
ĠÃ©v ig
ĠtovÃ¡bbi akban
kamp Ã¡ny
e urÃ³
Ã©k es
¶lg y
ĠM it
ĠhasonlÃ³ an
ĠvalÃ³ jÃ¡ban
F e
ĠkÃ©r jÃ¼k
vÃ º
Ġtart alom
Ġfel h
Ġny Ã¡ri
ĠlÃ¡t szik
ĠjÃ¡ts zott
Ġhi ba
ĠkÃ©pe t
ÃŃ ciÃ³
Ġme t
ĠbÃ¡r mikor
sÃ©g eket
lÃ ¼nk
an szÃŃr
Ġleg Ãºjabb
Ġc ig
Ġellent Ã©t
for r
A mennyiben
Ġtekinte tÃ©ben
c Ã©l
ĠnÃ© mi
ĠvelÃ ¼k
szerÅ± bb
ĠhatÃ¡s sal
ĠpÃ©n isz
vÃ©telÃ ©vel
ĠnÃ¡l unk
ĠidÅĳszak ban
Ġ ÃŃt
e w
sÃ ¼let
³ rÃ¡t
ozÃ¡s t
ĠkÃ¶zÃ¶n sÃ©g
int e
e lb
Ġ eurÃ³
ĠszÃ¡m omra
v Åĳk
Ġne vÃ©t
g Ã¡s
T E
dÃ¶s sze
Ġb ale
Ġfe d
fÃ©r eg
st r
Ġgy an
Ġaszt al
Ġford ÃŃt
ĠÃī S
Ġop ti
int em
kod ni
t Ã©k
Ġb olt
omÃ¡ny i
de d
Ġan nyit
ĠjelÃ ¶lt
Ãģ G
het ett
as is
ĠSzÃ Ńn
Ġmeg fig
ĠAzt Ã¡n
Ġv astag
len c
ok tÃ³l
ĠhÃ©t fÅĳ
Ã¼nk ben
at nak
ĠÃ©j szak
ĠlÃ¡tt am
Ġsz oft
T er
it y
oly an
Ġ2 9
ĠH ivatal
ĠelmÃ ©let
al og
Ġem lÃ©
ĠE L
ĠtÃ¶rtÃ©net e
ĠBal aton
isz ont
¡ ci
ĠÃ©let mÃ³d
ĠÃľg y
p Ã³t
ĠfÃ©ny kÃ©p
Ã ³rÃ¡t
zÃ©s Ã©t
me tlen
ĠK e
ĠkÃ¶rÃ ©ben
Ġ ep
ĠszÃ¼k sÃ©ge
ĠelÅĳtt i
ĠA mi
zÃ³ val
Ġha jÃ³
Ġbizony ÃŃt
h y
© tter
ĠkÃ¶zÃ¶lt e
ĠmegelÅĳ zÅĳ
Ġvagy on
Ġokt atÃ¡s
g yÃ³gy
Ġpar lament
ĠkezelÃ©s Ã©re
ĠkÃ©sÅĳbb i
4 4
Ġhite l
Ġr ug
ĠH ol
nÃ ¡z
esz i
Ġes Åĳ
ĠorszÃ¡g ban
st e
f Å±
v Ã¡l
Ġ8 0
Ġcs ont
hÃ ¡borÃº
osÃŃt Ã
ĠcsÃ¼ tÃ¶rt
ozÃ¡sÃ ¡t
Ġze nekar
2 7
Ġfel lÃ©p
Ġrendszer es
otÃ ³
ĠMegy ei
s zal
Ġtud ta
ĠUniÃ ³
ett Åĳl
Ġautom atikus
A I
adÃ ³k
ĠkÃ¶vetkez tÃ©ben
Ã¡lt a
Ġkett Åĳ
Ġkor on
koz ik
Ġkut atÃ³
h id
Ġmeg rend
v ert
ww w
Ġalak ul
ĠÃ©rvÃ©ny esÃŃt
ĠK Ã©t
Ġcs end
Ġle vÃ©l
2 8
ĠÃŃrt a
Ġne vet
sÃ©g re
ĠhÃ¡lÃ³ zat
Ġmunk an
ĠlÃ©t ezik
Ġ elm
t ok
ol vas
i re
Ġ kÅĳ
Ġhi rtelen
Ġtud ott
pr ogram
Ġki lo
Ġmeg tekint
© ven
ler g
om p
szer vezet
Ġur al
be l
© kÃ©t
ĠcsÃº cs
Ġb an
osÃŃtÃ ³
Ġraj z
i b
ele fon
cion Ã¡lis
ĠtermÃ ©ket
Ġve vÅĳ
Ġb Ã¡n
ai rÃ³l
Ã ¶kÃ¶
Ġanyag i
Ġst abil
ĠhasznÃ¡l ja
an nyi
Ġd b
any ol
Ġeny h
ĠH or
Ġleg feljebb
º ttal
Ġkar akter
Ġszer zett
kÃ¡ ig
ĠelÃ©g e
szer ep
tÃ©s t
ĠrÃ©g iÃ³
Ġny ar
szÃ ¶nt
Ġ elb
ĠtÃ¶rtÃ©ne lmi
ĠjelentÅĳ sen
Ġ mad
l kÃ¶vet
j ek
alÃ ¡z
ĠF idesz
t Ã¡n
ĠÃ©rte sÃŃt
ĠirÃ¡n t
e lkÃ¶vet
Ġmen Ã¼
Ġeddig i
Ġizg almas
Ġkon cent
Ġszeg Ã©ny
um ot
ĠlÃ©p Ã©s
Ġmag unk
ĠszÃ ¼l
Ġz se
Ġszolg Ã¡lÃ³
ĠmÅ± szaki
ĠkÃ©ny szer
uk ra
it er
ĠK Ã¼lÃ¶n
Ã ©ven
in dex
ce t
Ġoldal Ã¡n
Ġp at
h egy
Ã¼s z
ĠÃº r
r od
zÃ¡s i
Ġminiszt er
E lÅĳ
igaz gatÃ³
Ġs ÃŃ
Ġ x
ĠfÃ¼ggetlen Ã¼l
ĠG e
Ġre mÃ
Ġtiszt elet
Ãī G
Ã¡r is
Ġ elkÃ¶vet
Ġfel szer
ap Ã¡n
Ġtud omÃ¡ny
ĠvÃ¡llal at
Ġjelen lÃ©t
ĠL ajos
alÃ ¡
Ġsz uper
ĠelÅĳ ÃŃr
ĠN ek
bar Ã¡t
Ġtan Ãº
zÃ©s Ã©re
ĠgyÃ¡rt Ã
Ã©rt Ã©k
Ãī n
ozÃ³ k
¡l lÃŃt
Ġ udvar
Ġsze nny
ĠB Ã
Ġele nged
Ã©s ze
l hu
Ġabb Ã³l
ĠÃ¡r a
t Ã¼nk
iÃ ¡ja
ĠÃ©rdek lÅĳdÅĳ
Ġ Ã¼lÃ©s
ĠgyÃ¡rtÃ ³
Ġf ant
ĠmegkÃ¶ zelÃŃt
ge li
Ġb ÃŃz
ĠLe het
ĠkÃ¶ze p
ĠO lyan
Ġkin y
Nagy on
Ġszem be
Ġkeres kedelmi
A M
ĠszÃŃn vonal
Ġmegt an
ve nni
³ rÃ¡n
Ã¶rtÃ©n e
lÃ¡s ok
ĠR o
Ã ©tter
ĠvelÃ ¼nk
ĠÃ¶r eg
uta sÃŃt
le ttel
ĠkÃ ³d
Ġgondol om
Ġti zen
ĠInt Ã©zet
ed ik
Ġv ette
Ġp re
Ã¡r uhÃ¡z
5 6
nÃ ¡m
ĠszÃ¼ lÅĳk
ĠfÃ ³r
C S
Ġ200 9
k up
Ġleg ye
Ġszom szÃ©d
Ġre mÃ©ny
ĠrÃ ¡m
ĠmegvÃ¡lt ozt
4 9
ĠbÃ¶ngÃ©sz Åĳ
Ã ³rÃ¡n
at om
ÃŃtott Ã¡k
lÃ¡sÃ ¡t
ĠbiztonsÃ¡g os
Ġg er
ĠmÅ± tÃ©t
ĠlÃ¡t Ã¡s
kÃ©p es
ĠÃ¡ltal a
Ġa utÃ
Ġ Ã¡p
Ã©s hez
zÃ¡s t
jÃ ©vel
Ġ kampÃ¡ny
Ġalak ult
ĠtÃ¼net ei
Ġcs elek
Ġfegy ver
Ġfog nak
ĠÃ¶nkormÃ¡nyzat i
Ġle zÃ¡r
Ġanyag ok
Ġhull adÃ©k
he lye
ĠrÃ©t eg
a h
ĠkÃ³r hÃ¡z
or i
fogy aszt
ÃŃt Ã¡st
Ġpolit ikus
Ġford ulÃ³
zt em
³ rÃ¡k
Ġki csi
Ã ©Ã©rt
vÃ© ve
Ġfal u
ĠT Ã¡rsasÃ¡g
f Ã¼
vÃ© dÅĳ
e lhu
Ġut az
Ġ9 0
Ġelektr omos
Ġere det
f ut
Ġkezd ve
Ġf eszÃ
ĠvÃ¡llal kozÃ³
Ġeset leges
2 9
Ġbemut atÃ³
ĠsÃ¼tik e
o ha
em mi
ĠszÃ ¡j
ford ulÃ³
v eszt
i bb
Ġh ttp
Ġkapcsol atot
er ed
ĠhÃ¡t rÃ¡ny
Ġalkalma zÃ¡sÃ
z on
ĠK Ãĸ
Ġ elhu
Ġakik nek
ĠrÃ ¡k
ĠpÃ©l da
© lye
tart Ã
Ġ Ã©tter
Ġmoz d
Ġgyerm eke
ĠsÃ¼tike t
ĠI lyen
Ã©rt ve
Ġmeg lÃ
Ġhisz em
Ġp ad
dÃ©s e
Ġsiker Ã¼l
sza v
ĠK ÃŃ
Ġisko lÃ
Ġkedvez mÃ©ny
am b
N y
Ġgy om
Ġ Ã³rÃ¡t
Ġf esztivÃ¡l
tartÃ ³
Ãī K
Ġkivit ele
ĠM Ãº
ĠÃ©rvÃ©ny es
Ġfok oz
Ġf ar
re t
ĠbeszÃ©l getÃ©s
Ġkelle mes
ai m
ĠlÃ©t esÃŃt
Ġ200 8
p on
ke tt
Ġp al
Ġegy kori
e zÃ¡ltal
dÃ¡sÃ ¡t
atlan ul
z iget
bizt osÃŃt
ek bÅĳl
ĠkÃ¼lÃ¶n fÃ©le
M ind
Ġtu dÃ³
Ġte ch
Ġfogyaszt Ã
het s
l us
Ġsajt Ã
ĠelÅĳ zetes
Ġg ra
ĠfogyasztÃ ³
Ġme sÃ
Ġpir os
Ġal ko
sÃ©g nek
¡k at
l it
Ġmegsz ok
Ġter Ã¡p
t us
me llett
¡ i
Ġr oh
ĠfeltÃ©t lenÃ¼l
Ġmegold Ã¡st
Ã ³rÃ¡k
ab le
lÅĳ tt
Ġ Ã©ven
ĠMi lyen
ĠS ch
Ġme net
e chn
ĠfelÃ ¼gy
© csi
) :
og Ã
ĠkÃ¶rny Ã
Ġint e
ĠjÃ¶vÅĳ ben
Ġ ka
h ir
ĠÃ¡ll amp
fÃ ¶l
Ġad ta
Ġfe nt
ĠsajtÃ ³
ĠmÅ±v Ã©sz
Ġre cept
Ġ7 0
Ġ *
Ġeset ekben
u lÃ¡t
as zer
Ġ kur
Ġver ziÃ³
p i
Ġd ip
Ġp ost
hets z
akra bban
rÃ¡n d
Ġmeg lÃ¡t
ĠÃ©let Ã©t
ed Ã©s
Ġmin dÃ¶ssze
atÃ¡sÃ ¡ra
bizt onsÃ¡g
on nan
ĠhasznÃ¡l jÃ¡k
Ġminden nap
Ġ ezÃ¡ltal
T A
szÃ ©r
ĠN a
elle tt
Ġneheze n
eb re
ĠpÃ©l dÃ
ord s
zÃ Ńv
Ġt ol
ĠvÃ¡sÃ¡r lÃ¡s
szÃ ¡s
tÅĳ ben
Ġszer ez
ĠkÃ¡r t
Ġtartalma zÃ³
ĠszÃŃn Ã©sz
Ġzene i
Ġjelent ette
ez Ã©st
adÃ ©mi
ĠP Ã
hÃ ¡lÃ³
l lyel
ĠhatÃ¡sÃ ¡ra
ĠmÃ©lt Ã
Ġme nni
cs a
Ġfelad ata
Ġ mu
Ġminden kÃ©ppen
Ã¡sok kal
ĠkÃŃn ai
Ġvi zet
k r
Ġp rÃ³bÃ¡lt
Ġmegt ud
Ġpillan at
s av
Ã ¶v
kÃ¶ zt
ĠM Ã¡t
ĠlehetÅĳ sÃ©gek
g u
an a
Ġszer kezet
Ġval ak
e lve
Ġdolg ok
y Å±jt
Ġt egy
ĠnÃ© ven
Ġsz Å±r
be lÃ
mar adt
Ġh ip
Ġbe av
z ek
Ġug ye
ĠkÃ©r d
Ġ Ã¡s
or os
Ġeng em
ĠszÃ¡zalÃ©k kal
ĠÃ³ri Ã¡si
Ġsz ar
jÃ ¡
Ġd Ã
j al
for mat
Ġszervezet ek
B Ã¡r
ĠÃºgy nevezett
ĠÃ©l ni
ĠnÅĳ tt
at eg
Ġfel mer
3 5
Ġer Åĳt
Ġterem t
Ġgy eng
ozt Ã¡k
le ge
kÃ©p zÃ©s
t Ã¶n
ĠkÃ©t szer
S ze
ele ti
Ġiz om
Ġelt er
um ok
ĠelkÃ©p ze
Ġgar an
ĠB er
Ġed zÃ©s
ke lt
ĠMi Ã©rt
Ġb ony
p ap
Ġes ett
ĠtalÃ¡l kozÃ³
fÃ ¡
ĠhasznÃ¡l atÃ¡t
ĠmÃ©ltÃ ³
Ġf ak
Ġkiem elt
Ġinte n
g yÅ±jt
Ġhet e
Ã¼lÃ ¡llÃ³
Ġke zÃ
Ġmeg ak
em be
formÃ ¡t
og rÃ¡
k ban
ĠtÃ¶r ek
ĠlÃ ©lek
lÃ©s Ã©t
lÃ ¼k
ĠMik lÃ³s
ĠB ank
Ġter h
ĠbiztosÃŃt ja
fil m
s zob
kÃ º
ĠnÃ© zÅĳ
Ġdolg ot
n Ã¡nak
Ġnap jÃ¡n
mÃ©ny ei
© cs
Ġf ajt
Ġ â
nÃ¶ vÃ©ny
Ġhoz zÃ¡szÃ³
Ġsos em
ezÃ©s re
Ġer ekciÃ³
Ġelh agy
Ġf ur
om at
ĠNe w
Ġtan ulÃ¡s
Ġkom b
ĠâĢ ¦
Ġki fizet
ĠhÃ©t kÃ¶z
for rÃ¡s
Ġmajd nem
fe jt
Ġ mm
ĠtÃ©r d
s ek
Ġfel b
ke y
olÃ¡s i
ĠN Ã©p
Ġny omÃ¡s
Ġdolg ozni
gen dÅĳ
ĠszemÃ©ly ek
Ġuta sÃŃt
d ott
Ġv ak
4 6
p Ã¡t
__ __
Ġd isz
ĠÃļ r
Ġes kÃ¼
dÃ© ki
O P
n ert
Ġ- ,
vÃ©t elt
Ġp ozÃŃciÃ³
Ġol v
Ġf olt
ĠrÃ©sztve vÅĳ
z us
a u
sor ozat
Ġ Q
Ġkez dett
ĠÃ¼zem elte
ezte t
Ã¡l lÃ¡s
ĠhiÃ ¡ba
me ne
Ã¡m og
ĠH Ã¡t
Ġkis sÃ©
³ rÃ¡
Ġhelyzet e
Ġa m
szÃ¡l lÃŃt
Ġnyit ott
gÃ ©
ĠR end
l ink
fÃ ©
csÃ¶kke nt
hely ett
Ã¶lt Ã¶tt
Ġ Å±r
Ãī R
n o
l kÃ¼l
Ġb rit
iÃ ¡ny
y Ãº
Ġelhu nyt
ÃŃt hatÃ³
ĠÃ©v re
ĠÃ©rtÃ©ke sÃŃt
ĠTer mÃ©szetesen
ĠÃ¡ll atok
Ġgar ant
ĠsegÃŃt eni
ĠAlap ÃŃtvÃ¡ny
ĠkÃ ©k
sze mÃ©ly
ĠkiÃ¡llÃŃt Ã¡s
as p
ĠÃ©rzÃ©ke ny
ĠTe hÃ¡t
o ur
h Ã¡ly
Ġszoft ver
Ġsz i
ĠmegszÃ¼ nte
in ni
Ġc ip
hes sen
ĠKÃ¡r oly
S ok
ik on
K Ã©r
i rÃ¡ny
Ġkiemel kedÅĳ
kÃ©p e
Ġmegv an
talan ul
Ġkult Ãº
ĠkÃ¶ tÅĳ
Ġgy Ã¡sz
ĠegymÃ¡s sal
ĠkÃ ³
kÃ¶ dÅĳ
Ġfel hasznÃ¡l
nÃ ©p
Ġkeze lni
Ã¡ll am
ess ziÃ³
ĠÃ©le tt
ĠcÃ©l jÃ¡bÃ³l
A S
as i
ĠI l
or ok
kor a
ĠelÅĳ segÃŃt
Ġfiatal ok
¶l ni
ĠA nt
az in
ĠlÃ©tre h
Ġforint ot
Ġgy Å±
T T
Ġi fjÃº
ĠszÃ³ lt
ĠszÃ¡r maz
kÃ ©k
ĠÃ¶ssze fog
Ġszem e
hely zet
zÃ¡s a
at va
ĠB ud
ar c
Ġkl ub
Ġhal lott
Ġleve le
©le m
Ġadat ait
test Ã¼let
Ġhang ulat
ĠÃ©ve nte
vi ew
g Åĳ
ĠtÃ¶ bben
Ġ koz
ĠJ elen
in kat
iÃ ©t
; /
Ġt Ã¼k
ovÃ ¡cs
Ġegy sÃ©g
ĠkÃ ©n
ĠH ung
hat ott
aszt ikus
ar e
belÃ ¼l
Ġgyakorl ati
Ġki jelent
Ġassz ony
Ã ³rÃ¡
Ġis kolai
Ġp u
ĠkÃ¡ vÃ©
Ġter e
it em
Ã¡s hoz
Ġre ag
Ġmeg nÃ©z
jÃ¡r t
ĠKÃ¶ nyv
Ġa rt
etÃ©s i
ĠrÃ©szlet es
Ġa s
ĠVi lÃ¡g
Ġ ettÅĳl
Å± nÅĳ
szert e
ĠmÃ©ret Å±
âĢ¦ ]
Ġin n
Ġele gendÅĳ
r ag
ĠÃ©rt elem
ĠdÃ¶nt Åĳ
ĠrÃ ¡diÃ³
ĠkÃ¶r ben
Ġkider Ã¼lt
ĠinformÃ¡ciÃ³ t
ĠK ir
Ġide Ã¡lis
Ġs ÃŃr
Ġkal and
Ġv ajon
Ġint eg
Ġpl usz
Ġv ÃŃrus
ĠtÃ ©ve
Ġviszony lag
Ġnap onta
ĠE lsÅĳ
ĠS zi
Ġdolg okat
ĠbÃ¡r ki
Ġhely ette
Ġvar Ã¡zs
kÃ¶ tÅĳ
Ġc ent
ĠK er
ĠkÃ¶z zÃ©t
f ok
A mikor
ĠEr re
Ġberend ezÃ©s
Ġdolg ozik
ĠgyÃ¼mÃ ¶lcsÃ
Ã ¡zt
Ġ20 21
ĠvÃ¡r ja
fel dolg
ikÃ ¡t
ub li
ĠÃĸ nnek
Ġproszt at
f okÃº
cep ciÃ³
ĠÃ¡tlag os
e lkÃ¼l
kÃ ³d
mill iÃ³
ĠmegerÅĳ sÃŃt
anyag ok
ĠO tt
ĠszÃ¡l lÃ¡s
l op
ĠMin iszt
tele p
sze tt
Ġbiz ottsÃ¡g
per c
E zt
Ġkedvez Åĳ
Ġha vi
ĠmunkÃ ¡s
ĠTan Ã¡cs
juk at
os szÃº
sze nt
Ġt Ã©szt
ĠrÃ ³
ad ta
ked ni
ĠF i
atÃ¡s ok
O Z
t h
ĠszÃ¡zalÃ©k os
kÃ©p essÃ©g
oz s
ĠÃ©lete t
d Ã¡t
ĠvÃ¡lt ozat
m egye
Ġbenn Ã¼nket
g ond
Ġ elkÃ¼l
T Ã¶bb
zÃ µ
kÃ ¡ny
v iz
Ġszex uÃ¡lis
ĠelÃ ©rt
Ġhamar osan
zÃ ¡lÃ³
ð Ł
X X
Ġhelyzet ben
at hatÃ³
201 8
or m
beteg sÃ©g
Ġhely szÃŃn
szint e
ĠlÃ©tre hoz
tr ue
ny Å±
ĠkÃ©r dez
mÃ ³
l kÃ©szÃ
Ġcs ok
ĠBi zt
ĠlÃ¡t ja
t eken
ĠhozzÃ¡jÃ¡r ul
Ġele g
Ġki vÃ¡lt
ĠvilÃ¡g ban
Ġva sÃº
Ġnap pal
ĠkÃ¶zÃ¶s e
ĠB Ã©l
3 8
Ġfe ny
em lÃ©k
I V
ad at
Ġszig orÃº
d Ã¡n
Ġkelle metlen
Ġgyakorlat ilag
ĠszabÃ¡ly ok
ik or
ĠkÃ¶zÃ¶se n
Ġfej ezet
p tion
Ġtet e
ĠG er
Ġre f
ez ve
ĠkommunikÃ ¡ciÃ³
Ġal lerg
ak nak
Ġh u
Ġkam er
9 9
jÃ ¡hoz
Ġnagy jÃ¡bÃ³l
I K
ĠÃī p
im g
ĠhatÃ¡r ozat
Ġprogram ok
nyi re
ĠmeghatÃ¡r ozÃ³
Ġegy elÅĳre
Ġle mez
n de
Ġt he
ogÃ ³
º g
= "
Ġb ot
Ġszeret nÃ©
ĠbÃ ¶lcs
ar y
Ġkut ya
ĠveszÃ©ly es
ĠVik tor
ĠszolgÃ¡ltatÃ¡s t
Ġbe tart
Ġvisel kedÃ©s
Ġfin anszÃŃr
Ġmeg vÃ¡sÃ¡r
Ġso kÃ¡ig
Ġal kat
!! !
h aj
Ġitt hon
Ġ elme
v iszony
Ġahogy an
Ġbe von
r or
Ã¡s zati
ĠV al
Szer e
ĠtÃ ©g
d tek
ĠN incs
Ġszint Å±
it a
fejleszt Ã©si
Ã¡s nak
Ġbe fog
szÃ ¼nk
ezte tÃ©s
i ban
Ġinter jÃº
szer ek
Ġegyetem i
at or
vÃŃz iÃ³
ob ot
Ġg Ã¶r
Ġmes sze
ĠhÃŃr es
att ak
Ġforr ad
im nÃ¡z
szÃ Ńt
ĠzÃ¡r t
na me
ĠirÃ¡n ti
Ġf agy
hÃ ³
ĠkÃ¶nny ed
ed i
it Ã¡ny
kÃ ¡ban
ĠsÃ ³
Ġ Ã³rÃ¡n
zet i
unk on
Ġrend ezÅĳ
Ġkap u
ess zor
ĠÃ¼ t
Ġ200 0
ĠtÃ©ny ezÅĳ
ĠszÃ¡zalÃ©k a
is kola
mÃ ©rt
l ment
Ġmegak adÃ¡ly
Ġszem lÃ
ĠdohÃ¡nyzÃ¡s rÃ³l
Ġhi bÃ
M ost
Ġnor mÃ¡lis
Ġan d
ĠrÃ¶g tÃ¶n
al it
ĠÃģ r
hu z
ĠKriszt us
. ","
Ġhason lÃŃt
m ak
ĠD ebre
jÃ¡t Ã³l
Ġg al
d em
Ġker ek
ĠegyÃ©rtelmÅ± e
ĠegyÃ©rtelmÅ±e n
Ġb Ã¼sz
jel zÅĳ
nÃ ³
ĠF ontos
Ġpont ja
r og
Ġegye sÃ¼let
Ġh ab
Ġmag Ã¡nak
ck ing
ve tte
ĠlÃ ¡m
4 7
f Ã©ny
ĠK on
ĠnyÃºjt ott
Ãį T
M Ã©g
Ġkis zolg
Ġ3 5
ĠbeszÃ¡m olÃ³
Ġkez elt
Ġelt Å±
Ã ¡jÃ¡t
ĠA ng
lÃ ©ben
u j
Ġha zÃ¡nk
h an
e f
Ġ |
ĠH Ã¡z
Ġgy enge
at er
ĠNy ug
Ġnincs enek
Ġtal aj
ĠfÃ¼gg Åĳen
V an
ĠszÃŃn es
Ġlegye nek
ja v
Ġparazit a
z uk
ĠmegtalÃ¡l hatÃ³
Ġfej lÅĳ
Ġmag unkat
ĠsegÃŃt i
Ġtav asz
rÃ ¡d
ĠminÅĳ sÃ©g
kÃ¶ t
ĠH at
! âĢĿ
atok kal
ĠnyilvÃ¡n ossÃ¡g
tÃ¡r g
r id
assz ony
ĠS port
ĠT alÃ¡n
sÃ ¶k
ni t
Ġ5 00
n od
ess zi
sÃ¡g ra
g atÃ¡si
ĠMÃº zeum
Ġ[ âĢ¦]
ĠvÃ¡laszt ott
Ġfoglal kozÃ¡s
ĠkÃ¶telezett sÃ©g
p edig
Ġ 000
Ġminisztere lnÃ¶k
p or
r as
ĠszÃŃn pad
A D
w ords
Ġ19 7
Ġked v
Ġseb essÃ©g
ĠkiegÃ©szÃŃt Åĳ
Ġmegny it
hal lg
C I
Ġw ww
se nek
ĠKÃ©p viselÅĳ
e ne
zÃ©s re
ter n
i o
ĠfÅĳ vÃ¡ros
ĠkÃ¶zt Ã¼k
Ġa mÃºgy
kÃ ¡ra
Ġb usz
Ġkeze l
ek or
ĠkÃ¼lÃ¶nb sÃ©g
ĠÃ©rint Åĳ
ĠelÅĳ kÃ©szÃŃt
Ġtet szik
for g
Ġp iaci
ĠhÃ ¡zt
ĠvÃ©d ek
ke ly
Ġbe jÃ¡r
Ġkor a
ĠformÃ¡ jÃ¡ban
ĠÃ¶ssze Ã¡llÃŃt
Ġv Ã©kony
Ġh Ã¡r
ĠfeszÃ ¼lt
ĠproblÃ© mÃ¡t
ez hetÅĳ
tte n
ap or
ĠZs olt
lÃ ©r
uth or
ĠkÃ¡r ty
Ġgondol kod
us i
36 7
kÃ ¼lt
Ġfolyt atÃ³
ĠigÃ©nye l
ci Ã¡t
ulÃ¡s t
ĠszÃ³ val
ĠÃ©rte lmÃ
Ġleg h
o me
tit le
ĠI gen
ĠA hogy
elj es
Ġ200 7
ĠP Ã¡r
v art
Ġami ben
ĠezÃ ºttal
ĠfelhasznÃ ¡lÃ¡sÃ
ĠkÃ©rdÃ©s e
un d
©n k
ĠS ajnos
Ġim mun
Ġi dÃ©
Ġillet Åĳ
Ġi tal
ĠszÃ¡m unkra
elle nes
Ġpar ancs
ĠnÃ©z ve
elet e
Ġgazd Ã¡l
ĠszÃ¼ le
Ġcs inÃ¡lt
Ġs ugÃ¡r
Ġkon z
Ġke ny
er s
ĠkÃ©r elem
ĠelÅĳ Ã¡llÃŃt
ote l
Ġnap os
Ġany a
b Ã©l
ab c
kapcs ol
Ġmi elÅĳtt
cri ption
Ġki lenc
ateg ory
ĠmÃ©g sem
Ġlegjobb an
Ġ19 6
Ġkik apcs
an ia
ja ink
od at
ez Ã©si
Ġmegb ÃŃ
6 32
Ġis z
on e
Ġkomp lex
ĠR eg
log o
Ġnyug ati
Ġamik e
om ba
ĠfelhasznÃ¡lÃ³ k
ĠÃ¡ll ap
l p
Ġh ossz
sze n
3 3
Ġok ozott
ail able
Ġfel sor
T ovÃ¡bb
Ġfele s
! )
Ġb ur
l adÃ³
jed t
m ult
{ "
ulajd on
Ġrende lt
ĠKÃ¶ szÃ¶n
R EL
ĠfelelÅĳs sÃ©g
Ġim mÃ¡r
¡sÃ¡r Ã³l
chan nel
mÃ©n nyel
e lkÃ©szÃ
Ġb Ã¡t
ĠegyÃ¼tt es
olÃ¡s t
ĠIs kola
ĠE hhez
atÃ¡sÃ ¡val
Ġakar ja
ĠSzab Ã
Ġgond oltam
Ġp ik
ĠtÃ¶kÃ©let esen
elt Ã©t
Ã©k Ã©s
Ġra jon
Ã¡n Ã¡l
Ġlet Ã¶lt
Ġember eket
ĠSzabÃ ³
ĠA Z
om ban
ĠmÃ©d ia
ĠmÅ± anyag
Ġh ullÃ¡m
ĠvÃ©let len
szÃ ¼
Ġese mÃ©nyek
Ġmegg yÅĳ
e lment
Ġele me
ĠkÃŃvÃ¡n t
ĠcÃŃm mel
C ode
ĠV iszont
ĠW eb
min c
Ġ Ã³rÃ¡
Ġmen ed
m or
ĠÃ¡t alakÃŃt
ĠÃ©r zem
av ailable
Ã¡sa it
asp x
Ġok ozta
Ġ elkÃ©szÃ
part nert
Ġn Ã©l
ag an
Ġmost an
c Ã
ti lt
h ason
ĠerÅĳs zak
Ġki dolg
ter Ã¼let
a ch
ĠidÅĳ jÃ¡r
³ ja
ĠÃ©t rend
des cription
Ġmeg jegy
r ot
sh ort
ett Ã¼nk
c ategory
Le ad
ĠG Ã
ĠJ e
Ġop ciÃ³
Ã¼nk re
Ġbeteg ek
Ġkider Ã¼l
Ġak k
Ġf utÃ³
ĠintÃ©z mÃ©nyek
ĠH al
Ġhir det
Ġ Ã³rÃ¡k
ran ded
00 3
a uthor
Ã¡s zt
oz zÃ¡k
Ġmind ez
ĠkÃ¶ze pÃ©n
Ġal Ã³l
Ġr ez
gazd asÃ¡g
Ġnap ot
ĠfÃ©l re
ÃŃt jÃ¡k
Ġokt atÃ¡si
Ġ elment
Ġkor Ã¡ban
Ġed zÅĳ
AT ED
Ġsor s
tra cking
l ub
Ġp rÃ³
Ġtart jÃ¡k
gu id
ĠC se
Ġma cs
raj z
ĠdÃŃj at
atÃ³ ri
ĠcÃ©g ek
Ã ¡zÃ³
55 73
Ġmax imÃ¡lis
ti mest
timest amp
key words
ĠkÃŃsÃ©r let
ff db
REL ATED
partnert ag
tracking Code
isbrand channel
partner name
partner logo
short Lead
isb randed
ĠÃ¡llamp olgÃ¡r
orb rand
isbrand story
isbrandcontent orbrand
isbrandcontentorbrand story
ĠD una
zÃ¡l lÃŃt
Ġtan folyam
ĠÃºt jÃ¡n
":" /
Ġbale set
Ġvissza von
Ġalkalmaz ni
Å± z
ĠerÅĳ sen
Ġb es
ĠÃ¡r u
Ġszerk esztÅĳ
l fele
ĠÃ©let ben
Ġinternet es
Ġmunka hely
ĠI S
00000000 0000
k rÃ©m
o ck
i zt
l nevez
d ve
Ġes ik
em p
ekt or
ĠÃ©t e
ĠM an
ÃŃt Ã¡sÃ¡ra
ĠcÃŃ me
Ġokoz hat
Ġl a
Ġmost ani
ĠgyÃ¼mÃ ¶lcs
Ġember nek
r emÅ±
Ġl ov
ox id
sÃ¡g ok
Ã¡l lt
ĠlÃ©p ett
Ġfizet Ã©si
Ġkel lÅĳ
Ġfoglal tak
ai d
t atÃ¡s
Ġszakember ek
ra b
ĠtÃ¡mogatÃ¡s t
ĠtÃ¶rtÃ©n elem
ĠÃ¡r on
Ġmegt Ã¶rtÃ©n
ese bben
lÃ¡t Ã¡s
sÃ©ge it
ozt am
¡mÃ Ńt
ĠI II
vÃ ¶s
iszt elt
Ġ ob
h Ã¡rom
Ã¡r g
erenc ia
Ġsik ert
ĠelÃ©r ni
mÃ ¡ja
Ġalko hol
ĠfÃ¶lÃ ¶tt
Ġv elem
Ġal b
ĠszÃŃ ne
nÃ ©v
Ġkap tam
Ġg Ã¡t
Ġte her
Ġval lÃ¡s
Ġszal ag
ĠtÃ©l i
l szÃ¡m
lÃ³ t
Ġd in
e lnevez
ĠvilÃ¡g on
ĠtÃ¡jÃ©kozt atÃ¡st
Ġ ðŁ
ĠmÃ³d ja
Ġrug almas
d ar
ir od
Ġb ont
Ġamike t
Ġkez elÅĳ
© vet
ĠkÃŃvÃ¡n csi
³d ik
Ã ³n
e jt
vÃ ¶
Ġgl ob
ĠÃ¼ze net
ĠÃ©rkez ik
0 9
omÃ ¡sÃ
att am
ĠalkalmazÃ¡s a
y Ã¡rt
mÃ©ny eket
ig n
I T
s zott
ĠlÃ ¡s
ĠpÃ©ldÃ ¡ny
alÃ¡z s
Ġhat alom
Ġmos oly
Ġjegy zÅĳ
N Ã
h iÃ¡ny
Ġki adÃ¡s
Ġhi tt
ĠkezdÅĳ dik
E r
ĠvilÃ¡g os
ĠG azd
Ãī r
ĠvÃ¡r ak
ok nÃ¡l
mÃ ©ben
Ã©n Ã©l
vez Åĳ
me net
ĠS p
lle n
Ġte tÅĳ
ĠV ar
kez ik
Ã³t h
ĠMi hÃ¡ly
ig Ã©ny
ĠÃ¡llapot ban
Ġ4 5
ĠvÃ¡ltoz atos
SZ T
Ġnegyed ik
Ġreg geli
mut atÃ³
ĠT ele
Ġh ig
Ġismer Åĳ
ĠbeszÃ ©d
Mi lyen
Ġfele jt
eg nap
Ġv ettem
Ġhe lmint
Ġ elnevez
ĠszÃ¡llÃŃt Ã¡si
ĠÃ©rdeke l
Ġszez on
Ġh um
ny ug
ĠelÅĳ fizet
Ġmer eve
Ġut at
leg esen
Ġmegle pe
ĠfÃ³r um
Cs ak
est e
ĠÃ¡ld oz
ĠP edig
ote n
t es
ip ari
Ġkialak ulÃ¡sÃ
ĠcsinÃ¡l ni
zÃ¡s z
egy Å±jt
Ã©s nek
ĠM ed
ez Åĳk
Ġrendszer t
Ġh Åĳs
ĠdÃŃ s
ĠlÃ ¡z
Ãº d
e lfele
Ġs er
h ivatal
ĠkÃ©p ek
ĠK Ã¶r
ĠellenÅĳr iz
i leg
ĠP Ã©n
ĠK ol
Ġ '
ĠÃº n
Ġmennyi sÃ©gÅ±
Ġelv eszt
³z is
hÃ¡z ban
lÃ ¶
ĠkÃ¶nny ebb
Ġirod alom
Ġstr essz
Ã©rt Ã©ke
ĠÃ©r ett
rÃ ¡m
ĠC ar
l alÃ³
is kol
ran y
ĠkÃ©n e
¼gy miniszt
z an
Ġ mult
Ġjelen ik
ĠvÃ¡ros i
Ġter ve
lan dÃ³
ĠszÃ³ t
Ġrende lÃ©s
ĠE x
Ġegyen sÃºly
Ġtud s
M it
Ġr ang
Ġol imp
Ã ©vet
ĠjÃ³ vÃ¡
Ġtuds z
hett ek
Ġtud atos
Ġtest vÃ©r
O r
eszÃ ©ly
ĠnÃ¶v ek
Ġvezet ett
Ġkap ta
Ġfoly adÃ©k
Ġem Ã©szt
Ġv adÃ¡s
ĠvÃ©g sÅĳ
ĠPr ogram
Ġrossz ul
Ġminden napi
Ã©t e
Ġ200 6
ĠÃ©l mÃ©nyt
ĠpÃ¡r huz
¡l is
ĠT Ã
ĠidÅĳ k
ĠÃ©rtelmÃ ©ben
ĠV Ã¡r
n oszt
e nc
ĠmÅ±v Ã©szet
Ã©l ni
es i
Ġle ng
op p
Ġmeg alap
ĠâĢĵ ,
ĠbiztosÃŃt Ã
ĠlÃ¡t ott
t etÃ©s
kÃ¡r ty
ĠtÃ ©v
ĠIm re
4 3
ĠO l
ĠpÃ¡lyÃ¡z ati
---- ----
ĠbiztosÃŃt ani
k incs
v Ã¡s
Ġipar i
Ġal tern
ĠhatÃ¡r ozott
rÃ³n ikus
Ġut as
om a
in i
ol n
se jt
Ġkor ai
vit amin
z sÃ©
av ÃŃrus
Ġadat vÃ©delmi
ĠmegbÃŃz hatÃ³
szÃ ¶g
ĠKir Ã¡ly
ĠelÃ ¡l
ĠbiztosÃŃt ott
mÃ ©ret
ĠnÃ©p i
k lÃŃ
Ġtilt ak
sÃ¡g os
ĠvÃ¡log atott
a mÃ¡n
ai ra
Ġb uk
d ok
Ġb ocsÃ¡t
jÃ¡r mÅ±
Ġmeg szabad
ĠkÃ©rdÃ©s t
ĠMÃ¡r ia
ĠlÃ¡t om
ĠÃ©p Ã¼lt
ik er
ĠE kkor
ĠproblÃ© mÃ¡
ĠT V
Ġtekint ettel
ĠsÃ©r Ã¼l
zÃ¡ bÃ³l
Ġforint os
zÃ ¡m
ÃŃt Ã¡sÃ¡t
Ġ kr
ĠÃ¡ll omÃ¡s
Ã¼ sp
Ġelj ut
d tem
ĠÃ©let Ã©ben
ob i
Ġr ov
oz va
ĠjÃ¡r vÃ¡ny
ĠszokÃ¡s os
Ġmegszok ott
- )
ĠbekezdÃ©s e
ĠmegvalÃ³ s
ag e
O G
v o
ĠÃ©rkez Åĳ
ĠÃ©rt em
ĠmeglÃ ©vÅĳ
Ġcs alÃ³
ĠÃ¡llam tit
ĠminÅĳ sÃ¼l
ĠrÃ©szÃ ©n
lÃ¡r d
Ġkre atÃŃv
Ġon nan
b r
Ġl ink
Ã©v es
fÃ¶l dÃ¶n
ĠHor vÃ¡t
he lyen
Ġme ll
J Ã
n ere
ĠkerÃ¼lt ek
Ġbe jegyzÃ©s
Ġle p
k ok
de i
¶ lÃ©s
ĠidÃ ©z
ere t
Ġt il
ĠmÅ±kÃ¶dÃ©s Ã©t
Ġhe ti
Ãļ j
ĠV e
Ġ elfele
l ny
Ġfaj ta
Ġdob oz
Ġre akciÃ³
ĠTovÃ¡bb i
Ġvi ze
ĠSz eged
ĠSzere t
ĠB l
ĠP ro
Ġmagyar ok
Ġem i
Ġkap nak
an n
ĠAz onban
Ġfel szÃŃ
ĠÃ©t elek
Ġszeret nÃ©m
d onsÃ¡g
p iac
zÃ³ k
Ġb ÃŃ
S ÃīG
e ld
ly es
lt ek
ĠT h
âĢ ¢
h Å±
k nek
ĠvÃ©g Ã©re
ĠkÃ©t sÃ©g
ĠszÃ¡z alÃ
0 6
Ġ kg
em i
ĠelÃ©ge dett
Ez ek
int Ã
ĠcsodÃ¡l atos
ĠJ og
ĠÃ©te l
ai ban
Ġs Å±rÅ±
ĠÃŃr ni
Ġver s
ĠvilÃ¡g hÃ¡borÃº
Ġle mond
Ġismert e
Ġolvas hatÃ³
Ã ³ja
Ġfog jÃ¡k
ĠbiztosÃŃtÃ ³
ĠN o
ĠÃ©rez tem
zÃ¡l t
Ġvit amin
Ġegy sÃ©ges
Ġs Ã©rt
ĠI nd
Ġsor oz
il i
Ġv igy
t on
eszÃ ©l
Ġrend ben
Ġlehet etlen
ĠV I
akor ibb
ett Ã¼k
Ġr omÃ¡n
ĠvilÃ¡g ot
vizsg Ã¡l
Ġ klÃŃ
ĠmÃ¡s t
kod Ã¡si
Ġmeg beteg
ĠD Ã©l
0 5
szolgÃ¡lt atÃ¡s
hason lÃŃt
Ġszabad on
Ġ kes
f r
a e
Ġegyen lÅĳ
b Ã¡zis
art Ã¡s
Ġemi att
ĠB alÃ¡zs
Ġmegfele l
Ġl as
Ġnap ra
ĠÃ©r zi
Ġbeav atkozÃ¡s
ĠBÃ©l a
ĠpÃ¡ly a
Ġt Ã¡l
Ġ kup
akt Ã©rium
Ġismer etlen
A B
fÃ ¡j
nete n
Ġg Ã³l
0 3
Ã¶s e
Ġugyan Ãºgy
imnÃ¡z ium
Ġtan ult
ig ht
Ã©s zett
Ġfelt Ã¶lt
Ġvala hogy
n ket
ĠM TI
ĠH oz
cs omag
e lny
o ci
Ġmegjele nÅĳ
ĠelÅĳtt e
ĠGy ula
ozÃ¡sÃ ¡ban
any ar
ze lem
Ġbirt ok
Ġgy alog
ikus an
l ovÃ
ĠI z
ĠB or
Ġmax imum
Ġalapvet Åĳen
ĠÃ©l nek
Ġkaton ai
f it
f er
ĠV alÃ³
Ġfoglal t
mi r
ĠÃ¡r ny
dÃ¡ ja
Ġf Ã¼l
Ã ©ket
ĠszÃ¡m talan
¡n Ã¡l
Ġautomatikus an
kÃ ©ly
ĠszabÃ¡ly zat
ĠkÃ¶z remÅ±
ĠszÃ¼ r
as h
Ġki mut
Ġd iÃ©t
f est
ĠH on
© kÃ¡t
Ġweb Ã¡ruhÃ¡z
Ġszer elem
ĠpÃ©n teken
Ġgener Ã¡ciÃ³
ĠÃ¶nkÃ©nt es
le nek
Ġki egyen
ĠszemÃ©ly esen
ĠhÅĳmÃ©rsÃ©k let
ÃŃp us
je i
D P
ap sÃ¡g
ig a
Ġrendszer ek
Ġt ri
ĠszÃŃn Å±
ĠtÃ¶bb sÃ©g
ĠbÃº tor
l utasÃŃt
rÃ¡ c
ĠâĢ ĭ
magas abb
ll a
\\\\\\\\\\\\\\\\ \\\\\\\\\\\\\\\\
okÃ ©rt
Ã¶se n
ĠtÃ¡ jÃ©k
ĠrÃ©szÃ ©rÅĳl
l atok
Ġfelett i
} ,
szÃ¡z ad
3 1
ĠszÃŃ nek
d Ã©n
Ġh am
ĠL a
og atÃ³
at unk
Ġkeres Åĳ
ĠtÅ± nt
0 8
Ġmag atart
Ġmegp rÃ³bÃ¡l
Ġszerk eszt
k inek
ĠvÃ©ge t
bb Åĳl
Ġ Ã©b
ĠNemzet kÃ¶zi
Ã¶rtÃ©ne t
Ġter Ã©n
ne vel
sÃŃt ott
Ġmag Ã¡ban
okt atÃ¡si
ker t
ĠjÃ ©g
lÃ³ k
ĠmellÃ©k let
ap asztal
pÃ©n z
Ã©lÃ º
ĠfÃ ©lt
ĠmunkÃ¡l tatÃ³
Ġkom ment
Ġn a
kÃ¶ l
K edves
Ġhelyre Ã¡llÃŃt
Ġmeg egy
ĠtÃ¡mog atÃ³
Ġfog va
Ġpiac on
Ġte ny
Ã¼l nek
sh op
Ġkifej ezÃ©s
ĠÃŃrt am
k ab
Ġfejleszt Ã©se
M a
Ġhiv atkoz
Ġ3 00
Ġmeg ad
h Åĳ
ip ar
ĠtÃ¡plÃ¡l kozÃ¡s
ĠfÃ ©m
o dÃ³
ĠK ovÃ¡cs
ĠRÃ¡ adÃ¡sul
m ok
Ġszer t
ĠidÅĳ re
Ġeg Ã©szÃ
ĠfelkÃ©szÃ ¼l
ĠÂ »
ĠidÅĳ s
Ġem ellett
w orm
}, {"
³ rÃ
ĠOr osz
Ġmi g
iszt ikai
ĠtÃ¡ j
sÃ¡g Ã¡nak
ĠkÃ¶vetkez ik
Ġbe kÃ¶vet
den ce
Ġbet Å±
est i
3 9
Ġmegle pÅĳ
Ġkar ban
Ġdolg ozott
ĠvÃ©g zÅĳ
gÃ ¶
ĠM ajd
Ġ elny
ĠlÃ¡tog atÃ³k
Ġalap anyag
ĠkezdÅĳ dÃ¶tt
ki t
Ġ ?
3 7
Ġtud atjuk
ĠkÃ©nyelm es
ĠÃ©rt ek
Ġp in
ĠÃ¡s vÃ¡ny
ÃŃt Ã©si
r ia
b Ã¡r
Ġszervez ett
U S
Ġ =
asz kod
© kel
szolg Ã¡l
ĠTi bor
ĠM ond
Mi Ã©rt
201 4
Magyar orszÃ¡g
nÃ ©d
A GY
Ġmut atÃ³
kÃ ¼lÃ
e lutasÃŃt
la y
f ia
ĠÃ¡b rÃ¡z
lÃ ©ny
ĠUgyan akkor
¼ st
Ã©b kÃ©nt
Ġp o
em mel
ĠtÃ¶bb sÃ©ge
ĠlegalÃ¡bb is
er Ã¼let
re e
ĠÃºt vonal
ĠA mer
ĠÃī rt
ĠkÃ¶r Å±
Ġny ere
ic a
Ġkor szerÅ±
o od
ÃŃ rÃ¡sÃ
n Ã¡t
³ ban
iÃ³ k
al Ã¡s
nÃ¡l lÃ³
min Åĳ
e lg
Ġalap osan
Ġfoly amÃ¡n
d emes
Ġesz kÃ¶ze
fog Ã
Ġad omÃ¡ny
Ġgyer me
Ġv Ã¡ll
Ġin nen
0 4
Ġmereve dÃ©s
Ġki vÃ©ve
kÃ¶tele zett
R e
M I
Ġprogram ot
dÃ ¡ban
kÃ©n ek
Ġg umi
ĠhozzÃ¡jÃ¡r ulÃ¡s
fogÃ ³
ot a
ĠnyÃ¡r on
ÃŃ vÃ
ĠÃ©des any
Ġleggy akoribb
ĠkÃ¶ze li
Ġki mond
ĠkÃ¼l dÃ¶tt
ĠvÃ© dett
Ġkor osztÃ¡ly
Ġbe csÃ
tÃ¡rg y
ĠBe n
ĠvÃ© delem
kÃ¼lÃ¶n bÃ¶
ĠtÃ¶bb nyire
s eg
Ġfigyel mÃ©t
kÃ¡ ja
ĠL i
e lszÃ¡m
s zÅĳ
Ġ elutasÃŃt
Ã ¡i
mÃ ¡ra
os ta
ow s
NÃ ©
M int
e ladÃ³
den c
Ġkult Ãºra
Ġmond om
ĠhatÃ¡sÃ º
szÃ ³l
zt Ã©k
ĠhÃºs z
ĠkezdemÃ©ny ezÃ©s
ol a
Ġkomoly an
c ar
ĠkÃ¶rÃ¼l belÃ¼l
Ġtekint ve
vÃ¡lt Ã¡s
intÃ ©
Ġnem rÃ©g
ĠtÃ¼ nte
Ġpro fi
lÃ º
Ġak ad
oldal i
at ra
Ġhar minc
ked nek
i zÃ¡
m and
ĠfÃ ©lÃ
ĠH u
ĠInt er
0 7
Ġb oly
Ġh ozta
ĠrendkÃŃvÃ¼l i
ĠlÃ ¡n
Ġrit kÃ¡n
19 9
ĠsÃ©r Ã¼lÃ©s
ĠÃ©j sza
ĠszÃ¡n t
Ġs aj
Ãī P
ed d
Ġfejleszt Ã©s
Ġle ÃŃrt
ik um
I tt
Ġval l
Ġszerep elt
ĠÃ¶sszefÃ¼gg Åĳ
in Ã¡ciÃ³
cÃŃ m
Ġweboldal on
Ġsz ik
Ġvolt unk
Ġvonat kozik
Ġtaval yi
Ġhaj l
sÃŃt i
ĠJ obb
in Ã
zete t
kez Ã©si
ĠjÃ¡t szik
Ġfelt Ã¼nte
Ġmeg keres
p olgÃ¡r
Ġmi kÃ©nt
ĠhelyszÃŃ nen
d iv
Ġ osz
o vi
ĠhasznÃ¡l atÃ¡val
ĠÃ©v fordulÃ³
Ã¡z ni
Ġki fog
ĠmÃ© h
ozÃ¡s ok
Ġhoz za
Ġfizet ni
Ġra b
Ġleg magasabb
Ã ³rÃ
bÃ ³
e in
Ġalkot Ã
o id
Ġfele l
Ġa mint
ĠkÃ¶ szÃ¶nt
ĠÃģ g
Ġhoz zÃ¡nk
Ġin format
ĠalkotÃ ³
Mi vel
Ġfel ir
Ġsp anyol
Å °
Ġmegter em
Ġmunka erÅĳ
mene ti
ĠkÃ¶r be
tak ar
ĠP olgÃ¡r
kis ebb
elte n
N K
ĠmunkÃ¡ jÃ¡t
Ã¶kÃ¶ n
l ia
Ġalap ÃŃtÃ³
Ġmunkan ap
dÃ ©ke
Ġpik kely
er nyÅĳ
ĠkivÃ¡laszt ott
g er
ĠtalÃ¡l ni
ve bben
ĠkÃ¶ze lebb
Ġag g
Ġmin imÃ¡lis
Ġ ost
Ġki v
ĠÃºjsÃ¡g ÃŃrÃ³
ĠsÃ¼ t
Ġvis szÃ©r
k kel
ki g
Ġkat olikus
ĠtÃ¼ dÅĳ
Ġszeret nÃ©l
Ġmely eket
ĠinformÃ¡ciÃ³ s
Ã©szsÃ©g Ã¼gyi
ĠrÃ¡ juk
ĠU t
Ã¼l ni
ĠÃ¡ll omÃ¡ny
cs it
l ismert
ĠfÃ¼gg Åĳ
ĠszÃŃn hÃ¡z
agy ulladÃ¡s
szer es
il k
t ÃŃv
Ġad nak
ĠL Ã¡t
ÃŃt va
vÃ¡n dor
ĠdiÃ¡k ok
Ã »
ĠfÅĳ kÃ©nt
g yÃ¡rt
k rÃ³nikus
ĠtÃ¡m adÃ¡s
Ġpr ot
Ġminden fÃ©le
ĠÃŃr Ã¡sban
Ġegyed Ã¼lÃ¡llÃ³
i ch
tart Ã¡s
Ġalap Ãº
Ġenerg i
Ġkattint va
al mÃ¡t
ĠigazgatÃ³ ja
ĠkerÃ©k pÃ¡r
szt er
ĠrÃ ³z
ĠF ran
Ġt Ã©ren
Ġkit Ã¶lt
Ġbe Ã©p
ĠrÃ ¡t
i lt
ĠszÃ¼let Ã©s
Ġfolyam atok
l on
Ġame llyel
ĠkÃ¶ze lÃ©ben
Ġc it
ĠpÃ©n tek
Ġmeg fizet
Ġtud omÃ¡s
ĠvÃ¡l sÃ¡g
i val
ĠformÃ ¡t
it or
Ã©se it
ĠÃ¶nmag Ã¡ban
ĠA g
Ġmeg cs
e ly
ĠszemÃ©ly re
Ġ Ã©vet
ĠelkÃ©p zel
ĠtÃ¶bb Ã
ĠK ut
Ġtest Ã¼let
Ġhaj landÃ³
Ġcs ep
B udapest
felÃ ¼let
4 2
ol ult
ĠmellÃ©k hat
ĠK at
ĠtÃ¶bbÃ ©
ĠJ oh
Ġmoz og
T ud
zsÃ© bet
201 3
4 1
Ġjavas olt
Ġ krÃ³nikus
ĠS h
ĠK ap
Ġtekinte t
Ġele mek
Ġtet szett
o y
Ġt ar
ĠmÃ¡s fÃ©l
Ġtechn olÃ³gia
ill ap
e lismert
u lÃ¡l
Ġtran s
Ġki elÃ©g
ĠszÃ¡m ukra
k ak
Ġfok ozott
ĠelsÅĳ d
ĠkÃ¶rÃ¼l i
Ġdip l
Ġd es
let es
egye tem
ĠmÃ¡s rÃ©szt
lÃ ºt
f ertÅĳ
ĠtermÃ©k eket
ĠEurÃ³p Ã¡ban
ĠeredmÃ©ny ek
ĠE mellett
ĠtÃ¡mog atja
okt atÃ¡s
ĠD i
Ġem ail
Ġc uk
Ġvi cc
vÃ ¡z
Ġsz iv
oss uth
vÃ©t elek
A Z
Ġoldal t
ar ch
he n
e lp
kor Ãº
le mÃ©ny
as d
¶ bben
ĠÃ¡tt ekint
Ġ elszÃ¡m
b eszer
Ġb aktÃ©rium
ĠA zÃ©rt
ĠÃ©v ad
ĠM SZ
ĠmÃ ¡g
eszÃ ¼nk
ĠÃ©rte lme
Ġlesz ok
Ġki rÃ¡nd
ĠNek em
ĠÃºj donsÃ¡g
zÃ© ki
ĠÃģ m
ĠkÃ¶rnyezet ben
Ġkiad vÃ¡ny
t iszt
Ġleg y
fÃ¡ jÃ¡s
Ġkez dte
za var
cs elek
Ġfoglal kozÃ³
it ek
Ġalap ulÃ³
ĠellenÅĳr zÃ©s
Ġegyik e
Ġvill amos
kÃ ¡ciÃ³
l dÃ¶nt
Ġennyi re
Ġkam at
jÃ¡r Ã
ĠszemlÃ ©let
nÃ ¶v
Ġglob Ã¡lis
ĠcÃŃ met
¡r Ã³l
hÃ¡z a
ĠmegÃ¡llap od
Ġelenged hetetlen
ĠA t
Ġind ÃŃt
ĠdÃŃ szÃŃt
uk ban
ĠS Åĳt
ozÃ¡sÃ ¡ra
Ġkoron avÃŃrus
ĠSzÃ¶vet sÃ©g
Ġru hÃ
Ġgondol at
ov jet
ĠvÃ¡ros ban
formÃ¡t us
ĠfÃ©r g
ĠkÃ©p zÅĳ
Ġszak kÃ©p
m ese
Ġalacsony abb
ĠrÃ©sztve vÅĳk
Ġszere tem
vezet Ã©s
Ġelt elt
Ġleg utÃ³
int Ã©z
e ldÃ¶nt
Ġkap tak
ĠszÃ³rak ozt
ĠÃ¼ lt
ĠtÃ¶ rÃ¶k
al kal
ĠT art
ĠlehetÅĳsÃ©g eket
ĠcsÃ¶kkent i
Ġegyet Ã©rt
Ġan Ã©lkÃ¼l
lÃ¡t Ã
Ġok os
Ġkonf lik
ass zal
âĢ Ķ
lÃ ¡b
ar a
Ġkapcsol atok
Ġp ubli
sze bb
od ra
it is
osÃŃt Ã¡s
Ġelfogad ja
Ġkeres ni
ĠlÃ©tre jÃ¶tt
hetÅĳ ek
ĠidÅĳ sebb
Ġind ÃŃtott
beszÃ ©l
ĠvÃ©let lenÃ¼l
ĠkÃ¶ny ve
Ġez utÃ¡n
Ġadat ot
Ġ eldÃ¶nt
Ġmec cs
m p
mÃ ¡bÃ³l
ĠÃ©let Ã©nek
Ġfel ajÃ¡n
Ġfoglalkoz ik
mÃ©r Åĳ
ĠBudapest i
cs alÃ¡d
Ġtest e
ĠCs aba
lye nek
Ġkap hatÃ³
Ġp oten
z is
lÃ¡tÃ ³
Ġszab ott
ĠvÃ ©ve
n csÃ
Ã¡lt Ã¡k
Ġme chan
ĠfÅĳ szerep
bb Ã
Ġmik r
Ġc h
ĠmÃº zeum
Ġv acs
ĠdrÃ¡g a
es se
Ġsz ek
telen Ã¼l
ismer e
ĠHe ly
ĠsegÃŃt Åĳ
Ã¼lt ek
Ġmeg hÃŃv
¡lÃ¡s a
dÃŃj as
Ġrendelkez nek
ĠÃ©let re
rÃ© mi
d ÃŃ
ĠtÃ ¡g
o ut
ter jeszt
Ġszomb aton
Ġmode lle
Ġpart nere
ĠbeszÃ©l ni
ĠÃ¶ssze hasonlÃŃt
ĠelÃ µ
Ġmely ben
Ãį g
asz nÃ¡l
est er
ny a
ĠÃ©rtÃ©k es
sÃ¶ mÃ¶r
u zs
Ġn o
ĠszÃ¡ll oda
e ink
Ġ elp
jÃ©t Åĳl
Ġkon cepciÃ³
Ġd om
ĠrÃ³ mai
ĠÃ©sz le
ĠhÃ ©
Ġsor ban
ot er
Ġjele z
ĠS zÃ³val
Ġajt Ã
Ġh alÃ¡
7 5
ad ik
eng ed
ĠÃ¼ r
¶ p
0 2
Ġind ulÃ³
Ġf ia
w e
am er
is za
ĠszÃ¡mÃ ¡t
ker eszt
ĠFe j
Ġter jeszt
h ÃŃr
ĠT Ã¡rs
ĠszÃ ¶r
av i
A l
ĠvÃ¡sÃ¡r ol
ĠkÃ©rdÃ©s ek
KÃ¶ szÃ¶n
av as
kÃ¶ tÃ©s
k ri
ĠhÃ¡t sÃ³
Ġ !
Ġnem i
Ġisko lÃ¡k
Ġfontos abb
ĠnÃ©l kÃ¼lÃ
kÃŃ sÃ©r
vÃ©n ek
ĠhÃº z
az a
Ġkilo mÃ©ter
Ġkor szak
Ġtest i
ide bb
Ġ megye
Ġ eladÃ³
Ġr okon
Ġsz ag
ciÃ³ s
¡ f
Ġmeglepe tÃ©s
u ni
ĠÃ¶lt Ã
Ġ elismert
ĠvezetÅĳ i
201 2
b olt
szo lÃºt
d Ã¡s
o e
Ġki adÃ³
ĠÃ¶ltÃ ¶
Ġforr Ã¡sok
Ġug y
201 5
Ġgy Ã¡r
Ġnap okban
L ET
alom mal
Ġlegt Ã
ĠkÃ ¡p
Ġ19 5
ĠkÃ©z zel
vit e
cske mÃ©t
ud it
Ġki von
i lle
ĠbÃº csÃº
ĠelÅĳ ÃŃrt
Ġpr i
ĠnÃ©gy zet
ell ige
Ġpr og
z anak
Ġf ran
Ġfizet Ã©s
Ġalkal mÃ¡val
ĠAn na
Ġi ro
tor i
ĠÃ©jszak a
Fe l
cs ere
ĠvizsgÃ¡l atok
ĠfelÃ¼let e
Ġbizony talan
Ġfog almaz
Ġti ze
Ġkialak ult
Ġrendelkez Ã©sÃ©re
Ġd ur
Ġ krÃ©m
Ġperc ig
ĠkÃ¶lt Ã
ĠorszÃ¡g ok
Ġsz op
ĠvilÃ¡g bajnok
ĠÃ©rtelem ben
ĠKor mÃ¡ny
ĠelÅĳ nye
Ġpihe n
Ġd Ã¡t
ren del
Ġbe zÃ¡r
ĠI dÅĳ
tt Åĳl
Ã¡l asz
Ġfor rÃ³
ark as
raj zi
Ġn ar
Ġnyelv Å±
z in
ast Ã©ly
ĠirÃ¡ny ulÃ³
Ãįg y
ĠkÃ¶ltÃ ¶
lÃ¡sÃ ¡ra
lÃ µ
ĠvonatkozÃ³ an
Ġment Ã©n
Ġmin imum
Ġ3 6
ĠtÃ¶r zs
ĠÃŃt Ã©let
ĠÃ¡r ak
Ġalap ja
L eg
ĠkÃ¶ltsÃ©gvet Ã©si
Ġ mak
ri er
ĠE ur
Ġszo ba
Ġb u
i rÅĳl
Ġg Ã¶rÃ¶g
Ã¡s zat
Ġakik e
a utÃ³
ĠazonosÃŃt Ã
elÃ©s e
Ġinter neten
ĠazonosÃŃtÃ ³
al itÃ¡s
ĠP Ã©ldÃ¡ul
ĠÃ³r Ã¡s
Ġnagy szerÅ±
ĠszakÃ©rt Åĳ
ĠsÃ¼ ti
Ġkap ac
it u
p Ã¡rt
H oz
k ond
ĠhÃ¡t ra
in Ã©l
adt Ã¡k
T V
kezelÃ©s i
Ġhely Ã©t
ÃŃrÃ³ sÃ¡g
ĠÃ¡t lÃ¡t
e lni
elt Ã©k
ĠP h
ĠK ossuth
Ġterh essÃ©g
ĠT Ã³th
Ġmarad Ã©k
ĠbÃ ¶rt
Ġj apÃ¡n
M ag
Ġhor g
le kedÃ©s
ve ly
ek be
ĠrÃ©sz vÃ©ny
ce ni
Ġp lat
ĠF il
rÃ ¡lÃ³
ĠsÃ¼ tÅĳ
ĠnyilvÃ¡n os
Ġt rend
Ġverseny zÅĳ
ĠÃ¼g ye
ĠhiÃ¡ny Ã¡ban
ĠkÃ¶ny vet
ĠvÃ¡lt ozÃ³
Ġhit ele
Ã¡k kal
ide jÅ±
Ġcs Åĳ
elle l
I s
l akÃ
adi cs
ĠSzÃŃn hÃ¡z
Ġbony olult
ĠelÃ©g gÃ©
Ġkis zÃ
Ġbe Ã©r
ĠI lyenkor
f Ã¼rdÅĳ
c zi
ĠA uszt
Ġkl in
ĠrÃ©g e
ez tek
K is
ĠvÃ¡r t
ve vÅĳ
ol cs
k v
mi a
ĠK eres
ĠhatÃ¡s t
Ġhor mon
ĠmÃ¡r a
ºt on
Ġkut atÃ³k
Ġ Ã³rÃ
ĠN or
Ġgyan Ãº
b urg
ĠÅĳ szi
ĠszÃ¼ net
Ġ od
Ġgyom or
Ġ mor
ezte tett
Ġutc ai
ĠrÃ©ge n
Ġr i
ĠR Ã©sz
© vÃ©
em at
Ġegy rÃ©szt
ĠrÃ¡n k
ĠcÃ©l ra
on al
Ġko csi
Ġnyer s
ÃģN Y
aszt rÃ³
ĠâĢ Ļ
ĠhÃ ¡
k egye
hetÅĳ sen
Ġhib Ã¡t
ĠvÃ©g Ã©ig
dt Ã©k
ĠÃ¶sszet evÅĳ
ĠrendÅĳr sÃ©g
z unk
ĠtanulÃ³ k
fe n
le p
© vÃ©ben
Ġor r
F or
Ġleg kisebb
alÃ³ g
.... ....
ĠU SA
Ã©sek or
kÃ ©ny
K Ã©t
ĠellÃ¡t ott
us s
Ġkis lÃ¡ny
Ã ©vÃ©ben
Ġnyel ven
ĠI g
Ġprof il
ezÃ©s Ã©t
Ġkap s
jÃ¡rÃ ³
Ġ elg
Ġakike t
Ġp Ã¡p
har c
usÃ ¡ban
ett Ã
ĠajtÃ ³
b ol
Ġmag Ã¡val
vite l
Ġbe cs
Ã¶rÃ ¶k
Ġr osszabb
Ġkaps z
Ġmeg ol
mÅ±v Ã©szeti
ĠH ÃŃr
ĠNÃ© hÃ¡ny
ol l
ez tem
ĠtermÃ©szet i
ĠtÃ¡jÃ©kozt atÃ¡s
ĠtalÃ¡l kozt
at kozt
Ġforgal ma
Ã¡l a
Ġbe lv
lan g
Ġer kÃ¶l
Ġtrans z
A V
ĠpolgÃ¡r i
ĠV is
ĠSzer intem
Ġmegold Ã¡sok
Ġvalamely ik
ĠkÃ¶z igaz
l ass
ĠEz utÃ¡n
Ġlett ek
Ġb Ã¡tor
Ġg az
JÃ ³
Ġfor ma
u re
ĠfÃ ¡z
aj e
ĠmegkÃ¶ nny
ĠjÃ¶ve delem
ĠsegÃŃt enek
ĠÃ¡llÃ¡s pont
ĠEr zsÃ©bet
Ġfele sÃ©g
ko csi
biz ony
eren ci
Ġlegf Åĳbb
at in
Ġvi tt
ĠjÃ¶n nek
ĠbiztosÃŃt Ã¡sa
k li
Ġalkot mÃ¡ny
ĠnÃ©z ni
Ġhely Ã©n
ĠpÃ¡rhuz am
ĠgyÃ¶ ker
8 8
vit eli
Ġben nem
Ġrit ka
aszt ott
Ġ15 0
Ġfe je
ĠÃºgy hogy
ĠhatÃ³ sÃ¡gi
s sze
Ġmindenki t
Ġfeladat okat
ind ows
Ġolva sÃ¡s
V Ã©g
ber g
ĠkÃ¶vetkez mÃ©nye
Ġtech nikÃ
ĠnyilvÃ¡n valÃ³
Ã¶ng y
ĠtÃ¡p lÃ¡
Ġst rand
ĠtalÃ¡lt am
ĠkÃ¶rnyÃ ©kÃ©n
Ġcs ele
U L
1 00
zÃ©s sel
rum p
Ġlenni e
I X
ĠkÃ¶nnyed Ã©n
ĠkÃ ©
Ġalkalmaz hatÃ³
ĠKÃ¶zÃ ©p
Ġg on
Ã ¶l
sÃŃt Ã©se
rÃ ©ny
e tni
nÃ ¡lÃ³
Ġfeny ege
ĠeskÃ¼ vÅĳ
Ġoszt rÃ¡k
ĠhasznÃ¡l unk
oldal Ãº
ĠdÃŃs z
Ġszer vek
Ġtan Ã©v
akt ÃŃv
Ġlel kes
Ġ200 5
Ġtele vÃŃziÃ³
szÃ¡mÃ Ńt
ĠÃ©n eke
ĠKÃĸ Z
ĠfelelÅĳs sÃ©get
Ġ ÃŃtÃ
36 0
ĠÃ©pÃŃt Åĳ
Ġtapasztal at
ĠlÃ¡tt a
ĠMind ez
Ãģ M
mÃ ©re
Ãī SZ
Ġdiag noszt
adÃ¡s i
p ali
v eszÃ©ly
Ġ Ã¶k
R E
Ġd agan
ezt Ã¼k
Ġrak tÃ¡r
Ġim p
Ġbe jegy
201 6
k osz
ĠerÅĳ sebb
gazd Ã¡l
Ġbe fizet
Ġamely ik
¶ dik
m g
z ag
ĠtÃ¡rs as
on Ã
ek er
ĠhatÃ¡sÃ ¡t
ĠRÃ ³
Ġparlament i
Ġmene kÃ¼lt
ĠÃ©rzel mi
beszÃ ©d
Ġhit eles
Ġ Ã©k
erc eg
r ad
Ġismert Ã©k
ĠmÃ©r eg
ĠvÃ©g ezni
ĠidÅĳtart ama
str ukciÃ³
Ġle Ã¡ny
as sÃ¡k
ĠhÃ©tfÅĳ n
ĠfÃ©r j
ĠAk adÃ©mi
v in
ĠVÃ©g Ã¼l
©lt e
ĠkÃ©szÃŃt eni
Ġint ellige
zt a
Ġteme tÅĳben
Ãºd iÃ³
zÃ Ń
Ġgy ull
ĠÃ¼ tem
v olt
Ġfeles leges
ĠvÃ©le mÃ©nye
Ã¼lÃ ¶k
hely ek
Ġeredet Å±
he tte
Ġob jekt
ĠszÅĳ lÅĳ
Ġleg nÃ©p
Ġleg szebb
ĠkÃ¶szÃ¶n Ã¶m
ĠÃ¼ res
Ġc Ã©lt
pr of
ĠeredmÃ©ny t
akÃ º
Ãī NY
Ġjelentkez ik
h it
ĠÃĸ nt
ĠmÃ¡sod perc
ĠÃ©v folyam
ny ezet
ĠtÃ¡ von
Ġpont ot
Ġb o
ĠkÃ©r ni
201 7
Ġmeg nevez
Ã©s Ã©rÅĳl
Ġmond ott
Ġveszt e
Ġfel szÃŃn
ĠhÃ¡zt art
Ġmindegy ik
Ġegy be
Ġ okÃ
6 7
ĠtÃ¡b lÃ¡z
Ġelhely ez
µ l
S ÃģG
Ġb a
ĠdÃ©l i
Ġtr ag
Ġfogy Ã¡s
Ġgondol kodÃ¡s
t o
ĠarÃ¡ny a
Ġked den
sÃ©ge n
Ġan t
lle nt
ĠG u
Ã©le lÅĳtt
Ġ200 4
Ã ¶dik
ĠmÃ¡r is
ĠL u
ĠÃ©rtÃ©ke lÃ©s
kett Åĳ
Ġex tra
m asz
valÃ³ k
Ã¶rtÃ©n eti
Ġakart am
Ã¶rÃ ¶s
g Ã¡t
ĠfÃ ³k
Ġszo cial
Ġtag Ã¡llam
ert e
Ġfelt Ã¡r
ĠelÅĳ l
pÃ ¡d
ĠhatÃ¡ly os
ĠkockÃ¡z at
ra c
Ġme nny
ĠvÃ¡lt ozik
ĠhÅ± tÅĳ
¼ lÅĳ
Ġtart anak
ĠhÃ¡tt er
Ġsz ur
ĠelkÃ©szÃ ¼lt
ĠtÃ©r kÃ©p
Szere t
Ġrendelkez Ã©s
me d
201 0
ĠezÃ ¼st
M Ã¡s
Ġillet i
Ġ y
ja m
Ã¼k ben
ĠÃ¶ssz hang
Ġt op
le y
ĠmegkÃ©r d
ĠY ork
g ar
ĠfertÅĳ zÃ¶tt
Ġkip rÃ³bÃ¡l
Ġcsak nem
m l
ĠgyÃ¼ le
lovÃ ¡k
Ġkap ni
ĠbelÃ¼l i
Ġgomb ra
Ġv Ã©n
ny ilvÃ¡n
kor ban
ĠX X
ĠbÅĳ rÃ
Ġlak os
polit ikai
Ġnor mÃ¡l
8 5
ĠkÃ¶zÃ ©r
Ġha jÃ
Ġpor c
3 4
Ġgra f
Ġsok fÃ©le
ze ne
ĠP a
ĠÃ©v szÃ¡zad
Ġz uh
Ġkelet i
ĠrÃ©g Ã³ta
ĠâĢ ¢
ĠmezÅĳ gazdasÃ¡gi
ĠtÃ© mÃ¡k
ĠszÃŃv vel
Ã¡r am
ikÃ ¡ban
ÃŃt Ã©sÃ©t
Ġregiszt rÃ¡lt
Ġoda fig
Ġokt atÃ³
ĠhiÃ¡ny a
20 20
ĠlÃ©t szÃ¡m
Ġfej lett
Ad at
Ġger inc
ulÃ¡s i
zÃ©se n
Ġaz utÃ¡n
um ulÃ¡t
mi lyen
Ġakar nak
ĠGy ermek
obb an
ĠF ogy
al izmus
Ġrend ezett
ĠkialakÃŃt Ã¡sa
Ġegy idejÅ±
ĠvÃ©t elÃ
Ġmegfig ye
Ġseg Ã©d
Ġugyan olyan
) )
Ġszer dÃ¡n
ĠbÃ¶rt Ã¶n
hat om
Ġmegle hetÅĳsen
Ġnyugod tan
ĠkÃ¶zle mÃ©ny
T AT
Ġprod ukciÃ³
Ġlab or
Ġre j
ttÃ ³
ĠK ult
forr Ã¡sok
ĠszemÃ©lyi sÃ©g
art Ã
Ġanyag ot
Ã¡ll omÃ¡s
ez zÃ¼k
E GY
ĠtevÃ©keny sÃ©get
ĠfÃ¡r adt
Ġkont rol
Ġmegt e
Ġp Ã¼sp
Ġbet Ã¶lt
Ġhallg atÃ³k
mÅ±v Ã©sz
Ġame lyen
Ġpar a
ĠbeszÃ©l get
ĠkÃ¶nny ebben
ĠSzÃ ©
ezte tÅĳ
V III
t atott
ĠkommunikÃ ¡ciÃ³s
ĠF og
Ġfog ok
Ġkor tÃ¡rs
Ġleg end
Ġte lt
ĠgyÅĳ zt
ĠegymÃ¡s tÃ³l
Ġhoz ni
cse t
ip t
unk a
Ġp ol
ele nt
I A
Ġ kegye
Ġte li
ĠvÃŃz zel
Ġkis g
ĠM o
ĠkÃŃvÃ¼l i
ĠÃ¡ld ozat
ĠI V
Ġsz t
t Ã¶r
er Åĳs
ĠEz eket
essÃ©g Ã©ben
Ġr obot
ĠÃī let
a ut
Ġsajt Ã³t
© bb
Ġolvas ni
ĠmÅ±v Ã©szeti
ei rÅĳl
Ġvizsg a
Ġfejleszt Ã©si
e c
ĠgyÃ³gy nÃ¶vÃ©ny
ĠA L
Ġhaszn osÃŃt
ĠKÃ¶ zt
Ġjel zi
kÃ©s Åĳbb
Ġjog a
Ġv izsgÃ
vÃ ¡j
Ġeset e
ĠfÃ¡jdalom mal
Ġhib Ã¡s
p at
Ġismer i
ĠG al
ĠA rany
k un
ĠkÃ©z be
ĠÃº ti
ion Ã¡lis
ne bb
mek kora
l av
me nÅĳ
ĠÃ©p Ã¼l
Ġhi hetetlen
ic it
Ġbab a
r Ã¡r
ei vel
ĠI P
eme nt
usz on
ĠMin de
Ġb lok
Ġszomb at
Ġd up
ar ak
Ġeb be
E zen
ĠkÃ¶zlekedÃ©s i
Ġp op
k as
fÃ¡j d
ĠÃ©le s
v Ã©re
kod ott
k amar
ĠjÃ³t Ã©kony
Ġtip p
ĠÃ©r i
ĠtÃ¶r lÃ©s
pr essziÃ³
ĠV olt
Ã©te l
ĠV Ã
ĠÃ¡g az
sÃ ³k
ĠJ a
K or
Ġkisg y
ĠbizonyÃŃt Ã©k
ĠelÅĳford ulhat
h am
Ġfog almazott
mÃ©t eres
Ãļ g
Ġist e
Ġko cs
Ãī L
ĠcsÃ¼tÃ¶rt Ã¶kÃ¶n
Ġne t
Ã¡s ba
Ãļg y
Ġillet Ã©kes
Ġmin i
kÃ ¡val
Ġszok ott
ĠmÃ©ret e
l ad
Ġsz imp
ĠKÃ¶zÃ ¶s
Ġmegt iszt
ĠÃŃ ze
201 1
s ziget
Ġpar kolÃ³
szer k
Ġprosztat agyulladÃ¡s
Ġfe lÅĳ
ĠGy Ã³gy
Ġsze l
ĠSzab ad
ĠszerzÅĳdÃ©s t
ĠmegÃ¡llap odÃ¡s
ĠÃ©rtÃ©k Å±
9 5
ĠfÃ¼ st
Ġakar ok
Ġzaj lik
ĠtÃ ³
Ġleg kÃ¶ze
Ġko sÃ¡r
ĠvÃ¡llalkozÃ¡s ok
ai dÅĳ
ĠszÃ ¡
ge ly
Ã¡lt am
ĠH er
artÃ ³
lle r
k astÃ©ly
ĠbefolyÃ¡s olja
keres Åĳ
fÃ©r gek
Ġfil met
Ġtulajdon kÃ©ppen
Ġle nd
ĠA pp
D r
Ġok ok
ĠgyÅĳ zel
ĠT est
ber Ã¡lis
ĠP l
ĠÃ¡llÃŃt ja
h Ã©t
ele ket
Ġami lyen
Ã©re t
Ġny ak
Ġmag Ã¡ra
ĠjÃ³vÃ¡ hagy
Ġkett Åĳs
ĠszÃ º
Ġmind ezt
Ġdiv at
Ġv il
ĠO s
ĠkÃ¶lt sÃ©gek
Ġnincs e
ĠellentÃ©t ben
ez d
ĠC S
Ġv ettek
ĠpedagÃ³g us
Ġne vÃ©ben
v ost
ĠC o
ĠMik or
for gal
ĠpÃ ¡ci
Ġcsap ata
ĠV Ã¡sÃ¡r
ĠkÃ¶ze le
Ġter vek
Ġab szolÃºt
Ġnincse n
Ġkiter jed
Ġest i
Ġpillan atban
Ġvisz ket
ĠÃ¶ssz eget
A G
ĠE bbÅĳl
ĠC ent
ĠÃ¡t meneti
Ġa j
ĠA p
Ġotthon i
mÃ ºlt
Ġmegjele nik
tr ukt
ĠElÅĳ szÃ¶r
Ġked ve
op ron
Ġcs oda
ĠzÃ¡r Ã
Ã¡bb an
Ġegy fajta
ony olÃŃt
ĠvendÃ©g ek
ĠkÃ©s Åĳ
ĠzÃ¡rÃ ³
ny Ã
ĠszabÃ¡ly ozÃ¡s
Ġfog unk
Ġmegs emmi
ĠmÃ©rkÅĳ zÃ©s
ĠtÃ¡ vÃº
ĠF rancia
mÅ± ves
ĠðŁ Ļ
Ġadat ainak
Ãī T
ĠtÃ¡mog atott
Ġv ere
Ġtart om
ĠellÃ¡t Ã¡s
Ġjog viszony
Ġfil ozÃ³
kÃ¶ rÃ
Ġcig Ã¡ny
zÃ¡s sal
Ġleg yÅĳ
k ek
dÃŃj at
Ġtart oznak
Ġtiszt Ã¡ban
g yÃ
g it
Ġker Ã¼lÅĳ
Ġkeze lhetÅĳ
vÃ¡lt ozÃ¡s
mÃ©nye n
Ġalkat rÃ©sz
Ãģ T
ĠtÃ¡jÃ©k ozÃ³d
Ġkib ocsÃ¡t
aje l
Ġt rÃ©n
Ã¶rÃ ¶
ÃŃtÃ¡s ra
Ġki lÃ©p
Ġ3 2
k ra
Ġcsap atok
i f
ĠÃºt mutatÃ³
ĠbÅĳ ven
ĠI N
og at
an s
ĠmÅ±kÃ¶ dte
se b
ĠÅĳ si
Ġle h
Ġ kli
ĠmÃ©r g
ĠM on
Ġl iszt
Ġsik ere
Ġ mese
ĠelsÅĳd leges
ĠkÃ º
lt em
Ġnap pali
I L
ĠlegnÃ©p szerÅ±bb
ĠEm ber
f eszÃŃt
szÃ¡mÃ º
s ereg
l ab
Ġt ra
Ġ mand
Ġtart omÃ¡ny
Ġdipl omÃ
s port
Ġvi rt
Ġle vÅĳ
ĠEgy hÃ¡z
Ġeredeti leg
A mi
Ġtud at
Ġford ult
Ġstr ukt
h ÃŃ
Ġtit ok
ĠvÃ¡r jÃ¡k
Ġszeret ettel
ĠV as
ol og
ĠelÅĳ adÃ³
ĠtÃ¡plÃ¡ lÃ©k
ĠkÃ¶ szÃ¶
Ġeset ek
Ġvi dÃ¡m
Ã©p ÃŃtÃ©s
Ġbele Ã©rtve
e sÃ©
ĠÃ©rtÃ ©kel
ĠÃ©nek es
ĠMSZ P
ĠÃ©rint i
ĠfÅ± tÃ©s
ĠsÃ¼ r
Ġhonlap jÃ¡n
munk a
Ġvala hol
Ġelfog adott
Ġde b
Ã©s rÅĳl
Ġtelefon on
ĠpÃ¡ly Ã¡n
Ġh ajn
dek es
ĠkarÃ¡csony i
Ġt on
ĠA m
Ġalap ÃŃtvÃ¡ny
¡sÃ ¡t
ĠÃ¶ssz ek
Ġenerg iÃ¡t
Ġh er
ol hat
Ġbek er
8 6
ĠhÃŃ d
jÃ ©rÅĳl
ĠhasznÃ¡l juk
Ġhonlap on
ĠszÃ©l sÅĳ
¶ nkormÃ¡ny
iÃ¡k at
Ã©t ek
Ġminde nkor
nt er
ol f
ĠvÃ¡laszt ani
int er
Ġleng yel
Ġf ekt
Ã ¶nkormÃ¡ny
ĠK om
ĠmÅ±kÃ¶dÃ©s i
ĠmesÃ ©l
Ġelfele jt
Ġmeg ind
x t
Ġszab vÃ¡ny
Ġmond jÃ¡k
Ġesz kÃ¶zt
Ã©d ia
b o
ĠSzÃ ©p
Ġ kincs
Ġelle nk
lÃ¡r is
E urÃ³p
Ġl o
n ess
Ġismere tek
har mad
ĠK Ã¡l
ĠÃ©rdek lÅĳ
Ġkut atÃ¡si
Åĳk nek
ĠszerencsÃ ©re
S zi
Ġt egnap
Ġmegny ug
an e
Ã©g y
eze nt
Ġszere ti
mest ere
Ġjelentkez Åĳ
ad nak
ĠÃ¼gy ben
ĠpÃ ³
szabad sÃ¡g
vizsg Ã¡lat
ĠkÃ¶rnyezet i
Ġele get
Ġsz apor
Ġillet Åĳen
ĠMÅ± v
Ġ200 3
an na
ĠhangsÃºly ozta
atÃ ¡hoz
ĠdÃ¶nt Ã©st
on c
be csÃ
ĠvÃ¡lt ozott
Ġd ug
k rÃ©
l u
lÃ ¡val
P er
ĠTe lj
Ġakk umulÃ¡t
Ġakkor i
ĠnyÃŃ lik
ĠK atal
Ġ Ã¶nkormÃ¡ny
ĠM ad
E F
EN D
ozz uk
ĠE s
Ġkap unk
ĠnÃ¡l am
Ġadat bÃ¡zis
k alÃ³
Ġfolyt atott
Ġszere lm
Ġd Ã©lelÅĳtt
Ġa v
Ġza vart
re p
ele p
Ã¡s os
ĠÃĸnkormÃ¡nyzat a
âĢĿ -
S t
ĠÃ¡llamtit kÃ¡r
z ky
Ġfek vÅĳ
Ġhelyzete t
ĠkÃ©p ze
ter em
ĠF oly
iz ni
ĠjÃ¡tsz ani
ĠemlÃ© ke
olÃ¡sÃ ¡ra
lnÃ ¶
Ġmag azin
Ġ lÅĳ
ĠHorvÃ¡t h
ok rÃ¡
E nnek
Ġfe jt
ĠI r
nem Å±
Ġezek nek
Ġ ult
okr atikus
ĠhÃ©tvÃ©g Ã©n
8 9
f o
Ã¼ t
ĠremÃ ©l
Ã¡l unk
ud omÃ¡nyi
Ġnyom on
essÃ©g gel
olÃ¡sÃ ¡t
Ġkol lek
i vÃ
ĠmÃ©rt Ã
ke delem
I n
ÃŃt ik
ĠVan nak
Ġ ox
ĠkÃ©rdÃ©s re
u be
l hatÃ¡r
Ġp as
z om
Ġjelen sÃ©g
Ġszer ettÃ©k
ĠbÅ±n cselek
Ġinn ovÃ
Ġh is
e inek
Ġvesz ik
ĠgÃ ³
) ;
Ġp ak
ĠeljÃ¡r Ã¡st
b all
ĠcÃŃm re
ĠjÃ¡tÃ©k ok
ncsÃ ©re
Ġ kab
ĠkÃ¶ re
ras trukt
I gen
um ban
Ġszom orÃº
Ġleggy akrabban
Ã¡sok nak
Ġpikkely sÃ¶mÃ¶r
ĠðŁĻ Ĥ
¡s zÃ¡r
Ġfokoz atosan
szÃ ³t
ĠvÃ¡laszt Ã
Ġmunka vÃ©g
Ġki jelzÅĳ
A C
rÃ¡ciÃ³ s
l ist
Ġut Ã³lag
us a
Ġszem mel
Ġp Ã¡l
h Ã¡rt
ĠÃŃrÃ¡s beli
ĠnÃ¶vel i
ĠlÃ©ny ege
E U
ĠhÃ³nap ban
Ġami Ã©rt
ĠT Ã¶rvÃ©ny
Ġelem zÃ©s
ĠelÅĳford ul
ĠtÃ¼k rÃ¶
am s
od nak
Ġkonz ult
ĠkÃ¶r Ã¼lÃ
Ġakti vit
mÃ©ly es
ĠkÃ©r elm
ĠirÃ¡ny ba
ĠsajÃ¡t os
Ġhely ezett
iszt a
ĠÃģ dÃ¡m
l olvas
ĠjelÃ ¶l
l jesÃŃt
vÃ©telÃ ©t
ol v
Ġki vÃ©telÃ©vel
Ġkor ban
Ġmeg em
Ġfel fog
ĠvilÃ¡g szerte
zt ek
ĠÂ§ -
k anyar
ment esen
Ġdolg oznak
ĠadÃ³ s
esÃ© lye
Ġsport olÃ³
ĠS za
Ġ ik
Ġ1 000
ĠF Ã©r
kÃ¡l t
ĠgÃ©p jÃ¡rmÅ±
int Ã©zet
7 6
Ġki hagy
iszt ikus
ĠB M
ĠvÃ¡rhatÃ³ an
ĠtÃºl zott
Ġfele k
telen sÃ©g
jog i
Ġvala ha
Ġelv eszÃŃt
¶ le
ĠfÅĳ s
KÃ ¶z
ĠterÃ¼let ek
ĠtÃ©r sÃ©g
Ġ esÃ©lye
Ġvesz nek
Ġ200 1
ĠeredmÃ©ny eket
Ġhagy ja
hÃ ¶g
Ġi lyes
pÃ¡ly a
Ġd rÃ¡m
Ã¡lt ak
abil it
Ġsz il
ĠM iskol
Ġillet Ã©k
Ġok ai
vÃ ¡gy
ĠÃ¼zemelte tÅĳ
ĠG Y
Ġmind annyi
Ġmeg ismert
Ġnyit va
Ġf Ã©k
ĠpÃ©nzt Ã¡r
og atott
ri ai
ĠszÃ¡m lÃ¡
f Ã³l
ĠGer gely
ĠP i
Ġ kalÃ³
ĠcÃŃ men
Ġrendszer ben
Ġelfog lal
eke dett
gÃ ¡
t ovÃ¡bb
Ã¡lis an
©lÃ ¼nk
ĠelkÃ©pze lÃ©s
Ġolvas tam
mÃ ©l
Ġkoz met
Ġelp uszt
m iszer
Ġirod almi
E V
Ġmeg sÃ©rt
ĠszÃ ¶g
ĠtÃ¡mog atÃ¡si
Ġfele d
ang Ã©l
unk nak
atÃ¡s ra
al is
Ġpin worm
ĠhozzÃ¡szÃ³ lÃ¡s
Ġag gÃ
ĠlÃ¡n g
Ãī N
ĠcsÃŃ pÅĳ
Ġegy Ã©n
ĠE N
hir detÃ©s
ĠtÃ©ny ezÅĳk
ass uk
es nek
© ki
Ġkeres kedÅĳ
vis sza
t ikus
em re
ĠmÃ³dszer ek
ĠbÃ¡t ran
ĠAdat vÃ©delmi
Ġsi mÃ¡n
nÃ ¡ban
ĠhatÃ³ anyag
Ġny omÃ¡n
ĠÃ©rt hetÅĳ
ĠnÃ¶vÃ©ny i
Ġ elve
e lhatÃ¡r
ĠvÃ ¡z
lÃ¡n c
ĠszÃ¡zad ban
ÃŃt Ã©st
ĠvÃ©del me
hÃ¡ zt
ÃŃg y
szÃ¡z s
es ett
Ġszo ci
sza va
Ġfil mek
Ġmint a
t Ã¡b
ĠÃ©r hetÅĳ
ter v
Ġmegjelen Ã©se
Ã¡s on
O D
Ġjog ot
ĠlÃ ¡nc
kÃ³ p
Ġfog om
Ġ Ã©vÃ©ben
Ãģ Z
ezÅĳ dÃ©s
ĠhÃ©tkÃ¶z nap
¼lÃ ¶tt
sÃŃt Ã
ĠvÃ¡ltozÃ¡s ok
U gyan
atÃ¡sÃ ¡nak
in o
Ġcs omÃ³
Ġtelefon szÃ¡m
lÅĳdÃ©s i
lÃ ¡ra
t ani
Ġfelszer elt
ly al
ĠbÃ¼nte tÅĳ
ĠÃ¶rÃ¶m mel
Ġeszt Ã©t
ege ner
Ġs rÃ¡c
Ġnyilatkoz at
Ġsi ma
miszer int
ĠA rt
ÃŃt Ã©sÃ©re
Ġmegbeteg ed
ĠG i
Ġtavasz i
tan Ã¡cs
Ġokoz za
Ġgy ar
Ġko ord
ĠA D
Ġal ud
Ġ4 00
Ġbe val
nne l
ud i
ĠsÃ¡r ga
¡l y
ĠveszÃ Ńt
9 6
ĠlÃ©p csÅĳ
Ġkapcsolat ba
Ġtart otta
T K
ĠÃ©szak i
ok a
hÃ ©j
Ġ elhatÃ¡r
Ã¡ciÃ³ t
ĠszÃ¡m la
!! !!
z ul
ĠcsÃ ¡szÃ¡r
Ġfur csa
Ġd ar
lete n
ny elv
od ni
lem ez
Ġter ror
ĠvÃ¡l assz
Ġki ind
ĠtÃ¡p anyag
Ġkuty Ã¡k
ĠkÃ¶lt Åĳ
Ġjog ok
ĠKÃ©r jÃ¼k
Ġtan ÃŃt
ĠÃ¼gy intÃ©
Ġszeren cs
Ġmozd ul
ĠDebre cen
Ġimmun rendszer
ĠlÃ ¡gy
for ma
mÃ ¼
or it
Ġszervezet e
os e
Ġny Ãº
u sÃ¡t
ĠkÃ©r e
ĠlÃ¡tvÃ¡ny os
ĠP ark
Ã¡n c
Ġbek apcs
ĠfelnÅĳtt ek
sÃŃtÃ ³
ĠKatal in
ĠÃ©pÃŃt Ã©si
ĠbÅĳ rt
ĠtÅĳ ke
Ġszeret nÃ©nek
Ġt ettÃ©k
ĠÃĸ ssz
ÃŃt ette
ĠH iszen
t ikai
l mÃ©t
Ġal akÃº
Ġnapja ink
ĠO n
ĠrÃ ¡g
ĠmÅ± faj
ĠÃģr pÃ¡d
Ġmegt Ã©r
gÃ ³k
ĠJelen leg
Ġki tal
feldolg ozÃ³
Ġkarban tart
ĠS egÃŃt
Ġle jÃ¡r
ĠszÃ¡z adi
Ġmond tam
ĠpÃ¡ly Ã¡zÃ³
Ġellen zÃ©ki
ĠszÃ¡r ny
ĠÃ¶t ven
ĠmunkÃ¡ ja
d het
szÃ³ lÃŃt
os i
Ġnek tek
ĠhÃ¼ vely
Ġ miszerint
ĠvÃ¡laszt Ã¡si
v iv
Ġ mekkora
nÃ ³zis
ÃģL Y
Ġ ;
lÃ¡sÃ ¡nak
ĠhatÃ¡r ozza
ĠÃ¡t alak
ul va
Ġad tak
h ad
ĠvÃ©g leges
ĠtÃ¶rÃ ¶l
ĠÃ¡t ad
X II
t op
Ġpe t
ĠsajtÃ³t Ã¡jÃ©koztatÃ³
ĠmÃ¡s ol
oz hatÃ³
ĠkÃ©s zen
ĠminÅĳ sÃŃt
ĠszÅ± k
szint Ã©n
Ġhe tek
ikÃ ¡k
ĠsÃ©r Ã¼lt
ĠhÃ¡zas sÃ¡g
Ġhal ott
ĠgyÅ±jt Ã¶tt
Ã¡rg y
Ġtud tÃ¡k
ĠautÃ ³k
Ġt v
Ġal k
Ġkis zÃ¡llÃŃt
jÃ ¶
ĠtevÃ©keny sÃ©gek
ĠvÃ¡r juk
reg Ã©ny
ettÃ ³
ilk ossÃ¡g
ĠkÃ©z i
ĠidÅĳ vel
Ġvi dÃ©ki
e tett
ĠP R
ÃŃ va
akt ikus
Ġbe Ã©pÃŃt
ĠvÃ¡llal atok
al Ã¡t
Ġle hessen
hoz atal
il kos
ĠW indows
Ġv egye
ĠszÃ¡m ot
E P
ĠrÃ©sz vÃ©tel
Ġas z
n ai
Ġl ista
ĠÃ¶ssz egyÅ±jt
ĠhazÃ¡nk ban
on kÃ©nt
! "
Ġad jÃ¡k
Ã ´
Ġfigyel ni
u lÃ¡ciÃ³
ĠtevÃ©keny sÃ©ge
dÃ µ
let ve
Ġleg kÃ©sÅĳbb
kÃ¶zÃ ¶s
k int
ĠjÃ¶vÅĳ re
hat tak
abb ak
Ġrendszer e
Ġ %-
ĠszÃ¡rmaz ik
ĠtalÃ¡l kozÃ¡s
¡ c
Ġvalak inek
200 9
Ġp rÃ³b
ĠkÃ¶ rÃ©
Ã ¡f
biztonsÃ¡g i
Ã©ly es
vÃ ¶z
Ġha v
Ġels ajÃ¡t
ered mÃ©ny
ĠmÃ©rt Ã©ke
Ġlab dar
ĠcsalÃ¡d ok
³ val
Ġtekint hetÅĳ
t etÅĳ
ĠÃ¶t Ã¶dik
i mÃ
aszt ok
Ġkrit ikus
Ġg it
in y
Ġtan ÃŃtvÃ¡ny
ĠMiniszt Ã©rium
Ġmeg ment
Ġh erceg
ĠJ Ã¡t
ĠelÃ ¡r
Ġvezet Ã©k
ozÃ¡s ra
Ġdr og
Ġfoly ik
ĠkÃ©p eket
os is
ĠhÃ³nap os
ic k
K Ãĸ
hoz zÃ¡
Ġleb onyolÃŃt
g ia
c er
Ġte endÅĳ
ist Ã¡ly
zer v
ĠO per
egye t
b Åĳ
ĠcÃŃ mÃ©t
Ġegy hÃ¡zi
A r
szere t
g atÃ¡s
Ġf u
ĠMi utÃ¡n
Ġmeghal lg
fele lÅĳ
¶ meg
r ik
iÃ¡ jÃ¡t
and a
ĠpÃ¡r os
ĠfelÃ ¡llÃŃt
for t
ĠK o
ĠajÃ¡nl juk
ĠfÅ± szer
Ġneheze bb
Ġmoz gÃ³
ke ver
ĠÃ³v od
ĠS o
ĠtÃ¡mogatÃ¡s a
ĠmÃ¡r ka
ĠÃ©v esen
Ġal ul
e lolvas
i den
Ġszervez Åĳ
ĠhiÃ¡ny zik
Ġsiker esen
Ġmutat jÃ¡k
Ġki f
ĠrÃ©szÃ ©ben
Ġd ik
ye lv
I Z
ĠG DP
ĠkÃ©p ernyÅĳ
A ki
ĠdolgozÃ³ k
Ġ ejt
ĠtÃ© mÃ¡ban
Ġtechn olÃ³giai
ebb i
Ġman apsÃ¡g
Ġki adott
M P
Ġmeg kÃ¼lÃ¶nbÃ¶
ĠterÃ¼let eken
Ġszerep lÅĳk
Ġele ve
Ġgyer eke
g almas
ĠÃ¶ssz ege
min den
koz ott
Ġhom ok
ÃŃ m
nÃ ¡d
Ġstatiszt ikai
T P
h or
ĠlÃ¡t juk
ez ze
Ġn egy
Ġcs avar
ĠGy Åĳr
att an
k ai
lÃ¡sÃ ¡val
Ġpolit ika
omb at
Ã¼k re
Ġnyelv i
Ġeb Ã©d
l kÃ¶telezett
ÃŃt sa
lÃ¡s ra
ismere t
ĠtÃ¶bb fÃ©le
ez s
Ġd omb
Ġszak ma
6 5
© je
Ġoly kor
ĠkÃ©szÃ¼l nek
dÃ ¶g
ie t
Ġ enni
lÅĳ i
Ġiste n
ozÃ¡sÃ ¡nak
ĠszÃŃ ve
ĠÃ¡llandÃ³ an
k egy
a kÃ©nt
ĠlehetÅĳsÃ©g Ã©t
ÃīS I
Ġemel kedett
kÃ ³z
ĠgÃ©p e
ĠÃģ t
che nyi
Ġjelleg zetes
ĠkÃ©szÃŃt mÃ©ny
ĠlÃ©nyeg es
ĠMind ig
ĠÃī szak
oszt Ã¡s
ĠszÃ©p sÃ©g
Ġszer ette
Ġpar k
Ġv ezette
nd re
ĠbeÃ¡llÃŃt Ã¡sok
Ġmod er
Ġfelad atot
pap ÃŃr
Ġnevez ett
kÃ¶zÃ ©p
ĠszemÃ ¼
Ġ kinek
Ġopti mÃ¡lis
ĠjÃ¡tÃ©k ot
ĠkezelÃ©s t
Ġt ok
mÃ¡r Ã³l
Ġtud tak
Ġker est
zÃ©ke ny
Ġki fejt
mÃ Ń
ut al
Ġ elolvas
uc c
ĠC or
Ã¡z ott
fÃ¼gg eszt
Ã¡st Ã³l
alm akat
I R
ĠiskolÃ ¡ban
Ġb Ã¡nt
Ġill at
Ġsz tÃ¡r
. ),
ĠkÃ¼z delem
Ġalap ul
in Ã¡ris
©ke ly
ĠvÃ©g zi
Ġmegv izsg
t Ã¶bb
es ed
ĠFe hÃ©r
ite l
ĠkÃ©pe n
Ġle foly
ĠkÃ©r i
Ġazonnal i
h ont
Ġf Ã¡k
irod alom
Ġmut atott
eng yel
ĠelÅĳ terjeszt
Ġkez eli
d jÃ¶n
y Ã¡s
Ġgond olt
: )
ĠkategÃ³r iÃ¡ban
Ġinformat ikai
Ġd ekor
ĠÃ¼gy vezetÅĳ
gyÅ± lÃ©si
ĠidÅĳ n
cs ator
ĠszÃ¼r ke
r ek
ĠszÃ¡m ol
Ġtanul ni
ĠteljesÃŃt Ã©se
ĠKÃ¡r pÃ¡t
ĠhÃŃr ek
ĠvÃ¡l nak
ĠS im
Ġnap ok
Ġinten zÃŃv
oln Ã¡r
¡ jt
Ġugyan csak
ar di
ĠF ig
P r
ĠkÃŃ sÃ©rt
ony i
Ġesz embe
hi b
e lkÃ¶telezett
Ġfigyelem mel
Ġille s
atos sÃ¡gi
ĠÃ©t kez
Ġtehet sÃ©g
F i
obb ant
ĠgyÅĳ zelem
ĠÃ©pÃ¼let e
Ġin sp
h hoz
ĠszolgÃ¡l at
Ġfel von
tud omÃ¡nyi
Ġhol nap
Ġfant asztikus
zet ek
ĠelsÅĳ kÃ©nt
sÃŃ r
Ġszer ver
szolg Ã¡lat
moz d
Ã©s Åĳbb
Ġs h
ĠKor m
ĠvÃŃz ben
ĠszÃ©n hid
cs em
ĠtÃ©g ed
eset re
Ġcse h
ĠkezelÃ©s i
ĠmegszÅ± n
fejleszt Ã©s
Ġder Ã¼l
ĠÃ©let Ã¼nk
Ġmeg ÃŃt
ĠdÃŃ ja
ĠjÃ¶tt ek
ĠK iss
Ġmer ev
ĠemlÃ©k ezet
d nak
8 7
ĠA b
ĠÃī va
P S
ing er
ĠN Ã©z
A hogy
Ġb Ã¼
Ġfolyam atban
Ġl op
ass on
ĠbeszÃ ©lÃ¼nk
Ġmegv Ã¡laszt
ĠÃ¡r uhÃ¡z
any a
Ġeszt endÅĳ
Ġham is
ĠÃºt jÃ¡ra
ĠtanÃ¡cs adÃ³
Ġelv Ã¡lt
Ġideig len
Ġvissz ajel
zÃ¡s ra
Ġszor os
Ġsor rend
ĠKÃ¶nyv tÃ¡r
ĠhatÃ©kony an
Ġd iÃ³
Ã ¶ld
sÃŃt eni
Ãº gÃ³
Ġig y
Ġszenve dÃ©ly
y ulladÃ¡s
Ġcs al
Ġki hasznÃ¡l
val y
Ġmut atkoz
" &
ĠbarÃ¡t nÅĳ
Ġkeny Ã©r
ĠgyÃ¡sz olÃ³
ĠvÃŃ zi
Ġ7 5
cs ok
ÃŃ zÃ¼let
Ġter ep
szo ba
ĠOl asz
ĠSzab Ã¡ly
ĠM oz
Ġszav ak
Ġ zÃ¡sz
ĠjogszabÃ¡ly ok
ĠÃ©pÃŃt ett
kÃ©p zÅĳ
hÃ¡lÃ³ zat
ĠÃ¡rny Ã©k
ĠkialakÃŃt ott
ĠmÃ¡s nap
Ġeleg Ã¡ns
ĠF ele
fÃ©r g
Ġfolt ok
ĠkÃ¶vet i
Ġir oda
is kolai
Ġ ly
ĠtÃ¶ nk
ĠhÃŃr leve
Ġcip Åĳ
ĠM art
ĠhasznÃ¡l nak
essÃ©g Ã©t
Ġ kak
ĠÃ©j jel
ĠjÃ¶ve del
Ġmegb eszÃ©l
anÃ ³
Ġ ent
ĠtÃ¡vol sÃ¡g
ÃŃt ve
U D
N a
Ġfogy atÃ©k
osÃŃt ott
Ġlesz okÃ¡s
Ġsp ir
at h
ĠrÃ©szlet esen
Ã¡s rÃ³l
ĠeljÃ¡r Ã¡sok
Ġcit rom
ĠA ny
¼lÃ ¼k
ĠN EM
Ġr ont
ĠO kt
ei ben
sÃ¼ tik
ĠszerzÅĳ i
Ġ elkÃ¶telezett
ĠÃ¡r folyam
ĠkormÃ¡ny zati
man n
ĠtÃº ra
bÃ ¡ny
c ukor
Ġr ut
ĠÃ¼nnep i
Ġ ku
oh Ã¡r
kÃ¶zÃ ¶n
ĠvÃ ¡m
Ġbefekt etÃ©si
ĠGÃ ©
ĠkÃ ©mi
Ġszer ettem
ĠjÃ¡t szÃ³
Ã©t elÃ
ĠhÃ¼ lye
Ġi lyet
Ġfele sÃ©ge
j esztÅĳ
ĠvÃ¡lt ak
ĠZs uzs
Ġfenntart hatÃ³
le d
nÃ ©gy
hat ta
Ġb ud
ir ekt
Ġ kint
ĠszemÃ ©t
Ġkar rier
kÃ¡ cs
Ġc Ã©lÃº
ei re
ĠeredmÃ©ny ez
ĠnÃ©lkÃ¼lÃ ¶z
F ontos
ĠbÃ¡rmely ik
ĠTud omÃ¡ny
© len
ĠS i
Ġtesz nek
ĠT ri
ĠtalÃ¡lt ak
ĠD un
Ġjelent ett
Ġ200 2
ĠszÃŃ nt
ĠhatÃ³sÃ¡g ok
ĠnyilvÃ¡nossÃ¡g ra
vi rÃ¡g
ĠÃ¼zem elt
ĠBiz ony
ĠhozzÃ¡t art
Ġl it
Ġkezd tem
iÃ ¡bÃ³l
av ig
ĠÃ©rtÃ©k ek
Ġport Ã¡l
ĠjÃ¶ het
Ġd u
om mal
ĠszÃ¡m on
ĠkÃ¶ze lÃŃt
mÅ± ve
ĠszÅ±r Åĳ
ĠSok an
Ġl ux
l as
Ġmel lÅĳ
Ġproszt ata
ĠÃ¡ltal unk
ĠÃ©jszak ai
ĠhozzÃ¡ juk
Ġinf rastrukt
he lyet
Ġ0 6
ĠkÃ¶vetel mÃ©nyek
m art
szÃ ¡n
ĠÅĲ k
Ġex t
ĠformÃ ¡ja
mir igy
Ġilles z
ĠvÃ¡sÃ¡r olni
vet Åĳ
ĠrÃ¶gzÃŃt ett
ĠintÃ©zkedÃ©s ek
ris sebb
ĠP est
Ġt egye
. ).
Ĩ Ĵ
ĠtÃ© mÃ¡
d arab
Ġt ettek
Ġs ug
Ġa le
ĠlÃ ¡r
E l
ĠG ar
z sÃ
ĠnÃ¶vÃ©ny ek
Ġfog juk
y akor
ĠÃīr demes
Ġd uz
dÃ©ly i
ĠkÃ¶zigaz gatÃ¡si
z ol
ĠE GY
E lsÅĳ
mail ben
is mÃ©t
©l lyel
ĠszÃ¡m odra
Ãº rÃ¡
Ġvissza igaz
Ġah onnan
ĠF EL
ĠÃ¡r nyal
ĠkÃ¼l fÃ¶ldÃ¶n
. (
Ġb Ã¡ny
nc ia
ĠjÃ¡r nak
og atÃ¡s
Ġolv assa
a me
R A
lt Ã©k
ĠmÃ©rtÃ©k Å±
ĠidÅĳjÃ¡r Ã¡s
ĠadatkezelÃ©s i
Ġs av
ĠvÃ¡laszt Ã¡sok
Ġami rÅĳl
ar nok
fel vÃ©tel
ĠkÃ©p zel
Ġ: -)
Ġforrad alom
Ġ mg
st er
Ġjele nnek
ĠhasznÃ¡l ati
ar s
eme n
Ġkat asztrÃ³
Ġszeret ett
Ġszor ong
Ġural kodÃ³
ĠaggÃ ³d
ĠkÃ³r ok
ker e
esz p
7 7
ĠcÃ©l bÃ³l
Ġmad Ã¡r
ha jÃ³
ĠpÃ¡rhuzam osan
ĠAnd re
Ġal vÃ¡s
u lÃ©k
Ġvonat k
ĠfÃ¡jd almas
ig Ã©n
ĠU S
Ġkezde ni
us e
Ġ kosz
ĠÃ¶sszet ett
b usz
ĠÃŃg Ã©r
Ġ199 0
ĠjellemzÅĳ e
ab izt
hetÅĳ sÃ©g
ĠjellemzÅĳe n
Ġiga zÃ¡bÃ³l
tt Ã³l
Ġpar adics
Ġvit a
ĠM Ã¡rt
ant ikus
Ġ kanyar
Ġker ing
Ġalb um
ĠL ond
ja inak
mÃ ©lem
AR T
ra e
Ġep i
I D
zett e
ic le
ĠP etÅĳ
Ġp Ã¡n
? !
ĠE le
e sÃ¼l
Ġfelb ont
Ġjog Ã¡t
Ġz sÃ¡k
hatÃ³ ak
ĠtÅĳ lÃ¼k
p o
ĠC on
l ovÃ¡
m y
g yulladÃ¡s
ĠsegÃŃt het
t Ã¶rvÃ©ny
t ad
Ġint Ã©zet
Ġegyen esen
ĠfÃ¶l dÃ¶n
ĠE zÃ
ĠzÃ¶ld sÃ©g
adÃ¡s ra
ĠM er
ĠszÃ¶vet sÃ©g
b al
ve zÃ©r
rak ciÃ³
Ġverseny e
Ġcik lus
ĠÃľgy fÃ©l
Ġleg ke
ĠÃ©rint ettek
Ġellenk ezÅĳ
ĠÃģllam ok
ĠkÃ©pviselÅĳ je
Ġabba hagy
Ġ ell
Ġmegh ir
ĠgÃ©p ek
Ġok ozÃ³
Ġv ettÃ©k
ĠO szt
lÃ¡s sal
Ġspe ci
Ã¡l va
H Ã¡t
ĠmÅ±kÃ¶ dt
Ã©r ia
Ġfolyt on
moz g
Ġs Ã¡v
Ġd Ã¼
Ġkony ha
abb Ã
ĠszabÃ¡ly okat
ĠkerÃ¼l het
Ġv eg
ĠA jÃ¡n
Ġanyag okat
ĠlÃ¡t s
ĠszÃ ©lÃ
Ġorvos ok
Ġlesz ek
Ġ kegy
Ġmennyi sÃ©g
ri c
Ã¼k kel
Ġmik ro
Ġmened zs
lovÃ¡ ki
ve nt
Ġg Åĳ
ĠvÃ¡lasz ol
ĠvÃ¡r osÃ
ut e
l kÃ¼lÃ¶n
zÃ ¼gyi
Ġp inc
e lkÃ¼lÃ¶n
ar end
ĠeszkÃ¶zÃ ¶ket
ĠS a
abbÃ ¡
Ġleszok ni
Ġbi olÃ³giai
Ġgon osz
z it
rendszer i
R Ã
Ġi P
ĠbiztosÃŃt Ã¡si
ĠC Ã©l
csÃ ©t
ĠfÃ¶ lÃ©
Ġford ÃŃtott
fi ai
Ġ4 8
Ġjelent Ã©s
ĠS al
? âĢĿ
ĠfÃ©lÃ ©v
ot h
SzÃ ¡m
ĠfÃ¡jd almat
z ok
Ġsaj nÃ¡l
at iv
ĠÃ¶nkormÃ¡ny zatok
© h
am ikor
Ġtiszt Ã¡n
Ġmester sÃ©ges
©le s
Per sze
Ġakkor a
ĠD Ã¡n
Ġfelszer elÃ©s
Ġkiegyen sÃºly
csÃ ¡ny
ĠeredmÃ©nye kÃ©nt
Ġjog alap
Ġszervezet ben
j atok
ot ikus
ĠmÃ© lye
vez ett
an o
al mÃº
ĠP at
ĠmenÃ¼ pont
ĠfÃ©le lem
6 6
uk kal
Ġtal p
lÃ ¡ban
Ġlas sÃº
Ġkit Å±nÅĳ
ĠÃ¡l mod
g yel
ĠG ondol
ĠSzÃ© chenyi
kÃ¡r t
ĠH asznÃ¡l
t echn
kod nak
Ġvele d
Ġ1 20
ĠÃ¡l om
ĠÃ¡ll ni
Ġfel kÃ©szÃŃt
ĠbÃ¼sz ke
ain kat
ele g
ĠkÃ¶zÃ©p pont
Å± ek
ak ti
on nal
al ista
ev Åĳk
ĠnÃ© zett
Ġkonflik tus
Ġvi har
ar ett
Ġ3 3
g yakor
ĠadÃ³ dÃ³
ĠkÃ©pvis e
ie l
onÃ ³
ĠkÃ¶zep es
ĠC D
ter me
M S
ĠpÃ¡ci ens
v ak
ĠÃŃz lÃ©s
ĠKÃ¶szÃ¶n Ã¶m
T isztelt
ĠbÃ¼nte tÃ©s
Ġid ege
Ã¡l jÃ¡k
r Ã¡sz
ul mÃ¡ny
ĠegymÃ¡s ra
Ġme mÃ
ĠnÃ¶veked Ã©s
st ru
ĠH Ã¡rom
Ġvi dÃ©k
Ġmellett e
ĠGy ur
Ġ elkÃ¼lÃ¶n
ĠJ udit
ĠmegelÅĳ zÃ©s
ĠtÃ¶r Åĳ
sÃ µ
p an
Ã©szÃ ¡r
Ġem elt
ĠjÃ³ tÃ¡l
ĠegyidejÅ± leg
Ġakar s
os a
aszt Ã¡s
Ġszenve dÅĳ
ĠÃ¡tlag osan
Ġakars z
Ġfoglalkoz ni
ĠP al
i rt
ĠvizsgÃ¡l ata
N ap
vez Ã©s
Ġtapasztal atok
ĠL Ã
M e
N incs
rog Ã©n
Ġv Ã¡ndor
ĠÃ¡t fogÃ³
" -
ĠarÃ¡ny ban
z Å±r
³ nak
Ġge net
k art
Ġfel szÃ¡m
ĠhÃ©tkÃ¶z napi
Ġfontos nak
het e
ci um
Ġigyek szik
Ġtapasztal atai
kÃ¡ ba
ĠkorlÃ¡t ozott
Ġfel szabad
ĠelmÃ©let i
ĠÃ¶sszefÃ¼gg Ã©sben
ĠMi c
ĠhÃ ¶lgy
Ġkeres kedÃ©s
ĠfÃ¼gg vÃ©ny
h ord
ĠNÃ©met orszÃ¡g
Ã¼nte tÃ©s
Ġsz ub
Ġprof esszor
l zÃ¡r
Ġ Ã¶v
f ot
f ontos
ĠterÃ¼let i
k ud
ĠtÃ¼ nete
ĠmÅ±kÃ¶ dÃ¶tt
s zet
ĠszÃ¡llÃŃt Ã¡s
dÃ¡ ig
k ant
ĠtÃ¶ rt
ĠhÃº g
Ġgyerek eknek
ĠklÃŃ ma
cs illap
szÃ ¡j
Ġemberi sÃ©g
Ġmegt al
ÃŃtÃ ³k
Ġtil os
ĠmÃ ©z
ĠApp le
zÃ¡l og
ĠEm lÃ©k
ĠcÃ©g e
Ġmeg jelÃ¶lt
Ġpro jek
Ġszi lÃ¡rd
kap itÃ¡ny
Ã¡v id
Ġbefekt etÃ©s
ĠmunkÃ ¡k
Ġki jelÃ¶lt
Ġtit kos
Ã©st Åĳl
Ġminden hol
Ġok ost
esz kÃ¶zÃ
Ãº ttal
Ġkomoly abb
ĠkÃ©pviselÅĳ i
Ġmeg mond
ĠlÃ©g i
Ġfog s
ĠmunkatÃ¡rs ai
keze ti
Ġlel k
as ok
ĠterÃ¼lete t
ĠF esztivÃ¡l
ge tÅĳ
mÃ©nye it
ĠK lub
koz nak
Ġcik ke
fÃ ³
ĠVar ga
ti cs
ĠkategÃ³r ia
eng er
Ã¡p ia
d o
Ġnyert e
Ġnyugod t
i ra
Ġze nÃ©
f ek
Ġpu ha
ĠmegvÃ¡lt ozott
ĠÃ©rtÃ ©ket
Ġalkal mÃ¡bÃ³l
Ġvirt uÃ¡lis
ĠkiszÃ ¡mÃŃt
ĠW e
dÃ ³d
ĠmÃ©t eres
Ġre pr
ĠA kÃ¡r
Ġbefekt etÅĳ
ĠautÃ ³t
Ġverseny t
lan ak
d y
Ġbor z
Ã ¡lÃ¡sÃ
ĠhÃ ³d
ĠvasÃº t
Ġfel g
ill a
ĠPÃ ©cs
l hal
Ġrend es
kÃ¶r ben
kÃ¼l dÃ©s
Ġnar ancs
ĠSz o
par k
ĠAr ra
od or
B B
ĠnyÃºjt ani
Ġszenve d
olÃ¡s ra
kÃ¼ z
Ġfog alma
Ġmennyi sÃ©gben
ĠBi b
ĠszÃ¡zalÃ ©kÃ¡t
Ġt ettem
ĠszÃ ©r
Ġb ul
T ER
Ġterme lÃ©s
ĠÃīp pen
ĠhatÃ¡ly ba
oh as
ĠO K
ĠF er
hon e
cs ik
ĠkÃ¶z beszer
ĠÅĳ szinte
ĠerkÃ¶l csi
Ġsiker rel
Ġtere t
ĠÃ©l vezet
ĠfelÅĳ l
jÃ ¶vÅĳ
e lhal
vÃ© lemÃ©ny
Ġbi rod
ĠH atÃ³
ĠbeszÃ©l g
Ġleve let
ĠNy ilvÃ¡n
ĠlÃ¡ny ok
Ġkelet kezett
Ġszervezet i
den s
Ġvon zÃ³
ĠszÃ©k let
Ġill uszt
z um
c al
ĠmagÃ¡n szemÃ©ly
Ġgy or
ĠilletÅĳ leg
ĠvÃ©le mÃ©nyek
ĠAkadÃ©mi a
Ã¼ tÃ©s
ĠT isza
¡sÃ ¡ra
Å± ri
ĠcsalÃ¡d tag
ĠPar lament
ĠH Ã
art icle
ĠV Ã¡llal
Ġhar ag
Ġfogs z
ozÃ¡sÃ ¡val
ĠtÃ¶rvÃ©ny ben
Ġminden kÃ©pp
k Ã©se
v esz
ĠSzer zÅĳdÃ©s
ny eg
ĠmegelÅĳzÅĳ e
ĠmegelÅĳzÅĳe n
il ab
Ġboly gÃ³
Ġmegy Ã©ben
an unk
Ġ kastÃ©ly
Ġfolyt at
ĠN os
ĠÃ³rÃ¡ ig
Ġhely Ã©re
nÃ¶k sÃ©g
Ġmeg jelÃ
ĠfelmÃ©r Ã©s
Ġgy ert
es ze
Ã ©bb
h abilit
ĠA ir
Ġtechn ika
r ont
Ġbe vÃ¡ndor
Ġtag ok
ĠkÃŃvÃ¡n ja
ĠszÃ³ ba
ĠhalÃ¡l a
ĠszÃ ©g
Ġko c
ĠpÃ©l dÃ¡t
ĠkÃ¶szÃ¶n hetÅĳ
S zab
Ġgyakorlat ban
Ġmindaz okkal
b log
zÃ ¡ciÃ³s
lt er
Ġs Ã¶r
ĠfelÃ ¡l
ĠÃ¡b ra
ĠerÅĳ sÃ¶
Ġolyan ok
Ã¡l nak
cse n
Ġklin ikai
h ai
Ġalap on
ĠbeszÃ ©
M ert
ĠidÅĳ nkÃ©nt
ĠgyÃ³gy mÃ³d
Ã©l Ã©s
ĠfehÃ©r je
ĠS y
Ġigaz ol
TovÃ¡bb i
ĠelÅĳ ad
Ġfok hagy
ĠkutatÃ¡s ok
je tek
ĠM un
ÃŃt juk
Ġgarant Ã¡lt
ĠR Ã©g
s y
ĠkÃ©pes sÃ©ge
Ġbe vÃ¡lt
Ġ mele
rÃ ¶s
Ġkifej leszt
ĠQ u
ĠÃĸ r
Ġ6 5
z sÃ¡k
prof it
k ine
Ġad unk
s unk
Ġap p
t ve
Ġelh ang
ĠmegszÃ ¼let
Ġrend esen
Ġtulajdonos a
Ġkap tunk
anÃ ¡
ĠkÃ©rt e
ĠS E
Ġhal adÃ©k
kÃ¶r Å±
Ã¡z i
Ġg aszt
. /
vÃ¡n s
ĠÃ¼ lÅĳ
Ġke nÅĳ
ĠK Ã¼l
ĠkÃ¶rÃ¼lÃ ¶tt
ĠÃ¡svÃ¡ny i
Ġa vagy
Ġcs ere
ĠlegutÃ³ bbi
ĠmÅ±ve let
nap os
ĠkÃ¶z sÃ©g
ĠV Ã¶rÃ¶s
Ġoldal rÃ³l
ĠÃ¶r Ã¼l
Ġp a
ĠmÅ±kÃ¶dÃ©s e
ĠB a
hat ok
ezt Ã¼nk
Ġott hont
Ã¡sa inak
Ġember eknek
ĠtÃ©ny leges
N ek
L T
\ "
tele nek
ĠcÃ©l szerÅ±
Ġsz lovÃ¡k
Ġtartal mÃ¡t
vi cs
elle n
ĠP an
ul jon
rÃ³ f
nÃ ¶t
____ ____
Ġh uszon
Ġ5 5
ĠH am
Ġkapcsol att
Ġfel vÃ©tel
E bben
Ġr ad
ĠS c
ĠM at
Ġfr ont
ĠÃ¶sszhang ban
Ġbenn Ã¼k
Ġmegold ani
Ġszok tam
ĠÃ¼t kÃ¶
ĠbÃŃrÃ³ sÃ¡gi
Ġfejleszt Ã©sek
ĠHung ary
Ġaki vel
Ġâ ĨĴ
J elen
p Ã©ldÃ¡ul
ĠvÃ©lemÃ©ny Ã©t
ĠkÃ¶vetkez Åĳk
© lÅĳs
on ok
ĠelÅĳ adÃ¡st
¶v eg
Ġok bÃ³l
Ġakar jÃ¡k
zt etÃ©s
ĠAnt al
ĠmÃº lik
Ġakart a
ĠfÃ¶ld i
Ġver se
Ġves szÃ¼k
ĠA nal
rÃ ¶v
Â ®
Ã¡z at
O T
Ġ elhal
ap ja
Ġfris sen
ĠÃ¡ltal uk
Ġmarad nak
ĠkÃ©p zett
Ġ uk
Ġjelent Ã©se
ĠszÃ³rakozt atÃ³
dÃ ¶k
Ġszeret nÃ©d
ĠcsalÃ¡d ja
ĠtÃ¡rgy ak
m aj
ĠgyÃ³gyszer t
rÃ©mi um
Ġdin am
Ġnap tÃ¡r
ĠÃ¡llÃŃt Ã³lag
ĠSzer vezet
ĠnÃ©z zÃ¼k
Ġgyors abban
lÃ ©n
e lzÃ¡r
he zÃŃt
ĠÃ¶rÃ ¶kÃ¶
orvos i
ozÃ¡s sal
ĠvÃ¡lasztÃ ³
Ġfel irat
Ġindok olt
osz kÃ³p
Ġv aj
izÃ¡l t
Ã¡ll omÃ¡ny
ĠÃ©let em
Ġhom lok
ĠszolgÃ¡l ja
ve i
A SZ
OR M
E m
ĠhangsÃºly t
Ġhoz zÃ¡m
ĠcÃ©l lal
ĠT or
szer kezet
esÃŃt Ã©s
F t
5 9
az ott
EZ ET
Ġsz ol
ĠkapcsolÃ³ dik
For rÃ¡s
pÃ³t lÃ¡s
... ","
ĠC ol
Ġtablett Ã¡k
ly ag
ĠtanÃº sÃŃt
ĠlÃ¡tog atÃ¡s
ĠajÃ¡nl om
Ġneve lÅĳ
ĠkÃ ¼lÃ
ĠÃ©rdeke lt
Ã¡r on
cs al
ĠfelÃ ©ben
ĠÃ©rd em
ĠP ort
ĠhatÃ¡ly a
ĠkÃ©r dÅĳ
ĠÃ¡llapot a
Ġmegle p
ason lÃ³
Ġ masz
ĠÃ©let ed
Ġmegg y
ke nt
Ġhiv atÃ¡s
d dig
h o
Ġcs o
ĠhÃ¡rom szor
nÃ¶ ki
ĠbeÃ¡llÃŃt Ã¡sokat
ĠvÃ¡r ni
Ġr agy
ĠtÃ¼ re
Ġpad lÃ³
Ġalap ÃŃtott
ikÃ ¡lis
Ġ kÃ©se
cs ka
ĠH otel
Ã¡t ok
ĠJobb ik
ĠSZ ER
Ġmegt akar
ĠI de
¡b or
os ak
ĠH P
zet esen
Ġtart almak
Ġrut in
ĠmegszÃ ³l
hÃº z
is hvg
Ġmegp rÃ³bÃ¡lt
ro id
ĠtÃ¶ mÃ¶r
Ġte a
Ġemel kedÃ©s
v izsgÃ
mÃ©rt Ã©k
ogrÃ¡ f
ĠH D
ĠÃ©let kor
u nt
ĠfÅĳ vÃ¡rosi
em elÃ©s
jÃ ©be
ki egÃ©szÃŃt
zÃ ¡ban
ĠL engyel
Ġoldal ra
Ġst and
ĠAn nak
ĠkÃ¶rnyezet e
ĠlÃ©nyeg Ã©ben
Ġmagyar ul
Ġhagy juk
ĠtÃ¶ k
ĠM ac
f olt
jele n
ĠM EG
A n
Ġsz ovjet
Ġakar om
ĠgyÅ±jt emÃ©ny
Ġtartalmaz nak
Ġfor gatÃ³
Ġme nnek
lÃ ¼
Ġad miniszt
ĠhÃŃ m
Ġn ettÃ³
Ġme nte
Ġhallott am
ĠtÅ±z olt
y Ã¡r
ĠkÃ¶z zÃ©
Ġfelg y
lÃ ¡lÃ³
Ġperc es
Ġlegf rissebb
Ġhagy ni
Ġmellett i
¶ d
K Ã¼lÃ¶n
ĠigÃ©ny lÅĳ
ĠR omÃ¡n
l ing
ĠÃ©t kezÃ©s
ĠVagy is
att yÃº
Ġmond tÃ¡k
ill ant
Ġist eni
ĠJ Ã³l
ĠhÃ³nap ja
ĠtÃ¶ m
al att
ĠvÃ¡llal ati
lÃ© keny
as sza
lap ot
ĠtÃ¶bbi ek
Ġelle nÃ¡l
Ġmod ul
pet enc
ali zÃ¡ciÃ³
ĠCs alÃ¡d
ĠlÃ© leg
ĠMinden ki
Ġki lÃ³
nÃ ©ben
mÅ± kÃ¶dÃ©s
Ġnevez t
Ġp ohÃ¡r
Ġfel fÃ¼ggeszt
biztosÃŃt Ã¡si
ĠkÃ©szÃ ¼lÅĳ
Ġmeg Ã©l
ĠV eszp
g Ã©s
Ġl iter
ĠE mi
Ġamely re
ĠsegÃŃt ik
Ġolimp iai
Ġtes szÃ¼k
J A
Ġgyakorl atok
Ã ©lÅĳs
Ġ krÃ©
Ġ mez
lÃ ©l
Ġszabad idÅĳ
Ġcse csem
ĠT ur
ĠfertÅĳ zÅĳ
x is
ĠtÃ¶rtÃ©net Ã©t
ĠbeÃ©p ÃŃtett
ĠkÃ¶zremÅ± kÃ¶dÃ©s
uk a
Ġki lÃ¡t
hass on
Ġfoglal ja
ip p
Ġle m
Ġkom mun
ĠbÃ¡rmi t
Le het
Ġkapac it
Ã ¡Ã©rt
ĠegyÃ¼ttmÅ± kÃ¶
ĠE P
Ġb ol
ter mÃ©k
Ġfe jÃ©t
Ġ kamar
Ġny Ã¡l
ĠkÃ¡rt ya
bbÃ ©
ĠNyug at
Ġv Ã©l
Ġismer Åĳs
min d
ĠP C
ĠM c
Ġegyen es
Ġ3 7
ĠkÃ©rdÃ©s eket
ĠEgy Ã©bkÃ©nt
kÃ¡rt ya
Ġszerint e
ki r
ĠT eme
Ġle ÃŃrÃ¡s
9 8
ke lÅĳ
ĠcÃŃm zett
ĠlÃ© zer
ĠkerÃ¼let i
ĠD Ã¡vid
Ġjav ÃŃtÃ¡sa
Ġbemut atÃ¡sa
ĠlÃ©t ezÅĳ
Ġr ock
ĠstratÃ©g iai
hajt Ã
Ġ3 8
mÃ Ńt
l ue
ĠkerÃ¼l ni
ĠidÅĳpont ja
ĠtÃ¼net eket
Ġweb hely
Ġnem es
5 7
z hetÅĳ
sÃ¡g osan
Ġis kol
p Ã¡ros
ĠkÃ¶vetkez ett
I M
ĠÃ©rett sÃ©gi
Ã¡v ol
p h
hat alma
ĠmÃ© lyen
ĠfÃ¡j l
ĠEr Åĳ
Ġfris sÃŃt
ĠjÃ¡tÃ©k osok
Ġ kud
c on
\ /
ĠremÃ ©lem
ĠG imnÃ¡zium
int ett
ohas em
ĠszÃ©k hely
Ġkomb inÃ¡ciÃ³
ezÃ©s Ã©re
Ġ kine
ra i
Ġcig arett
Ġval lÃ¡si
200 8
ĠrÃ¶v idebb
Ġugyanaz t
Ġpont ban
ĠkÃ¶rny Ã©k
ĠkÃ¶ltsÃ©gvet Ã©s
ĠkÃ³ st
f ont
ĠdÃ¶nt Ã©se
ĠutÃ ³d
Z S
Ġt Ã¡s
ĠH ang
Ġl in
Ġfel vÃ©tele
ĠN eked
ĠvÃ©g telen
Ġsz in
g i
on nyal
Ġ kri
ban k
men ziÃ³
ese bbet
ĠA s
Ġtart ottÃ¡k
Ġpr aktikus
Ġperc ben
ĠkÃ©r em
ĠTer mÃ©szet
Ġkit Å±
ĠszÃ©nhid rÃ¡t
zt Ã¡r
Ġlen nÃ©nek
Ġed Ã©ny
¼gyminiszt er
ĠlÃ©trehoz ott
okat lan
ĠmÅ±kÃ¶ dnek
Ġsz ektor
Ġf iÃ³k
eze n
ĠSzÃ ©k
hatatlan ul
Ã¼ zem
ĠÃ¡llÃŃt ani
koz ni
ĠproblÃ©mÃ¡k at
Ġcsoport ok
haszn Ãº
ĠlehetÅĳ sÃ©gei
Ġmindaz oknak
ĠfeltÃ©t e
Ã ¶le
Ġcser Ã©l
Ġmut atta
aszÃ ¡m
sÃ¡g on
Ã©k os
Ġ Ã©lÅĳs
ÃŃr egy
I G
Åĳk kel
Ġgy Å±rÅ±
mÃ©ret Å±
ĠszolgÃ¡ltatÃ¡s okat
Ġad tÃ¡k
ĠF ekete
ĠfÅ± zÅĳ
Ġjel zÅĳ
Ġal Ã¡t
E C
Ġb Ã©ke
haszn Ã¡lt
Ġve n
ĠcÃ©l ok
okrÃ¡ cia
Ã©k a
Ġkony hÃ
ĠH old
Ġult ra
ad rÃ¡g
jegy zÃ©k
hett em
Ġami bÅĳl
Ġ elzÃ¡r
ĠS tr
Ġlov ag
EN T
l ati
de nek
ĠS an
Ġhivatal osan
k eszt
Ġelter jedt
Ġszerep Ã©t
ĠrÃ©sze sÃ¼l
Ġmegrend ezÃ©sre
zÃ¡ j
ĠfelhasznÃ¡lÃ¡s a
, -
jÃ ³s
Ġkez deti
Ġmegh osszabb
lat ot
¡ jÃ¡nak
sÃ©g Ã¼nk
ĠrÃ ¡d
Ġmer Ã¼l
Ġmeg marad
Ġt Ã©rt
pÃ ³
Ġc e
le vÃ¡ns
ĠszÃ ¶vÅĳ
F otÃ³
Ã¡l int
r ap
ĠÃ©lett art
l re
Ġgondol ja
Ġgyors abb
fÃ© lÃ©k
ĠlegtÃ¶bb szÃ¶r
ĠorszÃ¡g ot
Ġ25 0
Ġdi csÅĳ
ĠmÃ©d i
Ġrendelkez Ã©sek
Ã©t a
Ġvalak it
M ar
ĠidÅĳtart am
csÃ¶kkent Åĳ
Ġbe jut
pr oblÃ©
Ġkon zerv
ĠP ri
Ġf idesz
Ġmegjelen Ã©s
Ġfogyaszt Ã³i
Ã©t ele
op e
h old
Ġhamar abb
Ġhad sereg
lle m
ol hatja
Ġelind ult
ĠszÃ¡l lo
Ġor g
ĠnÃ¶vek vÅĳ
Ġhasz nÃ¡lÃ³
Ġkes er
ÃŃt Ã¡sok
Ġal u
Ġnagy ban
Ġfut am
hetÅĳ vÃ©
Ãģ V
op er
Ter mÃ©szetesen
b ur
Ġmene kÃ¼l
ĠPetÅĳ fi
kÃ¡k at
in s
aj zs
Ġnegy ven
ru ttÃ³
Ġbi llent
ĠmÃ »
ĠnÃ¡l a
ĠeltÅ± nt
Ġa cÃ©l
Ġutc Ã¡n
ĠmÅ± hely
ĠjelentÅĳ sÃ©ge
ĠlÃ¡t hat
lap on
ad a
eme kÃ¼l
Ġforgalom ba
ĠM ezÅĳ
Ġb Ã¡cs
ĠvÃ¡ltozt atni
ĠkÃ¶z gyÅ±lÃ©s
ĠtÃ© len
red it
Ġboldog sÃ¡g
ĠB Ã©kÃ©s
le het
ĠMÃ¡rt on
Ġzse b
Ġb ors
ĠmagÃ¡t Ã³l
vel Ã©s
Ã ³val
V II
ĠK Ã©sÅĳbb
9 7
Ġkapcsol ata
ĠorszÃ¡g okban
KÃ©r jÃ¼k
essÃ©g i
ov atÃŃv
ĠbekezdÃ©s ben
6 8
nÃ¶ ke
ĠG ab
Ġgondos kodik
Ġoldal ak
Ġosz lop
Ġv ig
i dÃ
becsÃ ¼l
Ġrek ord
Ġmegrende lt
ut i
Ġbes or
5 8
Ġgond ot
ber end
mÃ©r Åĳl
Ġdi csÃ
sza kÃŃt
ĠKÃ¶z sÃ©g
sÃ©g Ã©vel
Ġki vÃ©tele
ĠvÃ¡sÃ¡r olt
Ġvezet het
ĠSzere ncsÃ©re
ĠÃ¶sszefog lalÃ³
Ġegy eztetÃ©s
Ġgyerek eket
es Ã©s
Ã¡sz ok
ĠB o
es sÃ©ge
dÃ©s t
Ġtel je
© ma
m ani
kut atÃ³
ve bb
ĠD ok
ed nek
hajtÃ ³
lÃ©s ek
ĠFej leszt
Ġb uli
Ġnyug alom
ĠÃ¼gyfele k
Ġmot ivÃ
¡b ÃŃtÃ³
Ġst ÃºdiÃ³
Ã¡llÃŃt Ã¡s
Ġaltern atÃŃv
ĠfÃ¡z is
hoz ni
Ġmegny ilvÃ¡n
ĠmÃ¡s kÃ©pp
ĠvÃ©del met
kÃ ³r
ĠrendÅĳ rÃ¶k
Ġ mus
Ġforr Ã¡sa
ĠkÃ¶rny Ã©ke
Ġnevezt e
Ġdok tor
ĠhatÃ¡r on
Ġszervez Åĳk
ĠvÃ¡r ost
ĠszerencsÃ ©t
ert Ã
mÃ³ ni
Ġbur kol
mÃ ©nek
Ġmegszabad ulni
Ġh ekt
Ġered Åĳ
Ġhaz ug
szeg Ã©ny
A J
ĠL o
Ġversenye n
ott unk
ĠbeszÃ©l ve
Ġvacs or
p iaci
mÃ ©let
ĠsegÃŃt ett
ĠszÃ¼letÃ©s nap
ĠfelÃ ©t
an Ã¡l
Ġegy ez
Ġhttp s
ĠkÃ¶z eg
ĠhÃŃr levÃ©l
hÃ¡z ak
Ġh old
an ni
Ġb esz
ong or
az z
vett Ã©k
Ġmag Ã¡ny
Ġallerg iÃ¡s
Ġsz akÃŃt
z se
mÃ ©g
mÅ±v Ã©szet
Ġoly at
ĠegymÃ¡s hoz
Ġde pressziÃ³
y t
Ġgyerm eket
Ġcsep p
ĠegyszerÅ± bb
Ġpuszt Ã¡n
5 2
ony a
Ġbajnok i
i le
n Ã¡n
Ġelkez d
ĠmÅ±kÃ¶dÃ©s Ã©hez
ĠEgy Ã¼tt
ĠhaladÃ©k talanul
Ġokost elefon
Ġpihe nÅĳ
ĠtÅĳ lÃ¼nk
kÃ ©re
zÃ¡sÃ º
ker Ã¼lt
ir os
ĠÃ¶sszek apcs
Ġve zÃ
Ġmat emat
ĠfÃ ©
ĠszÃ¡m ban
ĠkÃ¶lt sÃ©ge
es sÃ©get
ĠB art
Ġn ed
g ye
se tek
itt hon
Ġtart juk
ĠolcsÃ³ bb
ese i
szÃ³ rÃ³
aszÃ Ńn
Ġutc Ã¡ban
lÃ©s sel
H e
ĠerÅĳ feszÃŃt
ĠszÃ©le sebb
elÃ ¼nk
Ġvegy es
Ã©lkÃ¼l i
Ġs Ã¼l
ĠeredmÃ©ny ei
dÃ¶nt Åĳ
Ġlett em
ĠintÃ©zkedÃ©s eket
ĠbÅ± nÃ¶
Ġelhely ezett
ĠGy akor
Ġhon nan
ĠmegkÃ¶ tÃ©s
Ã¡sÃ ¡Ã©rt
ĠlÃ¡t jÃ¡k
ked vez
ĠtalÃ¡l unk
Ġrajon gÃ³
es fehÃ©r
¡ zÃ¡s
ĠS om
szÃ¡m a
fÃ¡jd alom
ĠkÃ¶zt i
ĠWeb oldal
ĠM ÃŃg
ng er
ĠRÃ ³ber
fontos sÃ¡gÃº
Ġr iz
rat ulÃ¡l
Ġn edves
Ġez ekkel
Szer intem
Ġkonf erencia
id er
uc at
Ġf er
kÃ©n ti
ĠidÅĳ sza
a mely
ĠfÃ©r fit
Ġgenet ikai
Ġtran zak
Ġkis fi
os nak
ĠtÃ¡m ad
fogyaszt Ã¡s
ĠvÃ© delmi
ĠÃ©r ezni
e ljesÃŃt
ĠkÃ©p zÃ©si
ĠkezdÅĳ dÅĳ
e lit
t jÃ¼k
ĠfelkÃ©szÃ ¼lt
Ġb ron
d v
ind ulat
ĠkiegyensÃºly ozott
Ġtervez Ã©s
lÃ©t i
ek ven
Ġeny he
ĠÃ©rvÃ©ny esÃ¼l
Ġ eszÃ
o le
kÃ¡r Ã³l
Ġszer b
dÃ¶ bben
ĠF elÃ
ĠtÃ¡vol i
ĠvÃ¡r nak
Ġszer ezni
Ġnap lÃ³
vÃ© lt
Ġad Ã¡s
z ki
ĠÃ¼gy vÃ©d
Ġami hez
igazgatÃ³ ja
ĠalÃ¡ ÃŃr
emut atÃ³
Ġtablett a
ĠS zÃ³
hat Ã¡s
Ġszemben i
Ġbar lang
Ġmegfig yel
Ġzaj lott
Ġcik ket
Ġtapasztal ata
om on
ĠszÃ¡m ok
oly a
Ã ©kÃ
ĠlÃ ¶v
oz hat
rÃ ¡ban
Ġany u
ĠOrosz orszÃ¡g
lan t
akÃ ¡t
ĠGÃ© za
ĠKult urÃ¡lis
ĠutÃ³ bb
jelent Åĳ
ĠD u
Ġpost ai
zÅĳ i
ĠOrszÃ¡g gyÅ±lÃ©s
ĠF in
ĠSzabÃ¡ly zat
Ġfolyt atÃ¡s
Ġbemut atott
6 4
Ġmegrende lÅĳ
ĠeszkÃ¶zÃ¶k kel
Ġ3 4
rÃ©t eg
Ãģ lt
ĠM ont
S ajnos
ar Ã¡ny
Ġg i
c Ã©g
ĠkÃ©sz let
ĠkÃ¶zÃ ¼lÃ¼k
Ġang yal
Ġelg ondol
Ġpr op
test Ã¼lete
Ġp icit
anyag ot
ĠmÃ©r leg
ĠkirÃ¡ly i
Ġhajl amos
Ġjele net
Ġvill any
Ġbi cik
Ġte xt
Ġv ont
u rt
dÅĳ dÃ¶tt
Ġhav onta
ĠmÃ¶gÃ ©
** **
ran s
ĠmegszÅ± nt
Ġder Ã¼lt
Ġkelet kez
Ġakar unk
Ġfot Ã³k
Ġplat form
ĠMa x
ĠSzÃ¡m os
at Ãº
ud omÃ¡ny
Ġin dex
Ġfelt Å±
ar n
a ikat
ĠsajÃ¡t ossÃ¡g
ĠszakÃ©rt Åĳk
ali zÃ¡l
Ġsze bb
Ġalkot Ã¡s
ĠbÅĳrÃ ¶n
kÃ ¡nak
Ġf Ãº
ĠerÅĳ vel
szÃ ¼lÃ¶tt
¡ jÃ¡n
ĠÃ©pÃ¼let ek
Ġg ab
zt am
on profit
szolgÃ¡l ati
Ġkap itÃ¡ny
Ġn avig
Ġbe vÃ¡sÃ¡r
Ġcsator na
Ġjellem zi
ĠmegtÃ¶rtÃ©n t
Ġfogyaszt Ã¡sa
y Ã¡k
sÃ¡g nak
u mÃ¡t
Ġcsend es
ell a
ĠT ag
iss ziÃ³
ĠlÃ¡m p
¶ b
Ġzs in
ation al
ĠJ an
ĠRÃ ¡diÃ³
ĠleÃŃr Ã¡sa
ĠkÃ©ny e
ĠtÃ¶bb let
Ġmarad ni
Ġfogad ja
l f
ĠirÃ¡ny Ã¡ba
og Ã©n
Ġterhe li
ĠÃ©lÅĳ k
ĠKÃ¶z ben
ĠvasÃº ti
©kÃ©n ek
Ġbizony ult
ĠszakÃ©rt Åĳi
ĠfÅĳszerep lÅĳ
ĠEg Ã©szsÃ©g
ĠA zÃ³ta
sÃ©g esen
Ġmag abizt
ĠjogszabÃ¡ly i
Ġi ge
ĠKe cskemÃ©t
Ġaltern at
¶ dÃ
h atÃ©kony
Ġfelsor olt
Ġalap os
Ġtan tÃ¡rgy
ĠE lÃ©g
ĠÃ©lÃ ©n
ĠdÃŃ jÃ¡t
Ġb Ã©kÃ©s
ĠkialakulÃ¡sÃ ¡nak
ĠfelsÅĳ oktatÃ¡si
ĠkirÃ¡nd ulÃ¡s
Nek em
ĠkezelÃ©s Ã©ben
ĠirÃ¡ny ÃŃt
ĠrÃ©sze kÃ©nt
Ġmon itor
Ġeg Ã©szet
E SZ
esszi on
Ãµ l
Ġ %
Ġmegszer vez
ĠtÅ± nÅĳ
ĠÃŃt Ã©l
ie nt
a a
ĠP art
ch er
ĠKi adÃ³
ĠtevÃ©keny sÃ©gÃ©t
ĠÃ©r zÃ©
ĠellÃ¡t Ã
szÃ ¡t
ĠorszÃ¡g gyÅ±lÃ©si
egy Ã¼tt
Ġah ovÃ¡
ĠT ra
Ġsz itu
ĠÃī v
Ġellen fele
Ġtart almat
ĠhalÃ¡l os
Ġb it
mill iÃ¡rd
ĠTovÃ¡bb Ã
ĠTovÃ¡bbÃ ¡
Ġle nyÅ±
ĠellÃ¡tÃ ³
Ġbar na
ertÃ ³
ĠelÅĳ bbi
Ġgaran cia
ĠL ED
5 3
ĠRÃ³ber t
Ġfel mond
Ã ©h
ce Ã¡n
Ġ enge
ismert ebb
fÃ³l iÃ³
ĠszolgÃ¡lt atÃ³k
Ġox igÃ©n
Ġcs uk
ĠCse h
Ġmeghal t
Ġleg meg
ĠbarÃ¡t i
l am
polgÃ¡r mester
ĠpÃ¼sp Ã¶k
Ġfelh Åĳ
N I
Ġszim bÃ³l
ros oft
Ã¡ll ap
ĠfolytatÃ³ dik
Ġben nÃ¼nk
f esztivÃ¡l
ĠirÃ¡ny elv
Ġfok ozat
ĠszÃ¼ksÃ©g Ã¼nk
Ġcs odÃ¡s
ĠO lv
Ġt ort
atos sÃ¡g
5 1
Ġr ost
ĠkÃ©szÃŃt mÃ©nyek
omÃ ¡ly
ĠM unka
Ġlap top
Ġfogyaszt Ã³k
ĠtÃ© vÃ©
Ġjel zÃ©s
rende lÅĳ
Ġfe dez
Ġismer ik
at ag
lag os
5 4
Ġhat van
ĠtÃ©t e
Ġhossz an
Ġv ÃŃv
Ġopti mal
ĠbekezdÃ©s Ã©ben
Ġtr Ã¼k
zÃ ¶ld
ĠÃģg nes
k and
Ġne vezet
l marad
il atkoz
Ġtart alÃ©k
Ġre form
ĠD em
ĠJoh n
ĠkÃ¶vetkez tetÃ©s
e lmarad
mÃ ©
Ġszer ves
ĠkÃ©sÅĳbbi ekben
¶ bbet
y tics
at lak
cs ont
Ġme nnyit
Ġad att
Ġlabor atÃ³ri
ĠÃ¼ lte
Ġlegh atÃ©kony
ked tek
ĠtelepÃ¼l Ã©sen
Ġv ese
ĠveszÃ ©lye
ĠnyÃºjt Ã
Ġmarad jon
f ajt
Ġs ohasem
Ġve tett
ĠvÃ¡llal t
ĠjÃ¡r ulÃ©k
l is
ĠA ni
Ġat om
Ġ kond
b ab
Ġhang zik
sÃ ¡n
ran g
Ġle jÃ¡t
a w
ĠhÃŃv jÃ¡k
E I
ige n
Ġegy eb
ai bÃ³l
Ġsz okatlan
ĠnyÃºjtÃ ³
ĠkivÃ¡lÃ³ an
\\\\\\\\\\\\\\\\\\\\\\\\\\\\\\\\ \\\\\\\\\\\\\\\\\\\\\\\\\\\\\\\\
Ġfizet ett
Ġkorr ekt
Ġellen zÃ©k
ĠM olnÃ¡r
Ġbe ind
Ġte nge
K eres
d d
Ġfel vet
ĠtÃ¶r eked
Ġ6 00
ĠmegszÃ¼nte tÃ©s
kÃ¶ k
Ġnapi rend
Ġmegt apasztal
ĠkÃ ³k
Ġkap ja
m ul
ĠR ich
e e
y le
Ġmoz i
ĠfejlÅĳdÃ©s i
Ġpillan atok
p s
Ġelle ne
ĠtÃ¡jÃ©kozt atja
ĠterÃ¡p ia
Ġhib Ã¡k
Ġmegold Ã¡sokat
ĠmÃ¡s hol
Ġmeg vilÃ¡g
del mes
Ġhor vÃ¡t
ĠAl kot
ĠfÃ¡r ad
t s
Ġviz es
ĠÃ©r ezte
ikÃ ³
r op
ĠteljesÃŃt mÃ©nyt
Ġhely ezÃ©s
ĠPÃ¡r izs
rende let
Ġreg ionÃ¡lis
ĠrÃ©sze i
ĠmezÅĳ ny
Ġseg Ã©ly
ĠD o
ĠszÃŃn hÃ¡zi
Ġ elmarad
as a
Ġle felÃ©
szolg Ã¡ltatÃ³
Ġokoz nak
ĠkÃ¶vet elÃ©s
af ut
ĠstÃŃl usÃº
Ġbe lt
z zÃ¼k
kor mÃ¡ny
Ġlux us
ĠÃ©tter em
ĠkÃ¼lÃ¶n ben
unk kal
am at
Ġrende lete
âĢ¦ .
ĠrendezvÃ©ny e
ĠvÃ¡ltoz ata
Ġs vÃ©d
b ud
ke tten
Ġtud tuk
T M
Ġtest ben
kÃ ¡m
Ġbele egy
Ġtapasztal t
Ġfi x
ĠV il
Ġad juk
ĠÃ©rte lmi
ĠhÃ¡trÃ¡ny os
Ġhely ben
ĠelÅĳford ulÃ³
Ġszeg edi
ĠjÃ¡r ni
Ġv Ã©sz
Ġere je
Ġgy Ã¡ri
ĠakkumulÃ¡t or
Ġjele k
Ġne hogy
Ġgy akrabban
AGY AR
ĠtalÃ¡lt a
¼ ket
rÃ ¶m
v adÃ¡s
ĠkÃ©szÃ¼lt ek
hes sÃ¼k
Ġgyer eket
ind rÃ³
W eb
ol at
csÃ¶kke n
ĠszÃ¡m olt
he l
SZ F
ĠA mit
7 2
Ġtegy Ã¼k
ĠpÃ¡r kapcsol
i fi
ĠprÃ³bÃ¡l ja
Ġfig u
7 8
ĠÃĸ ssze
ĠT Ã©ny
Ġvize let
Ġing er
Ġf Ã¼r
Ġmond an
Ġked velt
sÃ ¡nak
ott an
ĠJ apÃ¡n
ĠH ab
Ġtenger part
kor lÃ¡t
Ġmeg szÃ¡l
ĠfiÃº k
Ġszelle m
csÃ Ń
Ġ( âĢŀ
ĠigÃ©ny ek
ĠemlÃ©k szem
pont ja
dÃ©ke n
ĠigÃ©ny t
ĠifjÃº sÃ¡gi
ĠirÃ¡ny ÃŃtÃ³
¡ vÃ¡
Ġzs Å±ri
Ã¡sÃ ¡n
jÃ ©ig
F ig
ĠdohÃ¡nyzÃ¡s t
ĠkÃ¶zÃ©p isko
get ikai
ĠKÃ¡l mÃ¡n
hasznÃ¡l at
Ġdokumentum ok
ĠteljesÃŃt eni
sÃ ³t
Ġ199 7
Ġi rt
Ġbelv Ã¡ros
Ġpro c
ĠkÃ¶zel mÃºlt
ke zÃ¼nk
d in
sÃ©g Ã¼k
s ugÃ¡r
Ġhely eken
zÃ º
s zek
g Åĳs
N Ãī
Ġl atin
g o
Ġmob ilt
F A
Ġfiatal abb
Ġfut ball
Ez zel
Ġb ÃŃrt
Ġkedven ce
ker Ã©k
res szÃŃv
ĠhÃ ¡m
att uk
ĠÃºt ra
ĠlegkÃ¶ze lebb
ĠE M
ĠbÅ± nt
ĠH ajd
Ġki mer
kÃ ©vel
? )
kÃ ³t
Ġbizony ÃŃtja
Ġjelent enek
Ġse hol
Åĳ vel
Ãĸ n
ĠTudomÃ¡ny egyetem
Ġev angÃ©l
Ã ¡ig
r ott
ap t
ĠÃģlt alÃ¡ban
ĠHatÃ³ sÃ¡g
Ġide nt
Ġegy Ãºttal
Ġmunkan Ã©lkÃ¼li
Ġde fin
ĠegÃ©szÃ ©ben
Ġar ch
Ġsor on
ĠTeme tÃ©se
ĠpÃ¡p a
forgal mi
ĠKÃ¶zt Ã¡rsasÃ¡g
ĠK ez
ette t
Ġtart ottak
Ġmond at
Ġnyil atkozt
ĠfeltÃ©te l
Ġ, ,
dt Ã¼nk
Ġtan ÃŃtÃ³
Ġuni ver
Ġnevel Ã©s
ĠKÃ ³r
ĠvÃ¡ltozÃ¡s t
og atni
ĠT rump
k olt
Ġszeret ik
ĠT iszt
mÃ ¡m
atlan sÃ¡g
Ġli berÃ¡lis
ĠGy Åĳ
u kÃ¡l
ĠpÃ¡ly Ã¡ra
av id
ĠfunkciÃ³ k
Â «
e lre
Ġs min
ÃŃz is
y elÅĳ
jai ban
het ek
Ġt rÃ³
Ġez ekben
Ġmostan Ã¡ban
ĠV ajon
Ġigen csak
ĠE szter
ĠtÃ¡r olÃ³
ĠpÃ¡lyÃ¡z atot
ĠkezÃ ©ben
Ġvezet Åĳk
Ġmind kettÅĳ
Ġorvos hoz
ic al
v eszi
ĠÃ³rÃ¡t Ã³l
Ã¶r Åĳ
Ġc ucc
Ġvezet Ã©s
Ġmond hat
Ġsport Ã¡g
Ġlo vas
Ġfolyam atot
Ġtart unk
u ly
ik kel
ikÃ ¼k
Ġgyakor olt
Ġcs ill
hasznÃ ¡lÃ¡s
Ġellent mond
ĠJ elent
ÃŃtÃ¡s sal
o lÃ¡
ĠT ar
c in
Ġpiac ra
ie n
E zÃ©rt
lÃ©s re
Ġor vost
iÃ³ s
l oszt
Ġv Ã©rt
Ã¡s akor
M ikor
ĠIs mer
kat eg
dÃ¡ ba
ĠfÃ³k u
lÃ ©rt
Ġmegem lÃŃt
e ch
ĠhozzÃ¡jÃ¡r ulÃ¡sa
³ kat
ĠF ord
alap Ãº
o sÃ³
od Ã¡sa
Ġmunk aidÅĳ
... ]
Ġp olc
dÃ¡sÃ ¡nak
Ġhum or
alÃ ©p
ĠSzeged i
Ġr emekÃ¼l
Ã¡m aszt
Ġle tilt
szerk esztÅĳ
ĠpÃ¡lyÃ¡z atok
v esebb
vÃ¡j ci
or ld
Ġprojek tek
Ġfenn Ã¡ll
¶ ki
Ġszel lÅĳ
ĠkÃ©relm ezÅĳ
me dence
Ġr egener
Ġbi b
N B
ĠB Åĳ
ĠtÃº lÃ©l
Ġg eszt
Ġre formÃ¡tus
Ġezek re
ol ok
r essz
ĠEgy szer
ĠEgy es
ĠnÃ¶vek szik
i dÃ©
Ġbel se
ĠtÃ¶ re
ĠrepÃ¼lÅĳ gÃ©p
it s
r Åĳ
Ġj o
ĠmegelÅĳ zÃ©se
ĠÃºj onnan
t nek
k ben
ip ort
A lap
hetÅĳ leg
re f
vÃ© Ã©rt
ĠÃ©vti ze
Ġre levÃ¡ns
nok i
ĠB ak
Ġrag ad
ĠIn formÃ¡ciÃ³
Ġcs ir
f Ã¡t
Ġtav asszal
ĠÃģllam okban
ri e
ĠkÃ¶rnyezet vÃ©delmi
eg es
ĠÃŃtÃ ©lt
ĠMÃ¡t yÃ¡s
Ġ 01
essÃ©g ek
Ġcsak is
ĠkÃ¶ rt
mo sÃ¡s
Ġegy kor
Ġingyen esen
Ġjobb ra
ĠformÃ ¡k
Ġill ik
Ġkev esebbet
Ġazok ra
Ġdiag nÃ³zis
Ã©ny i
hÃ¡z at
mi ai
Ġzen Ã©t
ĠÃŃzÃ¼let ek
Ġforgal mi
ĠvÃ©dek ezÃ©s
ĠkÃ¼l fÃ¶ld
ter Ã¼lete
Ġvonatk ozÃ¡sÃ¡ban
i zÃ¡ciÃ³
ĠvalÃ³ sÃŃt
Ġterjed Åĳ
ĠtudomÃ¡s ul
Ġben t
Ġsejt ek
Ġhir de
ĠgyÃ³gyszer es
Ġprogram ja
ĠH an
szer int
Ġhar mon
ĠkÃ¶nyv ek
ul ok
ĠNÃ©met h
rÃ º
v ont
kÃ¶ny vet
bi ot
fÃ©rg essÃ©g
R end
ze nek
ik ot
ĠVer seny
esz kÃ¶z
om bÃ
Ġ199 9
ĠelÅĳÃŃr Ã¡sok
felÃ ¼gy
kÃ ¼k
ĠtÃ¶rvÃ©ny ek
ĠfÅĳ bb
ĠÅĳs szel
Ġakar at
ai r
Ġlegend Ã¡s
vÃ¡llal kozÃ¡s
ĠalkalmazÃ¡sÃ ¡val
er em
Ġper cet
Ġp ul
oz d
Ġkr istÃ¡ly
R T
n n
r ikus
Ġke zÃ©t
szÃ¶vet sÃ©g
ami t
Ġmas szÃ¡zs
ĠkÃ ¼lt
Ġegy bÅĳl
³ kÃº
ĠhÃ³nap on
sÃ ©re
ĠN B
ĠFÅĳ vÃ¡rosi
Ġkel lÃ©k
Ġmeg nÃ©
ĠszÃ¶vÅĳ d
ĠlÃ Ń
Ã ³kÃº
ĠÃ¡l m
ĠT om
ĠTud omÃ¡nyos
ĠkÃ¶vet ni
Ġzaj lÃ³
Ġhelyi sÃ©g
Ġle jÃ¡rt
vett em
ĠtÃ¶rtÃ©nete t
Ġter hes
Ġ0 9
Ġhall ani
Ġinn ovatÃŃv
Ġviz uÃ¡lis
ĠlehetÅĳ leg
ĠhelyszÃŃ ne
Ġc omb
ĠÃ©r zed
ĠkÃ¼l detÃ©s
ĠrÃ³z s
od Ã¡l
Ġh obb
ak e
ĠhÃ©t ig
Ġ att
ne y
Ġszeme t
Ġcikk ek
Ġmeg ismÃ©t
Ġ Ãµ
ĠszÃ¼ lett
ĠlÃ©nyeg esen
elÅĳ l
Ġs ert
ug y
6 9
Ġkib ont
rendszer t
i cs
R Ãĵ
Ġautom ati
Â °
ĠP ont
ĠSz il
zÃ¡sÃ ¡t
ĠkorlÃ¡t ozÃ¡s
Ġkorr up
b ÃŃrÃ³sÃ¡g
Ġi lyenek
ĠM Ã©r
ez het
al ni
Ġcsap adÃ©k
ĠGazd asÃ¡gi
ĠlÃ©p Ã©st
od Ã¡st
Ġf on
Ġkamer a
8 3
kit Å±
ĠÃ¶rÃ¶k re
ĠH i
ĠÃºj bÃ³l
ĠÃ©rte sÃ¼l
ap e
ĠmÃ¡s kÃ©nt
ĠÃ¡ltal am
Ġki Ã¡lt
Ġhol land
ĠnÃ© zet
ĠÃ©p Ã¼lÅĳ
U M
szer zÃ©s
ĠL egyen
ĠS zt
ĠkÃ¼z d
Ġtud atosan
Ġter mel
ny ÃŃ
ĠÃ©rzÃ© kel
Ġsz u
lÃ ¡nak
Ġfen nÃ¡llÃ³
Ġrendszer int
Ġszerepe lnek
= =
Ġkom petenc
i an
vÃ ©k
ĠeredmÃ©ny es
sÃ¼ lÅĳ
h assa
Ã¡s uk
Ġhagy ott
ÃŃ rÃ¡
ĠkerÃ¼l jÃ¶n
ĠÃ³ri Ã¡s
ĠH Ã©t
ĠmegÃ©rt eni
ĠÃ©rez zÃ¼k
Ġg ram
ĠÃ©pÃŃt eni
t lenek
e j
ol sÃ³
Ġse nkinek
ĠE lek
g Ã¡z
Ġlabdar ÃºgÃ³
Ġki tart
ĠA lex
ĠmemÃ ³r
ĠtÅĳ zs
Ġde viz
ren det
szÃ³l ag
ĠÃ©rkez tek
Ġjavaslat ot
ĠVeszp rÃ©m
ĠU r
Ġki jav
elt ek
id eg
Ġfogad ta
Ġszem lÃ©
ĠM TA
ĠIgaz gatÃ³
ĠD V
ĠFil m
ĠkezelÃ©s Ã©nek
kÃ³ czi
7 9
Ã¼n kÃ¶n
Ġterm eszt
adÃ ³t
ĠfeszÃ¼lt sÃ©g
ĠhÃ¡t ul
Ġb ruttÃ³
Ġhat Ã¡ra
ĠV a
ĠrÃ ¶
ik nek
Szi asztok
ĠH agy
©v es
Ġkud arc
ĠkÃ©p telen
Ġbet on
ele ttel
szÃ¡m ot
Ġnevel Ã©si
ĠjÃ¡r tam
rae l
ol om
Ġd irekt
ĠÃ©vtized ek
d on
Ġmeg maradt
ĠtechnolÃ³g iÃ¡k
Ġhagy ta
Z AT
kÃ¶ rÃ¶k
ĠRe nde
ĠhÃ³nap ig
ĠhÃ© ttel
ro w
O lyan
³ ceÃ¡n
S zÃ³val
Ġr Ã¡sz
Ãī rt
Ã ³ceÃ¡n
ĠÃ¶nÃ¡llÃ³ an
Ġt eker
Ġle von
ĠF otÃ³
am es
Ġhelyette sÃŃt
ĠtrÃ©n ing
Ġszer ek
Ġepi zÃ³d
sor oz
Ġf ont
ĠÃ©rdeklÅĳdÅĳ k
Ġszeren cse
det ett
ĠtÃºl sÃ¡gosan
Ġ Å±
olÃ¡s sal
Ġterme lÅĳ
Ġ ener
ĠÃ©lÃ ¼nk
ĠelÃ¡l lÃ¡si
Ġ mal
ott uk
ĠjelenlÃ©t e
as zÃ¡t
Ġhiv atkozÃ¡s
Ġmeg ford
ĠjÃ³ k
¡ jÃ³
r ok
Ġter asz
ĠnyÃºjt anak
Ġfelmer Ã¼lÅĳ
Ġ18 0
Ġcsele ke
d f
Ġbemut atni
Ġhaj lÃ©k
Ġc o
Ġcs in
b Åĳr
ye t
Ġfilm ben
Ġrom antikus
ĠlevÃ©l ben
Ġvezet i
Ġfunk cion
Ġnevez ik
ĠidÅĳtart a
Ġparadics om
ut at
Ġbillent yÅ±
Ġs im
beteg sÃ©gek
ĠszÃ¡mÃŃt Ã
Ġszur kolÃ³
ĠK an
ĠAnal ytics
Ġuj j
Ġdolg a
ĠhÃŃv ja
ĠIst ent
ĠszÃ¡mÃŃtÃ ³
Ã©sÃ©t Åĳl
Ġuk rÃ¡n
Ġfel keres
kÃ©pe t
ke leti
Ġre habilit
okr ata
Ġn Åĳt
ĠF arkas
ip s
O TT
ĠinnovÃ ¡ciÃ³
az il
Ġmeg vÃ©
Ġst Ã¡t
kÃ¶lt Ã
szav atossÃ¡gi
ĠszabÃ¡ly ai
vÃ©ny ek
sÃŃt Ã¡s
ĠtÃ¶lt Åĳ
Ġtekintet ben
k ukor
o ba
Ġelv Ã¡laszt
Ġhip ertÃ³
hett Ã©k
Ġgondos kod
Ġhitt em
Ġc ir
ĠÃ¶rÃ¶ mÃ
Ġfejleszt Åĳ
Ġfel f
szÃ¡mÃ ¡t
ozz on
ĠtalÃ¡lt Ã¡k
Ġment es
ĠmegÃŃt Ã©l
Ġaz okkal
H at
ult am
kÃ¶ltÃ ¶
ĠN Y
ĠhÃ¡z ak
e loszt
ĠÃ©rtÃ ©kÃ©t
keze tek
Ġ199 8
ĠrÃ¡ jÃ¶tt
Ġ- -
h ab
Ã¡sÃ ¡nÃ¡l
ĠkÃ©sz pÃ©nz
ĠÃ¼zem anyag
Ġkik er
ĠcsÃ¶kkent eni
ĠfelhasznÃ¡lÃ¡sÃ ¡val
A kkor
A zÃ©rt
ĠÃ©t eleket
get ni
Ã¼l Ã©si
ĠkÃ©mi ai
8 4
ĠS emmi
Ġgy ere
Ġjegy Ã©ben
Ġvizsg Ã¡lt
Ġzse ni
ĠtÃ¡mog atÃ¡sÃ¡val
ĠT Ã¼
Ġnyug at
ĠhÃº zÃ³d
R Ã©sz
M TI
Ġpanasz ok
ÃģS I
Ġst art
¡n s
f unk
Ġkis zab
cs illag
ĠlenyÅ± gÃ¶
N S
ĠhÃŃv ta
Ġnapjaink ban
8 2
Ġ19 56
ĠmunkavÃ©g zÃ©s
Ġadat feldolgozÃ³
Ġc lass
... )
ĠM as
Ġjut nak
indulat Ãº
ĠnÃ©p essÃ©g
s o
biz ottsÃ¡g
ĠKÃ¼lÃ¶n Ã¶sen
º ti
ĠcsÃ¼tÃ¶rt Ã¶k
Ġcsoport os
Ġve hetÅĳ
ĠfeltÃ©tele ket
¡ it
Ġ3 9
ĠjÃ¡tsz anak
ĠkÃŃnÃ¡l at
K K
ĠMic rosoft
Ġfel felÃ©
Ġroh am
Ġismeret e
¡ ink
Ġzuh any
ĠrÃ¶v iden
ĠmÃ©lye bb
ĠÃ¡llt ak
Ãĸ ssz
ĠvizsgÃ¡l atot
Ġkateg Ã³ri
¡ csÃ
Ġnagy ot
Ã¡szt or
ĠkÃ©tsÃ©g be
het em
ĠF eltÃ©t
ĠÃ¡ll unk
Ġszak aszÃ
sp ekt
ozt unk
ĠmegÃ¡llap ÃŃt
Ġs ti
ĠSzÃ Ń
tud om
co in
Ġfest Åĳ
m ama
sÃ¼ tÃ©s
ĠT it
Ġteng eri
ed re
kÃ¶z lekedÃ©s
ĠszÃ¡m olni
ĠR a
Ġmeg alkot
any i
f elÅĳl
ĠÃ¡r ul
Ġmegt enni
Ġsemmi fÃ©le
dÃ ³dik
ad atok
Ã¼lt em
an c
szer vez
ĠÃģll ami
Ġpar aszt
V i
200 7
Ġtech ni
Ġszocial ista
Ġmegy ek
Ġhelyes b
ĠmunkÃ ¡n
Ġbirt okÃ
ĠÅĳs z
ut ak
ĠlakÃ¡s t
Ġhu mÃ¡n
Ġleg ismertebb
ĠO li
K Ã©p
ĠKar Ã¡csony
esebb Ã
esebbÃ ©
as zÃ¡n
ĠtalÃ¡l ja
Ġbi r
ĠkÃ¶zzÃ©t ett
Ġhar d
ĠEd dig
ĠfeltÃ©tele i
ĠtelepÃ¼l Ã©sek
ĠgyÃ¼mÃ¶lcsÃ ¶k
Ġr adi
NÃ© hÃ¡ny
Ġbeteg sÃ©get
ĠmÃ©reg telen
¡ jÃ¡ban
ĠtalÃ¡lhatÃ³ k
ĠelÅĳ z
it al
me tek
ĠBÃ ©cs
KÃ¶ zÃ
Ġeltelt Ã©vel
ut y
Ġfek szik
R eg
ĠmÅ±kÃ¶dÃ©s Ã©nek
l ata
Ġben zin
Ġdem okratikus
Ġh y
ĠÃºgy is
Ġb em
) -
Ġideiglen es
Ġcukor betegsÃ©g
ĠMag as
ĠelvÃ©g ezni
Ġvit or
ko lÃ¡s
Ġbe vÃ©tele
t k
oz om
ĠtÃ¼ kÃ¶r
fÃ¼gg Åĳ
T C
Ġhorg Ã¡sz
Ġvis szak
ezett ek
Ġap ja
v egy
ad alom
Ġ4 2
atÃ ¡k
ĠtÃ¡v olÃŃt
Ġjog orvos
Ġny omÃ
Ġmegtan ul
Ġbiz ott
szÃ ¡k
Ġv inni
Ġny Ãºl
Ġ end
ĠSz iget
ĠmunkavÃ¡llalÃ³ k
ĠvÃ¡laszt otta
tal Ã¡l
ĠegymÃ¡s nak
o met
dÃ¡k at
vÃ ¡k
ĠajÃ¡nl ani
ĠszÃ¼ksÃ©ges ek
ĠkÃ¶zÃ©r dek
ĠszÃ¼l Ã©s
n zi
Ġtranzak ciÃ³
ĠmegÃ©r kez
Ġex port
Ġne vÃ©
nye n
ĠkÃ©r Ã©sÃ©re
Ġtelep ÃŃt
ĠI ng
ĠhÃ¡z ban
Ġp assz
R I
Ġh ova
ĠmegnÃ©z ni
Ġkics er
sÃ ¶n
ĠSzab olcs
ĠEr rÅĳl
it Åĳl
ĠnÃ¡l uk
ĠteljesÃŃt Ã©s
Ġt ucat
Ġre cep
ĠegÃ©szsÃ©g Ã¼gy
Ġ zÃ³
ĠtÃŃpus a
Ġminden re
s iker
er in
hÃº s
Ġcsomag ot
ĠÃ¡r Ã¡t
Ġcsatlak ozÃ³
ĠidÃ µ
ra y
fÃ ¶
it Ã¡st
Ġelh anyag
Ġfolyt atni
ok ol
Ġfest Ã©k
ĠkÃ¶zÃ ©let
Ġfelmer Ã¼lt
ĠvÃ¡l hat
s anak
Ġsok ak
ĠT AN
Ġpoten ci
Ġmel lyel
Ġcikk ben
ĠK al
Te hÃ¡t
Ġkonf erenci
Ġtehet sÃ©ges
ÃģN OS
ĠkezelÃ©s Ã©hez
ĠÃ©r zÃ©se
Ġme lle
ab lett
ĠP Ã¡rt
ĠÃŃrt Ã¡k
Ã¶tt e
utÃ³ bb
ĠA bban
elÃ ©k
ow er
nagy on
ĠtÃ¶rtÃ©n het
ĠnyÃŃ lÃ¡s
ĠM IN
ĠlakossÃ¡g i
Ġpi ci
ĠVÃ¡ros i
¶ lÅĳ
Ã¡t um
ĠMi ch
ĠtÃ© mÃ¡t
ĠvÃ¡d lott
Ġkev eset
Ġtiszt asÃ¡g
Ġszempont ok
ĠI par
Ġgyar ap
atÃ ¡bÃ³l
vÃ¡ny t
ĠH it
ĠutazÃ¡s i
Ġgy Ã¶ngy
ĠvÃ©le mÃ©nyt
ĠkÃ©rdÃ©s ekre
ĠÃĸ nÃ¶k
l fogyaszt
ĠhÃ³nap pal
Ġcsatlak ozott
ĠszÃŃnvonal Ãº
g ondol
ĠvadÃ¡s z
Ġhan y
e lfogyaszt
ĠpÃ ©csi
ĠmÃ³dszer t
Ġsenki t
ĠmegtalÃ¡l ja
uk kan
ĠszÃ¡mÃŃtÃ³gÃ©p es
mi x
Ã¡n d
Ġvicc es
j ekciÃ³
ĠTe chn
gazd ag
S E
ill i
ele mek
CI Ãĵ
ĠszÃ³ lÃŃt
T an
mÃ ¡ba
K I
ĠK Ã¶n
ĠnyugdÃŃj as
Ġsor ra
tlen Ã¼l
Ġelj utt
-------- --------
Ġkikapcs olÃ³d
ĠKÃ¶zpont i
ĠFÃ ¶l
ĠÃ¶r Ã¼lÃ¶k
ĠK up
Ġleveg Åĳt
ĠT w
ĠZ e
ae l
Ġkal ap
Ġfej fÃ¡jÃ¡s
ĠB Ã¡lint
ni Ã¼k
m esszi
Ġmiatt i
ĠmeghatÃ¡r ozÃ¡sa
5 00
Ġkom pr
Ġ mul
ĠmÅ±kÃ¶ dni
r Ã¡lni
ĠÃ©rt Ã¼nk
r atÃ
ĠJÃ¡t Ã©k
Ġmut atni
Ã ¶b
eszkÃ¶zÃ ¶k
ĠszemÃ¼ veg
ĠkÃ¶rÃ ¶m
Ġpill ant
Ġcsomag olÃ¡s
Ã¡sÃ ©rt
fizet Ã©si
Ġteme tÅĳ
ĠtÃ©te l
ĠÃŃg Ã©ret
nÃ¶v eked
ĠUni ver
Ġpont jÃ¡ban
Ġfog od
Ġgondol ni
zÃ¡r Ã
esz es
f ikus
be le
ĠbelÅĳ lÃ¼k
r us
Ã¡lÃ¡s a
Ġs ereg
Ġkeres i
Ġbe vÃ©tel
ÃŃt Ã©k
er me
elle nÅĳr
ed ve
isz em
Ġ elfogyaszt
ĠdiÃ©t a
Ġbejelent ette
Ġind ulÃ¡s
ĠtÃ¡blÃ¡z at
Â »
ĠU tÃ¡n
ĠT Ã¡jÃ©koztatÃ³
ĠB ra
n Ã¡s
H ar
ron cs
ĠS Ã¡r
L Ã¡t
Ġp lÃ©
ĠgyÃ¼le kezet
ĠÃ¶s szer
ĠsÃŃ k
ĠhatÃ¡r ide
Ġban ki
ĠvÃ©g eredmÃ©ny
ond oni
ĠA dÃ³
ni um
sÃ©g Ã©re
Ġvalami vel
l jÃ¼k
sÃ¡g okat
ĠcsÃ¶kkent Ã©se
ĠmegszÅ± nik
yen es
ĠB u
Ġfen nÃ¡l
Ġag rÃ¡r
Ġ #
ĠellenÅĳr zÃ©se
Ġkiter jeszt
ĠvÃ©g tag
e lad
ĠhÃ¡ttÃ©r ben
B C
Ġmeghal adÃ³
pr o
Ġmag Ã¡ba
ĠegÃ©sz sÃ©gi
lÃ ©lek
Ġki vÃ©tel
ĠrÃ©szÃ ©nek
Ġru ha
Ġmozg alom
Ġprogram okat
an cia
ĠA ut
ĠhÃºs vÃ©t
ozÃ ©k
Ã³z sa
tr o
az ar
Ġsz elek
Ġszor osan
ĠUgyan is
ĠformÃ ¡l
ĠpedagÃ³g iai
ĠÃ¼ z
Ġad hat
ĠnÃ©lkÃ¼lÃ¶z hetetlen
kÃ¶ nny
Ġhajn al
ĠSzolg Ã¡lt
ĠÃ³v o
ĠkÃ©pviselÅĳ k
Ġhas men
Ġhelyzet be
ĠidÅĳpont ban
ĠNÃ©met orszÃ¡gban
ĠfÃ©ny es
Ġhogy ha
Ġder Ã©k
vilÃ¡g ot
c ookie
ja kÃ©nt
Ġkiem elte
li ai
ĠT es
Ġvon z
Ġmond unk
ĠkÃ¼z del
Ġbe f
Ġf utt
f eltÃ©t
l rende
ĠP Ã¡ly
Ġhang ot
e lrende
Ġhit elt
ĠI dÃ©n
Ġfu var
lÃ¡n e
mÃ ©ke
Ġleg al
Ġ kukor
7 4
Ġrend ezÃ©s
Ġcent i
Ġszenve dÃ©s
ĠOszt Ã¡ly
u ki
Ġfed Ã©l
l kap
pÃ¡r ti
utÃ ³k
l atos
Ġmeg Ã¡llÃŃt
Ġokoz hatnak
v ere
ĠEgy ed
Ġ199 2
kÃ¶ s
ĠvilÃ¡g Ã¡ban
ik kal
ĠB ab
g yÃ¡r
Ġfant Ã¡z
hetetlen Ã¼l
Ġszeretet e
ĠHoz zÃ¡
ĠvÃŃ zt
kÃ¶ rt
Ġterhe lÃ©s
ed Åĳ
ĠAz ok
ĠÃĵ v
Ġutol jÃ¡ra
Ġp ajzs
ikÃ¡ ja
Ġdarab ot
keres kedelmi
Ġle szÃ¼nk
6 3
szer zÅĳdÃ©s
Ġjav ÃŃtja
u lÃ¡ris
er re
ĠtÅĳ lem
Ġ eld
ĠvÃ¡rak ozÃ¡s
kÃ¶ tÃ¶tt
ES T
ĠmegÃ¡llap ÃŃtott
Ġb Ã©k
ĠstratÃ©g ia
Ġvigy Ã¡z
od va
Ġcs ip
ĠGy Ã¡sz
oly Ã
Ġkialak ulÃ¡sÃ¡t
ĠkategÃ³r iÃ¡
at kozÃ³
Ġle endÅĳ
Ġiga zÃŃt
polit ika
k asz
Ġkoncent rÃ¡ciÃ³
ĠtÃ©t ele
e lkap
lÃ©t e
szak asz
ĠÃ©lÅĳs kÃ¶dÅĳ
Ã¡k on
Ġpont on
Ġolvas hat
ĠDebre ceni
H ol
Ġb ocsÃ
Ġleve lek
ĠhÃ¡tter Ã©ben
ĠS opron
lÃ¡k at
ok s
Ġ0 8
9 4
ĠAdat kezelÃ©si
Ġment Ã¡lis
ĠV ala
w ood
Ġnyel vet
Ġilyes mi
Ġminiszt Ã©rium
ĠÃ¡ltal i
Azt Ã¡n
Ġs alÃ¡t
ĠnÃ© zÅĳk
ĠT im
Ġvagy tok
ĠSzÃ Ńv
ez ek
ĠSz al
ulÃ¡sÃ ¡nak
vÃ ³d
Ġlegy Ã¼nk
Ġ elrende
s ag
Ġmunkanap on
m osz
ĠerÅĳsÃŃt i
Ġfel vÃ©teli
ĠC l
20 21
Ġmeghal adja
Ġmegol dÃ¡sÃ
iz ony
Ġmond hatÃ³
oxid Ã¡ns
200 6
S H
ker ek
Ġpre c
vi dÃ©k
w ork
Ġtest vÃ©re
ost or
ĠhÃ³nap ok
Ġ elit
z es
csap at
Ġhivatkoz va
Ġelter jed
vezet Ã©k
Ġh Ã¡la
ĠhÃ¡lÃ³ zati
KÃ¶szÃ¶n Ã¶m
V agy
ĠmÃ©g pedig
Ġsp Ã³r
ĠcÃ©l kitÅ±
Ġprof it
Ġbot rÃ¡ny
Ġhete nte
ĠfeltÃ©tele it
forg alom
hÃ ¡m
l or
Ġfigye lmÃ
Ġtiszt sÃ©g
ĠEg er
ĠelÅĳre hal
Ġhaz ud
olÃ³ k
Ġelektr on
Ġ8 00
ven es
Ã¡ll apot
ĠIn st
Ġb uz
Ġer dÃ©lyi
ĠvÃ¡r om
ik i
ĠÃ³rÃ ¡val
g ott
Ġpoten ciÃ¡lis
ub or
jÃ¡r at
Ġmagas sÃ¡g
ĠbiztosÃŃt jÃ¡k
8 1
Ġkar d
vÃ©s bÃ©
ĠbaktÃ©rium ok
Ġ messzi
ĠA nnyi
ĠEL TE
l vet
Ġelb ÃŃrÃ¡
ĠvendÃ©g e
Ġkell jen
h ova
Ġille g
Ġbe oszt
d ai
ĠdÃŃj ak
ĠSz ombat
sÃ¡r napi
ĠE ner
ttÃ ©
¡ny i
s ort
ĠrÃ ©
. [
ĠÃ³v atosan
ĠkihÃŃv Ã¡s
Ġmegfog alma
ĠÃ©t elt
ĠtÃ¶rek v
n or
9 3
Ġszinte t
ĠhÃºg y
az t
ĠkÃ©z mÅ±ves
ĠBr Ã¼s
Ġ ikon
Ġhely t
ĠpÃ¡rt ok
ĠInter net
ĠkÃ¶szÃ¶ netet
ĠszÃ¼ksÃ©g ed
ĠK Åĳ
Ġf egye
ĠlÃ¡tog atott
Ġment em
Ġvide Ã³k
ĠmegtalÃ¡l ni
Ġmed it
b ocsÃ¡t
ka hÃ¡rt
ĠszigorÃº an
ĠtÃ¶lt eni
z ve
ĠK b
ĠRÃ¡ kÃ³czi
ĠelÅĳ tÃ©r
ĠkÃ¶vetkez mÃ©nyei
Ġs vÃ¡jci
Ġhelyez kedik
Ġrejt ett
iv Ã¡lt
Ġtart almi
Ġleg egy
jelentÅĳ sebb
ĠgazdÃ¡l kodÃ³
Ġhasz on
Ã¡sok ra
Ġjut ni
ĠTelj es
Ġgondol ok
ch i
hÃ¡z y
Ġhal t
ĠF al
ĠÃ©r zik
Ġkont ine
ĠD om
ron Ã
Ġer Åĳk
Ġszer szÃ¡m
z mus
Ġmodelle k
Ġakkor iban
7 1
ĠvÃ¡g ott
ĠS er
ĠM ot
ĠesÃ ©llyel
re i
Ġszenve dett
Ġipar Ã¡g
ĠkÃ¶ vette
Ġmunkav iszony
ĠTer mÃ©k
c it
Ġhang ja
Ġfor in
Ã¼ kÃ¶n
ĠtÃ¡m aszt
Ãģ K
ĠirÃ¡ny ban
Ġalkalmas ak
ĠhozzÃ¡ ad
Ġsok szÃŃnÅ±
ĠpÃ¡ly afut
sÃ ¡ban
an ce
ĠtÃ©szt a
Ġp of
B EN
Åĳt Åĳl
Ġne ves
ĠA hhoz
kÃ ¡d
Ġf eket
ronÃ ³
Ġ elkap
Ġmu szÃ¡j
Ġok okbÃ³l
ĠÃ©let be
Ġmegf ont
Ġvezet Ã©sÃ©vel
s zag
Ġcsap atot
Ġg omba
Ã¡r ok
Ġelm egy
j jÃ¶n
ĠO R
Ãº rÃ¡k
ĠKol lÃ©g
Ġtud Ã¡st
ĠcsalÃ³ d
Ã ¶ki
ĠSz em
elj esen
ĠÃ¡ll ag
Ġun almas
ĠdÃ ©
ĠszomszÃ©d os
Ġmennyi sÃ©ge
ĠcsalÃ¡d ban
Ġb inÃ¡ris
Ġked vÃ©Ã©rt
ĠF r
Ã¡l juk
mot or
Ġg Ã©n
Ã©r dek
ĠengedÃ©ly ezett
ĠbÅĳv ÃŃt
Ã ¶meg
ĠhiÃ¡ny ossÃ¡g
B A
ĠRÃ ¶v
gÃ ³t
ĠS pe
ĠB ajnok
ĠkÃ©nyelm esen
ĠmotivÃ ¡ciÃ³
ĠminÅĳ sÃ©ge
Ġtur isztikai
Ġkev esen
ĠFoly am
il d
de nt
ĠhasznÃ¡lat Ã¡ra
l ob
Ġelv ise
t atni
ĠszÃŃnÃ©sz nÅĳ
ĠK ev
Ã ©m
s leg
Ġr iport
Ġ4 4
ĠKeres kedelmi
bÃ ¶l
ĠmegbÃŃz ott
Ġre tte
Ġteste t
ĠgyÃ¡rt Ã³k
Ġolva sÃ³k
Ġap a
Ġker ti
Ġle ves
Ġszere tÅĳ
¡ zÃ¡r
ĠM Ã¼
Ġcser Ã
ĠkÃ©ny telen
ĠfelÃ¼lete n
ĠszÃ³ ban
U NK
Ġt ot
Ġfor gÃ³
Ġbe bizony
ĠK amar
ĠtÃ¶r leszt
Ġh ÃŃrt
Ġmarad tak
Ġl ondoni
adÃ¡s ok
lÃ ¡ja
ĠMÃ¡t Ã
Ġszak szervezet
ĠelÅĳre jel
Ġmutat nak
Ġide jÃ©t
ĠKÃ¶szÃ¶n jÃ¼k
EL L
ĠszÃ ¶
ikus ok
Ġrendelt etÃ©s
nyi ra
ĠajÃ¡nl att
ĠkormÃ¡ny fÅĳ
kir Ã¡ly
Ġmacs ka
ĠiP hone
ĠmÃ³dosÃŃt Ã¡sa
ĠSze mÃ©lyes
Ġbe lg
Ġnyom tat
Ġnagy sÃ¡g
F Ã©r
osz k
Ã©rt elm
ĠInt Ã©z
ĠgyÃ³gy ÃŃtÃ³
Ġemel kedik
Ġcser Ã©be
Ġszar vas
Ġmozg Ã¡st
ĠelkÃ¶vet ett
C O
Ġp rÃ©mium
ĠFogy asztÃ³
jÃ¡ vÃ¡
ĠrÃ³l uk
ĠelÅĳadÃ¡s ok
Ġweb shop
Ġmindannyi an
ĠMÃ¡tÃ ©
Ġin ni
Ġszerencs Ã©s
ĠMagyarorszÃ¡g ra
ĠelÃ©r Ã©se
ĠhatÃ¡ly on
Ġtete jÃ©n
ele jt
Ġmin ek
ĠI fjÃº
Ã¡ll ni
jÃ¡r vÃ¡ny
ĠtÃ¡m adÃ³
ĠSim on
Ġly uk
Ã¼lÃ ¼nk
Ġkap hat
ĠE ttÅĳl
ĠZ ala
Ġ elad
li kÃ¡ciÃ³
ĠkÃ¶vetel mÃ©ny
q ue
K ar
ĠgyulladÃ¡s os
ĠEgy Ã©b
Ġanti biot
ĠJ avas
ĠEmber i
ĠÃ¡llÃŃt otta
Ã©r kÃ©p
gÃ¡t lÃ³
kÃ¶ dik
Ġmet rÃ³
kÃ©p zÃ©si
ĠvÃ ¡lÃ¡s
ĠterÃ¡p iÃ¡s
fe lsÅĳ
Ġbank kÃ¡rty
Ġdolgoz unk
ium ban
Ġkiem elten
ĠszolgÃ¡ltatÃ¡s i
o o
ĠL E
lÃ ¡v
ĠUt Ã
Ġh alm
i es
ĠkÃ¶telezett sÃ©ge
esszion Ã¡lis
Ġnem ze
Ġme dence
kere t
Ġev Åĳk
ra eli
ĠtÃ¶lt i
ad Ã¡sÃ¡t
kÃ ©z
Ġem elet
maz ott
i Ã¡lis
Ġs Ãºjt
ĠÃ©v rÅĳl
ĠÃģ SZF
Ġre t
or Ã
ĠUtÃ ³
ĠDÃ¡n iel
ar ok
D SZ
esz em
a x
V alÃ³
ink ron
Ġin st
Ġkor Ã¡n
os ult
ĠS P
Ġki Ã©pÃŃt
ĠkÃ³rok ozÃ³
im n
Ġfel vett
ĠCs oport
uh Ã¡sz
ĠL ak
m is
e tek
B izt
ĠhÃ¡t ha
amer ikai
ĠR END
ĠkommunikÃ ¡l
ĠfeltÃ¼nte tett
Ġim port
ĠÃŃrÃ¡s os
Ã¡zt a
ĠlÃ¡t szÃ³lag
6 1
lÃ ¡lÃ¡s
Ġbet Ã©t
Ġtest sÃºly
ist e
ĠmÃ¡sik at
Ġiz mok
Ġtiszt ÃŃtÃ³
âĢĿ )
Ġkre ativ
Ġmegy Ã¼nk
ĠmunkatÃ¡rs a
ĠE ng
ĠkÃ¼z dÅĳ
Ġjelent het
Ġjele zte
ĠEN SZ
ĠÃ¼ze netet
kÃ¡ jÃ¡t
ĠÃ©pÃŃt Ã©szeti
szer elÃ©s
Ġin zul
ell ness
kÃ©r Åĳ
Ġke n
Ġt ox
ĠI nne
ĠK elet
Ġhelmint Ã¡k
ĠIn n
M Ã©ly
vezet Åĳk
ĠhÃ ¡lÃ¡s
Ġleg jelentÅĳsebb
Ġt h
ĠV ol
i zÃ¡lÃ³
ĠIl di
Ġkeres ett
l Ä±
il ap
d Ã¼lÅĳ
Ġle szel
Ġlap os
Ã¼l Ã©st
Ġfed ezet
sze nny
Ã©szÃ¡r os
ĠAz on
Ġszer ve
ĠOn line
e nzi
ĠZ ene
ĠnÃ© ztem
Ġszer Ã©ny
Ġdes ign
Ġfel venni
Ġvil lÃ¡m
Ġfelt e
ĠelÃ Ńt
ĠMar git
ĠEg Ã©szsÃ©gÃ¼gyi
z ar
Ġszek rÃ©ny
osabb an
as e
Ġkon strukciÃ³
ĠrÃ©g ebbi
Ġoly as
ĠkÃ³k usz
ĠkapcsolÃ³ d
ĠÃ¶n g
ĠtÃ¶bb szÃ
Ġ kart
kl u
rÃ ¡val
ĠhatÃ¡s os
Ġfele lÅĳ
lnÃ¶ ke
ĠlegtÃ ¶bben
ĠkatasztrÃ³ fa
me nni
Ġmeg emlÃ©k
v ÃŃ
Ġne ur
ĠA c
ĠtudÃ³ s
ĠÃ©rt eni
Ġkisgy ermek
Ġmer ed
ĠRe ndÅĳ
ĠkÃ©szÃŃt Ã©se
k raj
Ġkere tek
Ġtud jon
k rÃ³l
ĠH osszÃº
Ġhangul atot
ĠiskolÃ ¡ba
Ġv ÃŃr
Ġrajt uk
n os
ĠI rod
ot ok
Ġjog gal
Ġelfogad ni
ĠtÃ¶rtÃ©ne ti
Ġadat lap
K V
zÅĳ je
Ġtervez Åĳ
9 2
ĠkÃ ¡l
y Ã¡n
ĠjÃ ¶v
ĠRe mÃ©lem
zÃ³ dÃ³
ĠkÃ¶rÃ¼l mÃ©ny
Ġegyszer i
szÃŃnÅ± leg
Ġf oci
ĠrendezvÃ©nye n
ĠG ond
Ġelnevez Ã©sÅ±
t hetÅĳ
nne p
ĠÃĸ t
opp ant
ĠhÃ¡z at
6 2
lle nÅĳr
Ġelle nÃ©ben
I dÅĳ
ĠfelÃ¼gy elet
Ġbal oldali
ĠL ab
ĠÃ¡llapot Ã¡t
ĠmÅ±vÃ©sz i
ĠKer eszt
ĠP ap
Ġodafig yel
hes senek
rt a
Ã³z is
M A
Ġismer jÃ¼k
Ġweboldal t
Ġd all
ĠvÃ¡laszt Ã©k
egy ver
ĠMÅ± szaki
Ġleb ont
j em
zÃ©s Ã©hez
ezet Åĳ
mun kÃ¡s
ti c
ĠgyÅ±jt Åĳ
Ġfolyt atja
Ġkezde tek
zette l
t Å±
ĠkÃ©szÃŃt ette
Ã³r ia
ny og
ĠMÅ±v Ã©szeti
alm atlan
ĠV Ã¡l
Ġin ci
m s
Ġvide o
ĠS eb
Ġve het
Ġjel kÃ©p
Ġsz Åĳr
Ġford ulat
adt Ã©ri
Ġcsatlak ozt
ĠmerevedÃ©s i
Ġfot Ã³s
Ġz ab
Ġ maj
T alÃ¡n
ĠengedÃ©ly ezni
Ã ©vÃ©
ĠK edves
ĠrÃ¡sz or
b on
Ġh ajd
b ox
ElÅĳ szÃ¶r
g yÅĳ
ult a
âĢ¦ âĢ¦
nÃ ¶s
Ġteszt e
ros szabb
ĠelÃ©rhetÅĳ vÃ©
ĠÃ¶t lete
tovÃ¡bb i
Ġment Åĳ
ĠtÃ¼k rÃ
Ġ mani
ĠÃ©vek ig
Ġtekint eni
os on
ĠÃ¼l dÃ¶
z atos
ĠtÃº li
y s
rÃ µl
ĠnÅĳ nek
ĠforrÃ¡s bÃ³l
Ġreag Ã¡l
ĠjegyzÅĳ kÃ¶nyv
rÃ© be
ja in
Ġmegfog almaz
Ġr ok
Ġbe vet
vi tt
Ġz ongor
od tak
Ġki kÃ¶tÅĳ
Ġd is
Ġtud tunk
Ġnyert es
Ġkeres kedelem
ĠgyÅĳzt es
Ġvisszat Ã©rt
um b
Ġtelje sÃ¼l
Ġter vezet
ĠvÃ¡sÃ¡rlÃ³ k
vezetÅĳ je
Ġinteg rÃ¡lt
Ġmegrend ezett
P ar
Ġjog sÃ©rt
Ġkoncert e
Ġez eken
v Ã©sz
ked velt
ĠC om
ĠFor rÃ¡s
I dÃ©n
Ã¼nk nek
zt Ã¼k
zÃ¡rÃ ³
idÅĳ ben
Ġvide Ã³t
e vÃ©keny
Ġegyetem e
ĠM erc
ĠkÃ©rd ezte
ol unk
Ġkezd tek
ĠmÃ³dszer rel
ĠÅĳ szintÃ©n
er ny
am on
Ã¡ll ami
kÃ¶vet e
jÃ ©bÅĳl
ĠK ed
e tÃ©se
Ġterm Ã©szett
ĠrÃ©szlet ek
ÃŃtott ak
ĠÃº szÃ³
ĠszolgÃ¡l ati
Ã ©lye
Ġfogy Ã³kÃº
kut atÃ¡s
ĠEgy ik
ĠvÃ©g ezte
ozÃ¡sÃ ¡hoz
Ġi h
k s
Ãº li
ĠtalÃ¡l s
ĠkÃ¶z vÃ©lemÃ©ny
ĠtalÃ¡ls z
Ġint Ã
Ġki jelÃ
ad va
es sen
Ġmeg ÃŃrt
Ġment ek
Ġ9 5
Ġszerv iz
Ġfran c
Ã¡sok rÃ³l
ĠintÃ ©
e u
Ġmechan izmus
Ġkezdet e
ĠY ou
ĠÃ¼g yel
Ġnyilatkozt a
ĠvÃ©d i
ĠrÃ ¡nc
P Ã©n
Ġmeg Ã¡l
eged Å±
ĠkÃ¶z re
Ġmeg Ã©ri
ette bb
ĠRe formÃ¡tus
cri pt
âĢ¦ )
Ġmeg mÃ©r
ata inak
e a
ĠengedÃ©ly t
zt ak
ĠA f
Ġdi zÃ¡j
ezÃ©s sel
ĠmeghatÃ¡r ozza
izs i
Ġjut ottak
F I
hÃ ³d
ĠkÃ¶rny ezÅĳ
Ġ199 6
¶ kÃ©let
Ġgond olta
atÃ ¡ba
Ġszint re
ag ram
ĠMar i
Ġv ol
Ġjogos ul
ĠJ o
Ġ elre
Ġf Ã¡t
EL Y
ĠszÃ¡rma zÃ¡sÃº
b u
Ġt eszÃ¼nk
ĠtÃ¶rtÃ©n tek
lo w
¡l l
Ġmobilt elefon
ĠmeggyÅĳ zÅĳdÃ©s
ĠÃ¶ssze hang
ĠautÃ³ val
ĠelÅĳny Ã¶s
Ġkaton Ã¡k
ĠszerzÅĳdÃ©s ben
c eg
Ġprogram ban
Ġszint je
okÃ ¡ra
ĠhozzÃ¡jÃ¡r ulÃ¡sÃ¡t
mely ik
ĠberendezÃ©s ek
fen ntart
ĠnÃ© ni
ve nte
Ġmeg jegyzÃ©s
ĠMe ly
kÃ©r dÃ©s
ĠtÃ¶rtÃ©ne tek
Ã ³ban
Ġelhang zott
ĠigÃ©ny es
k usz
Ġjav ÃŃtani
mÃ ¡hoz
Ġmig rÃ¡n
ĠE b
D F
Ġgondol jÃ¡k
Ġfak adÃ³
B AN
Ġind iai
um at
Ġtan kÃ¶nyv
ĠGyur csÃ¡ny
ĠfÃ©l ig
Ġhat odik
Ġiz z
ĠdÃ¶nt Ã©sek
Ġkeres sÃ¼k
ĠkÃ¶zÃ©p sÅĳ
os odott
ĠvÃ©telÃ ¡r
Ġil lÅĳ
Hoz zÃ¡
ĠhÃ¡z hoz
Ġtartal mÃº
ĠfejlÅĳdÃ©s e
ĠszemÃ ¶lcsÃ
ke let
Ġme lyen
ĠtÃ¡r olt
e nÃ©
kÃ¡ bÃ³l
ag g
ĠÃģ l
Ġbajnok sÃ¡g
ĠfertÅĳ zÃ©sek
n egyed
ĠEr dÃ©ly
ĠBal og
Ġuta zÃ³
Ġki ÃŃr
ĠvÃ ¶lgy
© de
Ġfidesz es
hat tam
ĠkÃŃvÃ¼l rÅĳl
ĠO TP
Ġlist Ã
ĠevÅĳk anÃ¡l
ĠbarÃ¡t om
ĠhozzÃ¡tart ozÃ³
Ġlehet Ã¼nk
Ġugyan azon
ĠH U
ĠtÃ¡rg yi
Ġ eloszt
sÃ©g rÅĳl
kÃ³ st
ĠÃ¶ssz essÃ©gÃ©ben
ĠtanÃ¡cs ot
ĠfertÅĳ tlen
ter m
ĠV ÃŃz
Ġkifej ezett
ĠhasznÃ¡l atÃ¡hoz
ĠSp anyol
ĠÃ©pÃŃt Ã©s
Ġf rakciÃ³
ĠszÃ¶vet sÃ©gi
ĠÃ©rkez nek
ON T
ĠK Ã©szÃŃt
Ġtan ÃŃtÃ¡s
testÃ¼let Ã©nek
ĠÃ¶r dÃ¶g
Ã¼lete t
zs i
ĠMÃ©g is
Ġakar juk
hass uk
Ġ5 6
j Ã¼ket
atÃ ¡sÃ¡rÃ³l
mon dÃ³
ĠtÃ¶r lÃ©sÃ©t
vÃ©ny t
ĠT Ã¡mog
ĠvÃ©del mÃ©rÅĳl
es zett
ĠmegÃºj ulÃ³
ĠNÃ© ha
ĠMÅ± ve
Ġha zÃ¡
ĠC har
Ġs of
zÃ ¶n
ĠÃģ kos
Ġs Ã³s
9 1
ĠÃį r
. Â
ams ung
Ġdip lom
ĠÃ©k szer
ĠkÃ¶zÃ ¶l
ĠlÃ©p ni
ad al
V is
Ġellen fÃ©l
e ff
ĠÃ¼zemelt etÃ©s
Ġamely ekkel
ĠIz rael
Ġsz elet
ker ing
Ġtip ikus
ĠleghatÃ©kony abb
vÃ¡r on
Ġgondol atok
Ġpi lÃ³
ĠL Ã©t
ĠismerÅĳ se
Ġ198 9
talan sÃ¡g
ĠlÃ¡t Ã
Ġd kg
ĠpedagÃ³g usok
Ã¼l Ã©se
Ġir rit
Ġkora beli
mÃ©nye inek
rÃ ¡gy
Ġszer da
zat ot
Ġfog alom
Ġa rab
ĠpÃ¡r beszÃ©d
Ġdur va
ok e
ĠkÃ©szÃ¼lÃ ©ket
ĠtÃ© mÃ¡ja
Ġangol ul
ĠÃīr dekes
dÃ©s zeti
olva sÃ¡s
ĠmeggyÅĳ zÅĳ
Ġpont ok
Ġalkalmaz zÃ¡k
T i
kÃ¼l dÃ¶tt
mÃ »
hib Ã¡s
elÃ ©t
ĠnÃ¶vel Ã©se
Ġanti oxidÃ¡ns
ĠM or
ĠmÃ¡g nes
ĠD ob
Ġbe tekint
ĠgÃ³ lt
Ġszob Ã¡ban
ĠC ont
p edagÃ³g
app an
ĠszÃ³l va
olÃ³ dÃ³
ĠB og
ĠA kik
ĠmunkÃ ¡val
Ġdinam ikus
ĠeljÃ¡r Ã¡sban
Ġbejelent Ã©s
ĠbenyÃºjt ott
Ġb ort
ĠL in
Ġh oztÃ¡k
ĠkÃ¶zÃ¶s sÃ©gek
Ġb Ã¡l
ĠgÃ©pe t
ĠRendÅĳ r
lÃ¡sÃ ¡rÃ³l
ve nd
Ġide Ã©rtve
ĠK ing
le nt
rit is
ĠzsÃŃ rt
ĠtÃ©r ben
Ġhat Ã¡rt
ĠbelÃ©p Åĳ
ÃŃt Ã¡sÃ¡nak
Ġobjekt ÃŃv
men ed
ĠhatÃ©kony abb
Ġoldal a
ĠelÃ ¶l
Ġkoord in
Ġpart jÃ¡n
Ġlen nÃ©k
ĠJ er
ĠnÃ© metek
Ġamit Åĳl
ĠprÃ³bÃ¡lt am
ĠkÃ¶zÃ©p kori
Ġmeg adni
lÃ ¶tt
ĠszÃ¼ksÃ©g Ã¼k
ĠszÃ¶v eget
ĠF Ã©l
Ġdem okrÃ¡cia
ĠszÃ¼lÅĳ i
ĠfÃ¼rdÅĳ szob
Ġgy Ãºjt
Ġh oztak
Ġkor e
vÃ¡ny ok
Ãģ SZ
Ġdeb re
Ġal ma
ug Ã¡l
elete t
ĠÃ³r Ã¡ra
Ġlel kÃ©sz
ĠvilÃ¡g hÃŃr
ĠN AV
ĠC an
ĠvÃ¡r atlan
ĠbÃ¡cs i
gazdÃ¡l kodÃ¡si
ai hoz
ÃŃt anak
ess zÅĳ
os odÃ¡s
ĠÃ¶ng y
ĠlegtÃ ¶bbet
ad tak
ĠZ Ã¶ld
ĠI D
Ġbe let
Ġ zÃ¡log
ar is
Ġf as
lue n
Ġkeres nek
hes se
Ãľ LET
me i
Ġs Ã¼lt
Ġalkot ott
Ġdi menziÃ³
lÃ¡t or
osÃŃt ani
I P
ĠMi re
ĠajÃ¡nlat ot
Ġelh ÃŃ
ir detÃ©s
Ġhely esen
ĠR ed
us ban
Ġgondol atai
ĠkultÃº rÃ¡
ĠH ad
ĠAndre a
Ġfogyaszt Ã¡s
ĠMe nnyi
ĠS ajÃ¡t
ĠhÅ± vÃ¶s
Ġbank szÃ¡m
l ani
ĠmeglÃ¡t og
Ġindok ol
Ġme denc
f fe
dÃ©s i
ĠvÃ©g zik
ĠBrÃ¼s szel
O SZ
ĠhasznÃ¡lat Ã¡nak
re am
A A
ĠPolgÃ¡r i
zs a
j i
Ġb Ã¡b
ĠlakÃ¡s ban
ĠalÃ¡bbi ak
ĠjÃ¡rmÅ± vek
ĠW al
Ġb Ã¡zis
ĠHon vÃ©d
Ġaz nap
Ġvi r
ĠelÅĳ zetesen
Ġszitu Ã¡ciÃ³
len d
ĠelsÅĳ re
Ġigaz olt
Ġf Ã³l
hÅĳ mÃ©rsÃ©k
Ġvis eli
Ġmeghir detett
lÃ ¶k
Ã ©len
ĠszÃ¡mÃŃt ani
Ġan imÃ
Ġny ir
ĠkÃ¶ ves
ĠfordÃŃt va
nek e
Ġem elte
esz ik
E lfog
ÃŃv um
E SZT
Ġille szt
ÃŃ tt
f ar
ĠlÃ¡tÃ ³
as an
zÃ¡t ette
ĠmÅ±ve lt
Ġap art
Ġte heti
ĠIr oda
ĠnÃ¶veked Ã©se
ĠbirtokÃ ¡ban
kÃ¶z lÃ©si
ĠvÃŃz be
Ġut ak
ĠH o
l fogy
vi dÃ©ki
Ġter je
ad om
e lfogy
ĠtalÃ¡lkoz ik
ĠJ u
ĠesztÃ©t ikai
Ġ[ ...]
ĠmegvalÃ³sÃŃt Ã¡sa
Ġfr ekven
Ġcs aj
ĠkollÃ©g Ã
ĠkÃ©re lmet
ĠdÃ¶nt eni
ĠtÃ¡rg ya
atok ban
Ġoldal i
Ġfin n
U R
ĠC sÃ
Ġh otel
ĠtanÃ¡cs adÃ¡s
Ġked d
ĠalÃ¡bbi akban
sÃ©g Ã©ben
ĠvÃ©g bÃ©l
Ġnegyed Ã©v
ĠtelepÃ¼l Ã©si
ĠÃºj jÃ¡
ĠigÃ©nybe vÃ©telÃ
Ġtart va
ĠE ndre
at y
ĠlÃ¡t hatjuk
Ġhallg at
Ġnap fÃ©ny
izÃ¡ lÃ¡s
ĠjelentÅĳ sÃ©gÅ±
ĠJe nÅĳ
Ġtize nÃ¶t
n se
ĠPÃ ©csi
Ġer ek
ĠtÃ©szt Ã¡t
ĠvÃ¡r unk
Ġme het
ĠÃī des
O V
va cs
ĠÃ¶rÃ¶k be
ĠfÃ©r je
Ġnevez zÃ¼k
rÃ ©d
ĠFejleszt Ã©si
SZ ÃģG
Ã¡r ia
Ġjav Ã¡ra
ĠmÃ¡s kor
Ġinsp i
azit Ã¡k
Ġelfogad hatÃ³
Ġpinworm s
lÃ³ i
j ti
lÃ¡n k
Ġagg od
sÃ ©ke
zÃ©s Ã©nek
Ġhig iÃ
ĠjogszabÃ¡ly ban
h Ã¡r
Ġfel vilÃ¡g
f Ã¡k
Ġamely bÅĳl
ĠHP V
Ġszob Ã¡k
P Ã¡r
Ġ199 3
Ġmunka helyi
ĠvÃ¡laszt ja
l kÃŃsÃ©r
mÃ ©d
Ġa uszt
ĠÃ¶nmag Ã¡t
jÃ ¶vet
Ġ Ã¶le
e lkÃŃsÃ©r
Ġmeg Ã¡llÃ³
Ġkip rÃ³bÃ¡lt
I C
Ġfoglalkozt atott
l mek
Ġok ot
i Ã¡nak
s ch
tÃ©s i
Ġp osta
kÃ¶r Ã¼l
ma zÃ¡s
Ġn oha
Ġa f
e lvet
ĠhÅĳs ziget
ĠIn dex
Ġjelentkez nek
ott hon
ĠhasznÃ¡lt Ã¡k
Ġ elkÃŃsÃ©r
ĠlÃ ©gy
ĠD is
ĠkÃ¶ hÃ¶g
l se
ĠÃ¼gy Ã©ben
ard ia
ĠRe nge
ĠszÃ³ viv
hett Ã¼nk
ĠÃ©t vÃ¡gy
Ġelv ileg
K apcs
m em
ĠÃŃr ok
am Å±
Ġmosoly og
Ġrendelkez Ã©se
mennyi re
ĠF elsÅĳ
ĠtartÃ³s an
Ġkiny it
ĠerÅĳt eljes
o i
Ġszak orvos
vÃ¡n nyal
inÃ ³
Ġszak szerÅ±
Ġ8 5
Ġmo lek
ĠbeszÃ©l nek
B ar
ĠKut atÃ³
Ġdup la
Ġ6 4
ĠRo bert
jai val
sejt ek
Ġmegt ag
h ul
B Åĳ
Ġbe lÃ¡t
Ġb Ã©ly
ÃģS A
ĠmÃ³dosÃŃt ott
it uÃ¡lis
ĠlÃ ¡
ĠautÃ³ s
ĠlÃ¡t szott
e nnyit
Ġal g
Ġb osszÃº
ĠD or
Ġfel ment
ĠBl ack
ĠszÃ¡mÃŃt anak
s zky
eg Ã©szsÃ©gÃ¼gyi
ĠhosszÃº t
ĠGy ors
Ã¡sÃ ¡bÃ³l
ĠkonkrÃ©t an
ĠtalÃ¡lkozt am
ulajdon os
ĠRenge teg
Ġfolyt atta
ue l
ny Ãº
Ġmagyar sÃ¡g
Ġf it
je it
r in
ĠM us
Ġg rÃ³f
ĠK it
¼gyminiszt Ã©rium
Ã©sek re
j as
Ġkattint Ã¡s
Ġenyh Ã©n
ĠmÃ©g hozzÃ¡
Ġmeg alak
Ġ4 7
ĠD avid
Ġkeres let
ĠbeszÃ ¡llÃŃt
Ġame llett
kÃ ¡lÃ³
MagyarorszÃ¡g on
amar osan
Ġap ost
u dÃ³
ette n
M Å±
Ġbiz onnyal
Ġp ezs
eszt Ã©s
Ġfel hatalma
Ġzen eszer
Ġ elfogy
formÃ ¡lÃ³
r of
Ġhang os
Ġalak ja
Ġkezdet ben
ĠlÃ©tesÃŃt mÃ©ny
Ġkonzerv atÃŃv
olt unk
Ġmu zs
s er
ed ben
v ad
v est
ĠmÅ±kÃ¶dt etÃ©s
cs oda
Ġked vel
ĠelÅĳ ÃŃrÃ¡s
Ġfogy ni
Ġke tten
am ut
Ġforin ttal
Ġ zak
ĠtÃ¶rvÃ©ny i
elle m
Ġjele i
t Ã¡mog
ĠesemÃ©ny eket
Ġtor ony
ĠÅĳ ri
b emutatÃ³
ĠvÃ¡r tam
Ġtenge ly
szÃ³ val
li m
Mi utÃ¡n
v eket
Ġrengeteg e
ĠIldi kÃ³
ĠSz inte
Ġkit Ã¶r
f elt
Ġfordul ni
jÃ ¡ig
Ġpas szÃŃv
ĠkivÃ¡lt Ã
b ÃŃrÃ³
rÃ³ zis
Ġelh Ã¡r
p es
Ġkomb inÃ¡l
ĠSzo ciÃ¡lis
ĠbÅ±ncselek mÃ©ny
kÃŃ nÃ¡l
lÃ©s Ã©re
Ġperc re
erÅĳ sebb
Ġvis zi
magyar Ã¡z
ĠKÃŃ na
Ġfizet endÅĳ
ĠbiztosÃŃt anak
ĠkivÃ¡ltÃ ³
Ġfel kelt
ĠKÃ¶r nyezet
ĠjÃ³ s
zolg Ã¡lat
Ġki eme
ĠbeszÃ©lg ettÃ¼nk
h ur
kÃŃ vÃ¡n
Ġb urg
ĠkÃ¼lÃ¶nb sÃ©get
fejleszt Åĳ
Ġinter aktÃŃv
Ġember ben
Ġhoz zÃ¡k
l je
Ġkezdet Ã©t
Ġhet es
ÃŃ lt
ĠvÃ©r cukor
ĠkategÃ³r iÃ¡ba
ĠszÃ³ beli
ĠÃ¶ssze foglal
rÃ³ t
Ġlel ke
olÃ³ dik
Ġkonzult Ã¡ciÃ³
Ġsp or
l jÃ¶n
biztosÃŃt Ã¡s
ĠsÃ©t a
ĠLeg alÃ¡bb
Ġekkor a
A jÃ¡n
Ãº ly
h ullÃ¡m
ĠU V
ĠM AGYAR
es d
lÃ ¡d
ĠelÃ©r i
ĠR Ã¡k
ĠF Ã©ny
echn ikai
ĠkezelÃ©s Ã©t
Ġpontos abban
ĠBer lin
Ã©p Ã¼let
ĠUS B
onal d
es ik
ĠvÃ¡llal ja
hoz ott
ĠJ Ã¡sz
nk at
al ÃŃciÃ³
Ġszert e
Ġszeret ni
ez red
ker Ã¼let
ĠV ele
cs ep
kÃ ¡z
Ġdebre ceni
net eket
mÃŃ nium
Ġelem zÃ©se
Ġah ova
veszt Ã©s
Ġa mat
ĠgyÅ± lÃ¶
Ġ199 5
Ġame nnyit
ond a
Ġin jekciÃ³
Ġember ekkel
Ãľ L
ĠszÃŃnpad on
Mag as
ĠAl bert
Ġere jÃ©t
Ġrit mus
szen ve
ĠNy ÃŃregy
Ġ os
hass anak
nt Åĳl
Ġkez dtÃ©k
ezÃ©s ek
jÃ ©hez
Ġbe ille
ĠEl adÃ³
ĠhirdetÃ©s ek
ĠkÃ¶zelmÃºlt ban
hegy i
ĠkÃŃsÃ©r Åĳ
Ġ4 6
ĠvÃ¡llal ni
Ġmaguk nak
ĠtalÃ¡lkoz ott
fal u
ĠmÃ¡sik ra
b Ãº
Ġvezet Ã©se
ĠC Ã©g
ĠintÃ©zmÃ©ny i
ĠtÃºl sÃºly
Ġbet Ã¶ltÃ¶tt
on at
ĠkÃ¶r zet
on st
Ġnet e
it i
ĠÃ¡ll hat
idÃ ©z
l iÃ¡ban
Ġh omÃ¡ly
ĠszÃŃn ben
Ġbal ra
ĠirÃ¡ny adÃ³
ĠvÃ¡ltozÃ¡s okat
ĠJ Ã¡r
Ġned v
EurÃ³p a
Van nak
ĠlenyÅ±gÃ¶ zÅĳ
ĠA ll
ĠZs ig
ĠL Ã¡s
h Åĳs
z aj
vÃ µ
Ġismer ked
Ġkapcsol atosan
ĠAD AT
ÃŃ vÃ³
Ġkattint son
ĠT ER
s zki
lÃº ziÃ³
dÃ ¡val
Ġd ek
n del
Ġminden Ã¼tt
Ġr obban
r Ã©sze
ĠvalÃ³s ul
ali zÃ¡
szÃ ©n
Ġfelh alm
Ġkialak ulÃ³
Ġkommun ista
Ġcseleke det
Ġember e
Ġ4 3
Ġki l
KÃ¶szÃ¶n jÃ¼k
ĠÃ¡ll ati
ĠAlkot mÃ¡ny
ron g
ĠHe n
Ġkez di
ĠN at
atkoz ni
? "
ĠvisszatÃ©r Åĳ
Ġgit Ã¡r
ĠgyÃ³gy ulÃ¡s
ĠMind kÃ©t
ĠlÃ¡s d
ĠRend szer
Ġbi o
ĠcsÃŃ p
ezÃ©s Ã©nek
ĠCs er
tor ok
Ġsz tori
ĠtanulmÃ¡ny i
Ġzavar Ã
Ġtiszt es
Ġjelentkez ett
ĠszÃ¡m lÃ¡t
Ġkal ku
ĠSZ AK
ĠB re
Ġjogalap ja
het Ãµ
ĠÃ¼nne pe
Ġhely ek
ĠtÃ©nyleg esen
Ġleg ne
Ġener getikai
Ġko leszt
Ġext rÃ©m
ĠPr of
ĠbecsÃ ¼let
ĠÃ©r zÃ©k
Ġjelent ek
Ġkiegyen lÃŃt
rÃ ¡mÃ
I ste
Ġkomp on
ĠAl kal
Ġnyolc van
f fi
ĠÃ©rzel mek
Ġbe p
ĠtanulÃ¡s i
b ont
ri x
Ġfel szÃ³lÃŃt
Ã¶s sze
bÃ µl
ink nek
ĠFrancia orszÃ¡g
ĠadÃ³ hatÃ³sÃ¡g
ĠvÃ¡ltozt atÃ¡s
ĠhÃ³nap okban
ĠeszkÃ¶zÃ ¶n
azon osÃŃtÃ³
szal ag
Ã©rtÃ©k Å±
nd Ã©r
fertÅĳ zÃ©s
ĠH iÃ¡ba
Ġrendelkez Ã©sei
t Ã¶rtÃ©net
mo de
Ġkur zus
ĠSt ar
ĠÃ¡llÃŃt hatÃ³
Ġtur ista
Ġkult Ãºr
ĠÃ¶sszeg Ã©t
ĠVe ndÃ©g
ĠÃ¡llÃŃt jÃ¡k
ĠO p
Ġpr ob
Ġkifog Ã¡s
Ã ¡csÃ
ĠÃŃr jÃ¡k
ĠtalÃ¡lkoz unk
ob il
ĠsÃ¼l ly
Ġleg rosszabb
ati b
Ġblok k
Ã¡s bÃ³l
ĠÃºt ja
ĠMed ia
Ġn ull
ĠfÃ©ny t
ĠszÃ¡llÃŃt Ã
Ġudvar i
ali zÃ¡lÃ³
Ã©s be
Ġgond osan
er m
Ġent er
ĠA merikai
Ġtit ka
ĠellÃ¡t Ã¡sa
, ,
Ġbank ok
ĠEg Ã©sz
I gaz
ĠI T
Ġh ur
Ġmenet rend
h ovÃ¡
ĠÃ¡llÃ¡s t
dt Ã¼k
hÃ ¡bor
akÃ ¡s
ĠlÃ¡tt Ã¡k
lÃ¡s d
Ġultra hang
Ġpe n
ĠhozzÃ¡fÃ©r Ã©s
ĠszerzÅĳdÃ©s ek
ĠkÃ¶zÃ ºti
Ġmat rac
l rend
ĠadÃ³ t
jÃ¡t s
ĠÃ³v oda
ĠÃ¡t vÃ©tel
nÃ ¡val
Ġhos sza
Ġrad ikÃ¡lis
ossÃ¡g a
ĠhasznÃ¡l om
ĠemlÃ©k eztet
rÃ ¶g
ĠD es
ossÃ¡g ot
zÃ©s Ã©vel
Ġhajl am
Ġ lÅĳtt
ĠeredmÃ©nye it
Ġleg Ã©ny
Ġszal on
ĠGy akran
Ġterm Åĳ
sze nek
ĠhatÃ¡s ok
ĠN onprofit
ĠÃ¶ssz eke
ĠSz lovÃ¡ki
he lÃ©s
ĠM ÃģV
Ġkidolg ozott
Ġmut attÃ¡k
ET T
ĠelkÃ©p esztÅĳ
Åĳ rÃ¶k
Ġszervezete t
ĠÃ©let Ã¼k
zÃ ¡d
¡ h
ezte tni
ÃģL L
l osz
Ġrepr ezent
Ġtet s
as ag
ash ing
ĠIst ennek
A mer
ĠtÃºl zÃ¡s
ĠmÃ©r Åĳ
ezÃ©s Ã©vel
ĠkÃ ¡bÃŃtÃ³
ĠfÃ©lre Ã©rt
ĠbÃ ©csi
he lmint
Ġmindenkor i
Ġre lat
ĠC O
helyett es
rÃ ¡j
ĠÃ©lt ek
ĠmilliÃ³ s
ad dig
ĠkÃ¶zt erÃ¼let
ĠkÃ¡r osÃŃt
ad almi
T R
r Ã¡lis
ud atos
ĠkÃ©r heti
Ġmegbeteged Ã©sek
Ġad d
le get
ĠkÃ¶rnyezete t
Ġ7 2
ĠlÃ¡thatÃ³ an
ĠfunkciÃ³ t
iszt Ã
Ġszob or
Ġem lege
Sok an
lakÃ ¡s
Ġtor na
ĠhÃ ¶lg
ĠkÃ¶t hetÅĳ
d at
ĠSz int
ĠS ar
ĠkÃ¡r tÃ©r
ĠzavarÃ ³
ste in
e tes
Ġszer ezte
ĠmegkÃ¼lÃ¶nbÃ¶ zte
rÃ¡t or
it Ã³l
Ġkoncent rÃ¡l
ĠlakÃ¡s ok
ĠÃīr intett
Ãį R
sÃŃt ja
ĠvÃ¡lasz olt
Ġmi rÅĳl
Ġkollek ciÃ³
Ġoper Ã¡ciÃ³s
ĠB ÃŃrÃ³sÃ¡g
vi ll
ĠmegvalÃ³sÃŃt ani
Ġfel der
Ġke t
moz gÃ¡s
Ġhas i
ĠvizsgÃ ¡lÃ³
Ġterem tett
us son
ĠTart alom
ĠmÃ¡s oknak
Ġlak ott
Ġhang szer
Ġ7 00
ĠlÃ ¡ba
ĠerÅĳ forrÃ¡s
ĠhatÃ¡s kÃ¶
Ġtur izmus
ĠfÃ¡jdalom csillap
ĠhozzÃ¡t ette
ĠbÃ¡r hol
ist Ã
Ã¡sÃ¡t Ã³l
Ã¡zs iai
ĠhallgatÃ³ i
Ġer dei
Ġvissza fog
k ami
Ġbe hat
Ġva sÃ¡rnapi
t v
ĠmÅ± szer
vÃ©t ellel
csÃ ¶k
Ġme nÅĳ
Ġke cs
ĠÃ©r Åĳ
ĠlÃ¡t unk
ĠvÃ©del mÃ
e or
ri ch
s zÅ±r
ĠmeghatÃ¡r ozni
ĠMind egy
u mÃ¡nak
ĠhatÃ¡s ai
Ġak ut
Ġilleg Ã¡lis
ĠkÃ¶szÃ¶n jÃ¼k
us zi
Ġigaz olÃ¡s
Ġprof esszionÃ¡lis
ĠszÃ³ r
e lrend
ĠszÃ¡mÃ ¡nak
ilab da
ĠtanÃ¡r ok
ĠelÃ©rt e
enge dett
ĠtÃ¡mog atni
ĠÃ©lelmiszer ek
ĠNy om
ĠÃºj at
ve hetÅĳ
ĠfelÃ¼gy eleti
ÃŃt ettÃ©k
w ay
Ġpr ov
Sze nt
ĠT Ã©r
ĠC L
rend Å±
Ġrej lik
ĠNe t
ĠkerÃ©k pÃ¡ros
ĠkÃŃvÃ¡n ok
ink a
ĠdrÃ¡m ai
vÃ ¡cs
Ġelhelyez kedÃ©s
akter iÃ¡lis
Ġme sÃ©
ĠtÃ¶rvÃ©ny t
l sÃµ
em nek
kez ni
Ġfeldolg ozÃ¡sa
ak k
t Ã¶rtÃ©n
Ġkezel jÃ¼k
ĠBar Ã¡t
ĠEgy rÃ©szt
N P
ĠM al
Ġkontrol l
Ġbe lÃ©
ĠszÃ©lÃ ©n
ĠkockÃ¡z atÃ¡t
Ġkit Ã©r
V al
n ce
ĠSZ AB
Ġany ja
N T
ĠgyÃ¡rt ott
ĠB ors
ĠlÃ©t eznek
tovÃ¡bbi akban
ĠszÃ³l nak
Ġfok os
ulÃ¡sÃ ¡val
ĠzÃ¡sz lÃ³
Ġfel old
ĠÃ¼lÃ©s Ã©n
ĠEgyetem e
e ur
ĠvÃ¡laszt ottÃ¡k
ĠmÃ©rtÃ ©kÃ©t
Ġhangulat Ãº
ĠnÃ©p szava
ĠD on
iÃ¡ jÃ¡nak
ĠkÃ©z hez
Ġnagy mÃ©rtÃ©k
Ġegyeb ek
ĠtÃ¡mog at
c m
ree n
ĠIs ko
szer zÅĳ
ĠtÅ± n
Ġbel fÃ¶ldi
' s
ĠmegkÃ©r dez
Ġh olt
Ġelem eket
ezte ti
ge nt
in formÃ¡ciÃ³
ĠfÃ©le lmet
m ise
ĠfÅĳ t
ex t
Ġzen Ã©sz
Ġa pr
ĠbekÃ¶vet kezett
Ġelle nÃ¡llÃ³
alÃ ¡sÃ
of f
sÃ©r Ã¼lt
F Åĳ
ĠkÃ¶vetkez mÃ©ny
ĠidÅĳ m
ci p
cz y
ĠszÃ¡l lt
ĠtÃ¡r olja
ĠkÃ©p ezi
Ġmagam nak
ĠmÃ³d jÃ¡t
hete tlenek
ĠtÃ¶bbsÃ©g Ã©ben
Ġduz zan
Ġgomb ot
ĠrÃ©sze sÃ¼lt
ĠrÃ³zs aszÃŃn
ĠhasznÃ¡l atos
ĠszerzÅĳ je
S D
hÃ ©
' '
al ja
Ġpart i
sÃŃt Ã©si
mened zs
andÃ³ s
ĠszÃ¶r nyÅ±
s zom
Ġtit k
ĠfÃ¡jd almak
sÃ ¡val
Ġszed ni
Ġkosz orÃº
akÃ ³
Ġki Ã¼r
ĠB oldog
ro up
Ġiz raeli
Ġelm ul
ĠÃ¶n biz
Ġn ikot
ĠTud om
nevel Ã©si
ĠÃ©des ap
K e
Ġh eg
Ġbal aton
kÃ¶z vet
e lsÃµ
ĠtÃ¡b la
Ġ" ,"
ĠF Ã¼
Ã ³kat
ĠkÃ¶ rÃ¶k
ĠÃ¡tlÃ¡t hatÃ³
Ġ kasz
ĠS Ã¼
ez sÅĳ
Ġne vÃ©n
ĠfÃ¶ld rajzi
ĠszÃ¡n dÃ©
sÃ¡g Ã¡ra
Ġford ÃŃtÃ¡s
ĠmaximÃ¡lis an
l mar
ĠfelÃ¼l vizsgÃ¡l
Ġtisztelet ben
Ġb ak
ĠsegÃŃtsÃ©g Ã©t
ĠjÃ¡r tak
tÃ¡n c
out ube
Ġsziget e
ĠszemÃ©ly zet
Ã©szÃ ©t
ĠVÃ¡sÃ¡r lÃ³
Ã¡p iÃ¡s
op ti
¡ Ã
ĠH asonlÃ³
ĠtÃ¼ rel
Ġalak ulnak
id a
ĠszÃ¡llÃŃtÃ ³
Ġcukor beteg
ĠÃĸ rÃ¶k
elÃ µ
Ġkiv izsgÃ
ĠM od
Ã¼g getlen
Ġbeteg e
x e
iszt Ã¡n
Ġ enzi
Ġs lÃ¡g
Ġle jt
p ed
201 80
ĠÃ©g haj
Ġszerelm es
d vÃ¶z
ĠbarÃ¡t sÃ¡gos
tt eg
ĠvÃ¡r atlanul
ĠÃ©v szak
ĠmezÅĳ gazdasÃ¡g
Ġmo del
ĠmegelÅĳ zÃ©sÃ©re
al mÃ¡nak
ĠkÃ¶zÃ¶tt Ã¼k
Ġkak a
ĠismÃ©t elten
Ġp is
Ġfelir atkozÃ¡s
ĠV it
ĠhÃŃ re
ĠSzÃ¶vet sÃ©ge
Ġinzul in
sÃ©g be
dÃ©s Ã©t
ĠruhÃ ¡k
ĠÃ¡r be
ja vas
ĠS uper
Ġdi ff
ozÃ³d ik
ad on
ĠD Ã
Ġ ennyit
l jÃ¶tt
Ġsz elÃ
ĠszabÃ¡ly ait
szint es
adi on
Ġszere tek
e ljÃ¶tt
Ġvacs ora
sÃ¼l Ã©s
Ġez red
ĠK I
?? ?
tartÃ³ zt
i ek
B al
mÅ± vek
ann on
Ġviszony ok
Ġf iÃ³
Ġmegold Ã¡sa
Ġminden ben
vÃ¡laszt Ã¡s
Ġrag aszkod
Ġleg erÅĳsebb
ĠellÃ¡t Ã¡st
ĠKon f
k alÃ
ĠeltÃ©r Åĳen
kor szÃ¡g
ĠfejlÅĳdÃ©s Ã©t
Ġg Ã¶m
ĠszerzÅĳ k
in f
Ġnyit Ã
Ġkit Ã¼nte
ĠÃ¶nt Ã
Ġtekint i
Ġminde nek
Ġg u
ĠE set
ĠterÃ¼let re
Ġamelyek nek
H ely
iv i
akar Ã©k
ĠP ak
ĠtechnikÃ ¡k
H Ã¡rom
Ġhang zott
vÃ¶ zÃ
ĠtÃ¶rÃ ¶lni
ci o
m Ã©sz
ĠnyitÃ ³
it h
c Ã©lÃº
Ġmotor os
ĠKi csit
Ġapart man
ĠkezÃ ©be
le nebb
ĠcÃ©ge t
ĠtermÃ©szet ben
ĠkÃ©t harmad
Ġteny Ã©szt
E B
ĠkÃ©t fÃ©le
Ġker ese
Ġhal adÃ³
Ġtet szÅĳ
ĠzsÃŃ rÃ©g
Ġ4 1
ï¿½ ï¿½
Ġgaszt ronÃ³
Ġval amikor
ĠGyÃ¡sz olÃ³
hat tÃ¡k
jai ra
Ġrendszer vÃ¡ltÃ¡s
us szal
Ġkonf erenc
Ã¡rs asÃ¡gi
Ġkar akt
ĠnÃ©p e
ĠvilÃ¡g a
mu ni
szÃŃn hÃ¡z
ĠvÃ©lemÃ©ny em
ĠtartÃ³z kod
ĠM K
Ġlab dÃ¡t
Ġmegter vez
S zint
ĠfelhÃŃv Ã¡s
ali zÃ¡lt
¡ juk
TAT Ãĵ
ĠfelÃºj ÃŃtÃ¡s
ĠbiztosÃŃt Ã¡s
s zol
e lmar
and er
ĠmegÃ¡llapod Ã¡st
ĠbÃ©r leti
ĠjÃ¡r unk
m issziÃ³
Ġmegalap ozott
l beszÃ©l
ĠelÅĳsegÃŃt i
ĠSok szor
ĠteljesÃŃt mÃ©nye
ĠÃ¡t mÃ©rÅĳ
ĠrendezvÃ©ny ek
i Ã¡ra
ĠIn kÃ¡bb
an nak
Ġre Ã¡lis
ĠlÃ¡t od
ĠÃ³v atos
e lse
es sÃ¼k
ĠrÃ ºg
gyÃ³gy Ã¡sz
Ġ eljÃ¶tt
ĠkÃ³r hÃ¡zi
Ġhoz atal
zene i
Ġszer vi
vÃ¡ros ban
ĠC e
Ġan yan
ĠC a
Ġoldal akon
lÃ¡l t
Ġbuk kan
ed es
tudom any
Ġigen is
p ontos
Ġf ull
Ġt ul
K er
K OL
ĠÃ¶r eged
ĠGDP R
Ġhord ozÃ³
ĠkÃ ¡n
Ġhol ott
att unk
e lbeszÃ©l
ĠÃ¶v ezet
Z ÅĲ
ĠbÃ ©
ĠÃ©pÃŃt Ã©sz
ĠH y
zÃ³ s
Ġleggy ors
ĠzÃ º
Ġfenntart ja
ĠlÃ ¡d
v at
Ġvis elÅĳ
ige ti
il let
Ġal v
ĠkÃ©p ezÅĳ
Ġn adrÃ¡g
kÃ©p ek
Ġperc cel
% )
Ġelind ul
Ġmegnevez Ã©se
Ġg imnÃ¡zium
Ġsert Ã©s
ĠmÃ ¡ig
Ġfej lÅĳdÅĳ
ĠelkÃ©szÃŃt Ã©se
ĠrÃ©sz re
ĠBM W
ĠvilÃ¡g ra
ĠnÅĳ vÃ©r
ly em
ĠbarÃ¡t sÃ¡g
Ġkam asz
iszt ens
Ġp il
Ġtapasztal attal
ĠK apcs
Ġfut Ã¡s
ĠJ ak
kÃ¶ny ve
Ì Ī
v ilag
ember ek
ĠszÃ ©
Ġind ÃŃtvÃ¡ny
Ġbizony ÃŃtott
ĠalÃ¡t Ã¡maszt
ĠAr rÃ³l
Ġb eme
Ġvi tte
Ġkett Åĳt
ĠtÃ¡mogatÃ¡s ok
ĠhÃº st
Ġbefog adÃ³
Ġmeg szakÃŃt
ĠcÃ©l ba
Ġtehet Ã¼nk
ĠrÃ ©z
Ġl apot
Ġfel kÃ©r
vi de
ad ai
ĠkivÃ¡laszt Ã¡sa
ĠellentÃ©t es
ovi cs
Ġb Ã¡m
lle l
i cion
ĠOr vos
Ġmagatart Ã¡s
Ġesetleg esen
Ġbizony Ã¡ra
unk ba
U T
Ġmind ketten
Ġkom fort
ĠfÅĳvÃ¡ros ban
Ġsz inkron
zÃ¼let i
ĠszÃ¡ll od
Ġper cen
Ġfoglalkoz ott
ĠÃ©rtÃ©k eket
ĠlÃ¡ny a
iÃ ¡ciÃ³
Ġart h
ĠkÃ¶lcsÃ¶n Ã¶s
Ġgondol ata
Ġszint jÃ©n
ĠÃ¶ntÃ ¶
ĠE S
Ġkivit e
ĠMin Ã©l
ĠegyÃ¼tt esen
ĠakÃ¡r csak
ĠmunkÃ¡ ba
ĠterÃ¼let Ã©re
ĠemÃ©szt Åĳ
ma x
b ra
Ġvezet ni
Ġru hÃ¡z
ĠbÃ ¶
ĠszerencsÃ©t len
ĠdÃ¡t um
Ġ5 2
Ġelkez dett
Ġfog adni
Ġ/ &
Ġpolitikus ok
ĠM y
ĠvÃ¡rosÃ ¡ban
Ġnyere mÃ©ny
ĠelkÃ©pzel ni
Ġszav akat
ĠÃºt jÃ¡t
ĠS oha
Ġp lÃ¡ne
ze nt
Ġ kos
kÃ ºt
ĠMich ael
Ġmegszer zett
Ġ elrend
V G
Ġeg Ã©szÃŃt
szer vi
Ã¡r ium
Ġszeg men
ĠszÃ¼le i
sÃ©g bÅĳl
gyÃ³gy Ã¡szati
ked ve
ĠaktÃŃv an
ĠpolgÃ¡r mestere
ĠvÃ©gez tek
ĠsegÃŃt Åĳk
ĠlÃ©p Ã©seket
Ġ elsÃµ
Ġbiz alom
ĠÃ©rdek li
ad o
ĠbÃ©ly eg
oz unk
vo sÃ¡t
ĠkÃ©rdÃ©s em
ĠLond on
Ġsz indrÃ³
Ġveg Ã¡n
Ġcsecsem Åĳ
z d
Ġjog rÃ³l
Ġgyeng Ã©bb
Ġugyan ez
Ġtud na
ĠSz ol
Ãºt on
ĠmegbÃŃ zÃ¡s
ĠÃ¶ssz egy
adÃ³ s
ĠszakaszÃ ¡ban
ĠszÃ¡mÃŃtÃ³gÃ©p e
g atni
cs ab
Ġmind jÃ¡rt
Ġnyom tatott
energ ia
ĠkÃ¶rnyÃ©ke n
Å± e
Ġfi am
ĠtÃ¶ltÃ¶tt e
Ġs ort
Ġ else
Ġ kas
I lyen
¼ nket
ĠkialakÃŃt ani
Ġmeg enged
ĠkormÃ¡ny zat
iste n
Ġgal and
ni uk
ĠvÃ©g leg
Ġmeg ÃŃr
ass an
Ġme ny
Ġkivitele zÃ©s
ĠajÃ¡n lÃ¡s
C D
ĠlÃ©p nek
Ã©s Ã¼k
ĠÃ¶sztÃ¶n dÃŃj
ĠM ester
ĠelÅĳ adÃ¡sa
ĠM oszk
Ġ zi
ĠE R
e lf
Ġtesz em
Ġhor gÃ¡s
Ġdolgoz om
Ġsoroz atot
Ġsp ekt
Ġtart Ã¡ly
Ġbevezet Ã©se
ĠkÃ¶zbeszer zÃ©si
ĠtÃ¡rs ul
og Ã³s
Ġad jon
ĠeszÃ ©be
ĠâĢ ĺ
Ġp og
ĠlÃ¡m pa
ĠelÅĳtÃ©r be
Egy Ã©bkÃ©nt
ĠKat olikus
T L
cÃ ©
Ġvalami fÃ©le
ĠelÃ©rhetÅĳ sÃ©ge
f Ãº
M ÃīNY
h olt
N Ã©z
¡ jÃ¡ra
ajt Ã
ost Ã³l
Ġnap sÃ¼tÃ©s
iÃ³ d
ĠÃ©r ti
Ġt ek
Ã©r zÃ©keny
Ġintellige ns
ĠsÃ¼r gÅĳs
ĠI ga
Ġkialak ulÃ¡sa
l nÃ©
Ġsze nte
Ġkon g
Ġeg z
SZ ER
ĠvÃ©g i
Ġsor sa
ĠOs car
om iss
Ġigaz olja
ĠT ok
ud at
ĠforgatÃ³ kÃ¶nyv
©ke n
ĠÃ©rdeke it
e nde
ossÃ¡g gal
kÃ ©l
ĠszÃ¡mÃ ¡ban
sÃ©g hez
ĠG r
ĠA M
ĠtÃ¶rvÃ©ny es
ĠÃ©rd emi
ĠkÃ¼lÃ¶nb sÃ©gek
ĠPa ul
ĠfelhasznÃ¡lÃ¡s i
Ġ5 4
Ġ199 4
Ġfordul jon
ug or
Ġmini mÃ¡l
ĠtÃ¡mog atÃ¡sÃ¡ra
zt Ã¡k
Ġsh ow
Ġdokument Ã¡ciÃ³
Ġp on
ĠvÃ¡lt Ã
ĠeltÃ¡volÃŃt ani
ĠSzÃ ©kely
ĠSzÃ©k esfehÃ©r
Ġfel p
t eljes
Ġv ÃŃg
sÃ¡g Ã¡ban
par ancs
ĠKap os
emi er
ĠhÃ¡ztart Ã¡si
ĠZ sÃ³
iszt rÃ¡ciÃ³
ĠI nte
L Ãĵ
Ã¡k nak
Ġmegjele nnek
ĠT alÃ¡l
ĠÃ³rÃ ¡ban
ĠD iÃ¡k
ĠvilÃ¡ghÃŃr Å±
Ġfordul hat
ment um
ĠHung ar
szint Å±
ĠEgy szerÅ±en
ĠA mÃŃg
ĠPÃ©n zÃ¼gyi
Ġv Ã©li
ĠszÃ¼let ik
ĠlÃ©treh ozÃ¡sa
ĠelÅĳtt Ã¼nk
ĠÃ©lÅĳ ben
Ġgyakor lÃ³
Ġfolyam ata
ĠkÃ¼l deni
klu zÃŃv
ĠszemÃ©ly t
ĠS amsung
ige tek
Ġkivite l
Ġfelmer Ã¼l
Ġmeg nÃ¶v
Ġp isz
nÃ©z ium
m ikus
Ġpl akÃ¡t
ĠdollÃ¡r t
ĠM ent
ĠdrÃ¡g Ã¡bb
d ben
Ġfekt e
ĠÃ¶t vÃ¶
Ġrit kÃ¡bb
ĠN AT
Ġszava zÃ¡s
Å±e n
vÃ¡llal kozÃ³
ogrÃ¡ fiai
ĠK ert
ĠsÃºly osan
y ermek
ĠFele lÅĳs
ĠvÃ¡ltozt at
Ġleh elet
l otta
Ã©l lyel
ĠG Ã¶rÃ¶g
ĠbÅ± nÃ¶s
ĠnÃ©p ek
Ġmeg rag
hallg atÃ³
Ġre tteg
¶lt e
Ġ elmar
st em
ikÃ ¡n
ĠhatÃ¡ride je
Ġszava zÃ³
Ġjelent ik
ĠhatÃ¡rozott an
Ġverseny zÅĳk
ĠC ity
Ġf o
ĠJa va
g at
c tion
m any
ĠkÃ¶vetkez t
E J
ĠhozzÃ¡fÃ©r Ã©st
Ġmegv Ã¡lasz
Ġideg rendszer
Ġszenny ezÅĳdÃ©s
rÃ¡g a
Ġd Åĳl
iszt e
Ġnyilatkoz atot
ĠrÃ©sz vÃ©teli
vizsgÃ ¡lÃ³
C H
ÃŃtÃ ³t
ei hez
ĠÃ¡ltal Ã¡n
Ġspir ituÃ¡lis
ĠhipertÃ³ nia
Ġbr ut
iÃ ¡hoz
Ġt ob
T a
Ġoldal Ã¡t
ĠA mint
Ġfontos ak
ĠveszÃ©ly t
Ġalu mÃŃnium
ĠEgy re
ĠkedvezmÃ©ny es
Ġcse kÃ©ly
¡ vÃº
ĠOtt hon
ĠmÃ¡r t
Ġsikert elen
ĠszÃŃnpad ra
e ljÃ¶n
vÃ¡lt Ã
Ġfok ozza
ĠmegakadÃ¡ly ozza
ĠkÃ¶tet e
Ġmegkap ta
Ġmegcs inÃ¡l
H ÃŃr
Ġvissz asz
Ġforgalma zÃ³
Ġte lÃŃt
ĠbarÃ¡t ja
Ġenged i
Ġkeze lik
Ġrom a
r iÃ¡ban
egy Ã¼k
b c
fin om
Ġton na
Ġmeg hibÃ¡s
ĠAd dig
Ġtete jÃ©re
EL ÅĲ
ĠmÃ³dosÃŃt Ã¡s
Ġasz fal
ĠvÃ¡ltÃ ³
akÃ ¡r
¡ von
Ġd igit
ĠE lv
ĠR i
Ġford ÃŃtani
szÃ ¶veg
ett er
Ġjele s
Ġszervezet Ã¼nk
Ġtele k
Ġes ed
ĠÃ¶ssze csap
ri um
ĠfÃ©rg eket
alÃ ¡lÃ³
eb ruÃ¡r
Ġ Ã©h
O B
ĠelvÃ©g zÃ©se
Ġte hetÅĳ
ĠkezelÅĳ or
est ek
Ġgy ilkos
omÃ ¡r
ĠjellemzÅĳ i
gyÅ± lÃ©se
Ġamennyi re
ĠidÅĳszak ra
Ġfigyel men
ĠeltÃ¡volÃŃt Ã¡sa
ĠkÃ©pze let
ĠellenÅĳriz ni
x i
ĠzsidÃ³ k
ĠeltÃ©r Ã©s
Ġcsator nÃ¡k
ĠMeg rendelÅĳ
Ġ kami
it as
er dÅĳ
ĠkÃ¶nyv ben
Ġtagja inak
ĠrÃ©sz lete
ĠnehÃ©z sÃ©gek
ĠnyilvÃ¡ntart Ã¡sba
Ã ¡jÃ¡nak
k lÃ³
Ġnyom t
atÃ³ri um
szer vezÅĳ
Ġkeret ein
ĠZsig mond
ĠmegÃ¡llap ÃŃtÃ¡sa
ap Ã
Ã¡l lyal
ĠzsÃŃ ros
ĠlÃ©trehoz ni
ĠM Ã©szÃ¡ros
Ġszok tÃ¡k
M ond
Ġ eljÃ¶n
ny Ã¡l
bbÃ ¡
Ġnete n
Ġhangul atos
r em
rÃ¡d i
z y
b ot
ĠjÃ¡r hat
Ġalap jÃ¡t
ĠBud a
fizet Ã©s
Ġisz ony
Ġmag Ã¡hoz
og ott
Ġigyek szÃ¼nk
u f
o sÃ¡t
Ġpat ak
Ãº rÃ¡t
ki fej
Ġp Ã¶r
Ġaut o
Ġott ani
ĠSom ogy
Ãģ t
K ÃŃ
ĠkÃ³rhÃ¡z ban
ĠM Ã©ly
Ġkaton a
Ġ5 1
Ġmad arak
ĠÃ©le k
r omb
ĠAnd roid
Ġfel le
Ã¡j us
okÃ ©
ĠfÃ©l nek
F oly
ĠM NB
ĠmunkÃ ¡m
ĠrÃ©sz ek
Ġlegegy szerÅ±bb
jÃ¡r Ã¡s
ĠidÃ ©ny
ĠÃľ zlet
ĠAL AP
Ġprod uc
olyÃ ³
Ġs od
ĠkÃ¼l de
Ġgy ilkossÃ¡g
Ġnyilatkoz ott
mad ik
ĠfellÃ©p Åĳ
Ġhet edik
ĠfilozÃ³ f
Ġhib rid
ĠM Ã©dia
ĠprÃ³ ba
Ġki lÃ¡tÃ¡s
um p
egyen lÅĳ
Ġle ÃŃrÃ¡sÃ
j at
ĠtÃ¡r lat
uk nak
ĠD ÃŃj
ĠEmi att
Ġ eli
Ġleb eg
formÃ ¡n
l ker
ĠjÃ³ ga
ĠkÃ¶zremÅ±kÃ¶dÃ©s Ã©vel
ĠI M
di oxid
ze lÅĳ
Ġkis zÃ¡r
200 5
y Ã©n
ĠtudÃ³ sok
ĠD an
jÃ¡n Ã¡l
Ġr izs
T Ã
ĠSzak mai
ĠUtÃ¡n a
ĠzÃ¡r ja
han em
ĠÃ©rtÃ©ke sÃŃtÃ©s
az at
Ġhal ak
szt erg
u lÃ¡k
fr ikai
Ġjog szerÅ±
Ġest Ã©n
ĠCs illag
hÃ ¡k
Ġfog adÃ³
ĠmÃ¡s okat
ĠT Ã¶rÃ¶k
ĠNem csak
Ġkeres ik
ĠhÃŃ jÃ¡n
ĠkÃŃvÃ¡n unk
ub ile
ĠÃ¡ll att
Ã ©de
Ġtelep hely
Ġhelyez ve
ĠT isztelt
ĠW i
Ġgener Ã¡ciÃ³s
Ġki adÃ¡sa
ĠrÃ¡ cs
Ġgaran ciÃ¡t
Ã¶s szeg
ĠkÃ¶zÃ©rdek Å±
t ÃŃpus
Ġh ome
e losz
Ġezek bÅĳl
Ġterm Ã©s
uta zÃ¡s
Ġl omb
h itel
ny omÃ¡sÃ
vÃ¡ltÃ ³
Ġbe nyomÃ¡s
ĠP osta
Ġru hÃ¡
ĠmÃ¡s nak
olÃ¡sÃ ¡nak
ĠjÃ¶n ni
ĠW orld
mÃ ¡cs
Ġcselek mÃ©ny
op Ã¡t
ĠhasznÃ¡lat ra
Ġjog ait
© vÃ©t
ez heti
ĠÃ©b red
ĠP rÃ³bÃ¡l
ĠÃ¶sszeg Å±
elmÃ ©let
Ġkelle m
ĠvalÃ³sÃ¡g os
Ġszervez Ã©sÃ©ben
Ġdall am
.. ...
Ġkelet kezik
z ur
Ġ0 7
ok os
irÃ¡ny Ãº
Ġt uti
Ġ199 1
olÃ¡sÃ ¡val
vÃ ¶lgy
ĠÃ¶sszet evÅĳk
ĠMart in
elte tÅĳ
Ġmen jen
Ġelfogad Ã¡sa
Ġrag aszt
Ġelme sÃ
Ã©s kor
Ġmin im
ajtÃ ³
lÃ³ ra
Ġb og
Ġtan anyag
H or
Ġg ri
Ġment Ã¼nk
Ãģ CIÃĵ
Ġtulajdon Ã¡ban
Ġz ar
Ġrende lÅĳ
ĠbÅĳ vebben
pont ok
Ġinteg rÃ¡ciÃ³
ĠÂ ĸ
ĠfelÃ©p ÃŃtÃ©s
vÃ© di
ĠfÃ©nykÃ©p ezÅĳ
ĠkÃŃn Ã¡lt
este n
Ġn Ã¡t
ĠÃº tt
ĠrÃ º
Ġtan Ã¡ra
ĠU kraj
ĠÃ©rtÃ©ke lÃ©se
l asz
ĠEgyeteme n
Ã¡r ak
ĠE n
ĠB us
ĠletÃ¶lt hetÅĳ
ĠE v
Ġtartalmaz zÃ¡k
nd er
ĠKÃ¶z gyÅ±lÃ©s
Ġfe kÃ¼
atÃ¡sÃ ¡hoz
nÃ©l kÃ¼l
ĠÃ©lÅĳ lÃ©ny
Ġelkez dtem
ĠÃ©pÃ¼lete t
Ġfel hasznÃ¡lt
Ġr omb
fi eld
ĠhosszÃºt Ã
ĠB ur
ink kel
Ġigyek eznek
ĠkÃ¶rny ezett
t Ã¡bor
Ġ 00
Ġhoz nak
Ġkibont ak
Ġtap int
ĠbÃºcsÃº zt
Ġhirde tÅĳ
ĠtÃ©v es
ĠzÃ¡r va
ai mat
Ġr oppant
Ġelfogad ta
g yermek
ĠhozzÃ¡ Ã¡llÃ¡s
ĠSzÃ ¼k
ĠHajd Ãº
ĠfelÃºj ÃŃtott
Ġvagy oni
z Å±
dÃ ©g
ĠÃ©rtÃ©kesÃŃt Ã©si
ĠMiskol c
Ãģ J
ĠvizsgÃ¡l ja
ĠmÅ± vel
Ġpillanat ra
let esen
ĠI ll
Ġv ag
ĠIntÃ©z mÃ©ny
ĠFÅĳ vÃ¡ros
Ġanyag a
Ġakar od
Ġadott sÃ¡g
ĠmÃ³d ot
c us
ĠÅĳr iz
¡d Ã¡r
ĠkellÅĳ e
ĠkellÅĳe n
an di
ĠjÃ¡t szÃ
ĠmÃ©ret ben
ĠfelÃ¼gy elÅĳ
ĠkezelÃ©s ek
ĠnÃ ¡d
G A
ĠmegÃ©r kezett
ĠkÃ ©m
Ġhelyzet Ã©t
Ġi f
b ÃŃz
ĠÃ©r zÃ©st
kÃ©p vis
valÃ³ t
p est
Ġvesz em
Ġnyelv tan
ĠtÃŃz ezer
mÃ ¼nk
Ġ ml
Ã ©vÃ©t
¶kÃ¶ k
Ġkoleszt erin
Ġprod ukÃ¡l
ĠfejlÅĳ dik
w ard
ĠBen ce
ĠelmÃ º
ĠbiztonsÃ¡g ban
ĠvendÃ©g lÃ¡tÃ³
ĠAmer ikÃ¡ban
ĠszÃ©lsÅĳ sÃ©ges
kÃ¡n s
ĠÃ©lÃ ©nk
ĠteljesÃŃt ett
Ġszeret nek
Ġg om
eg er
Ġtart Ã¡sa
e lker
Ġs Ã¡t
rende lÃ©s
Ġjavas oljuk
Ġelh Ãº
Ġalkalmaz andÃ³
ĠkÃŃsÃ©r leti
Ġelv i
Ġszerkezet e
Ġkiind ulÃ³
Ġmeg d
Ġszok tak
ĠkÃ©se delem
ĠVal ami
ĠJ Ãº
ĠkÃ¡ be
ĠtÃ¡jÃ©koztatÃ³ ban
ĠPolgÃ¡r mester
ĠS em
kÃ¼ szÃ¶
dÃ¡ jÃ¡t
ĠvÃ¡ros ok
ĠvalÃ³szÃŃnÅ± sÃ©ggel
gyÅ±jt Åĳ
ĠfelhasznÃ¡l ni
Gy Ã³gy
ir o
er Åĳt
ĠgyÅĳ ri
ĠÃ¼ tÅĳ
ĠvÃ¡laszt hatÃ³
Ġpara mÃ©t
ĠproblÃ© mÃ¡ja
ĠkÃ¼ szÃ¶
ĠbarÃ¡t ok
ĠBudapest re
ĠkiÃ¡llÃŃt ott
Ġkever Ã©k
ĠD ani
Ãī p
ĠmÃ³dszer ekkel
ĠKi vÃ¡lÃ³
l maradt
ĠUtÃ³ bbi
e lmaradt
val lÃ¡s
sÃŃt ve
ĠirÃ¡ny t
Ã©rt ek
Sz ia
ĠkÃ©p regÃ©ny
ĠMÅ±ve lÅĳdÃ©si
Z s
ĠÃ¡t utal
B izony
Ġs ab
r aszt
dÃ ©ben
ĠfÃ³ku szÃ¡l
y os
K A
Ġtemplom ban
ĠtÃ ¡ny
ĠMond juk
ĠB elÃ
ĠeljÃ¡r Ã
kÃ¶ d
hon nan
ot on
Ġgazd a
ĠSzolg Ã¡lat
kÃ¶ szÃ¶nt
OL G
fig u
© det
Ġ elf
ĠK ÃīP
lÃ ¡ciÃ³s
ĠvÃ ©lt
Ġele inte
Ġszor g
Ġnap jÃ¡tÃ³l
ĠvÃ©g Ã©t
ĠfÃ¶ld re
R Ã©g
ĠlegutÃ³ bb
Ġcsok olÃ¡
ĠelkÃ©pze lÃ©se
Ġszig or
Ġelv on
ĠeljÃ¡rÃ ³
ÃŃt jÃ¼k
ĠvÃ©r kering
ment esÃŃt
ĠÃ¼zem mÃ³d
Ġfel lebb
ĠszÃ©k helye
Ġinci dens
Ġ elbeszÃ©l
ĠpÃ¡r izsi
ĠkivÃ©tele s
ĠGazd asÃ¡g
200 4
ĠV Ã¡lasz
Ġhaz at
ĠtÃ¡rgyal Ã¡sok
ozÃ ¡sÃ¡rÃ³l
nyug ati
ĠÃīr dek
ĠgyÃ³gyszer tÃ¡r
Ġember rel
Ġbeteg sÃ©ge
ur i
Ġleg e
Ġkompr omiss
Ġ Ã¡f
Ġszez onban
ĠK aton
Ġill ata
kÃ¶tele s
ĠlÃ¡t ok
ardi asis
funk ciÃ³
Ġne hezÃŃt
ĠtalÃ¡l juk
ĠnÃ¶vel ni
Ġpszich olÃ³gus
Ġbal oldal
at ika
Ġle kÃ¼z
Ġp attan
Ġgram m
ĠBizt os
fil mek
ĠmÃ©rg ezÅĳ
on im
ĠEzÃ ºton
szÃ ¡
ĠJ ack
ĠfÃ©r f
ĠautÃ³ busz
Iste n
lÃ©s Ã©vel
Ã¼ ze
ĠelmÃ ©ly
ossÃ¡g i
Ġadatok kal
foglal Ã¡s
Ġf acebook
Ġzavar ok
Ġfel meleg
ĠÃ¶t letet
ĠÃ¶n rendel
cs arnok
kÃ©pe n
szab Ã¡sÃº
Web oldal
ĠkÃ ºt
ad tam
Ġs pont
ĠmegÃ©r dem
ĠidÃ©z i
Ġnap okon
Ġamely ekben
t enger
Ã©z is
ĠOlasz orszÃ¡g
Ġstr es
Ġarany Ã©r
ĠzÃ¶ld sÃ©gek
ĠP ost
Ġte vÅĳ
ĠcÃ©l unk
kÃ¶lt sÃ©g
Ġ ~
Ġ4 9
ĠB Ã¡n
ĠÃ¡llÃŃt ott
Ġ elmaradt
Ġle szÃ¡l
ĠcÃ©l okra
Ġr os
szÃŃ vÃ³
âĢ¦ âĢĿ
ĠvÃ¡log at
Ġrende llen
ĠN Ã©gy
ĠstÃŃlus ban
ĠSzint Ã©n
r ist
Ġtur istÃ¡k
Ġszol id
Ġkomp lett
munikÃ ¡ciÃ³s
ĠszÃŃv es
ozt uk
as zÃŃt
Ġregiszt rÃ¡l
bb ak
y ors
ĠkÃ¶ltsÃ©g eket
Ġgyakor ol
kÃ¶r nyezet
lÃ© be
Ġszimp atikus
Ġfar ag
ud io
Ġsok oldalÃº
veszÃ©ly es
ĠeljÃ¡r Ã¡si
ĠgyÃ³gyszer eket
ĠFolyam atosan
olÃ³g usok
ĠFe lh
ĠszÃº nyog
Ġsz ett
Ġv Ã¡sz
Ġag r
Ġsorozat ban
ĠÃ¶ssze om
Ġfolyam atokat
p uszt
Ġ9 9
z nek
ĠkÃ¶ ly
Ġfent ebb
Ġrej lÅĳ
ĠtÃ ¡n
ĠhelyszÃŃ ni
Ġok mÃ¡ny
Ġf Ãºj
ĠtisztsÃ©g viselÅĳ
. &
Ġn at
Ġra kÃ©t
S e
i umi
es sÃ©k
Ġsz appan
Ġindul nak
Ń r
ĠprÃ³bÃ¡l kozÃ¡s
Ġinf luen
Ã©p ÃŃtett
Ġg ur
Ã¡rs a
Ġf ol
jekt ÃŃv
ĠidÅĳk ben
ĠprÃ³bÃ¡l jÃ¡k
hat tunk
ĠnyilvÃ¡nvalÃ³ an
lÃ¡sÃ ¡hoz
Ġnyer ni
ĠkockÃ¡z ata
ĠadÃ³dÃ³ an
Ġkegye tlen
ĠÃ¡r at
kozt am
ĠmÃ©r sÃ©k
Ġodafig ye
ĠhajlÃ©k talan
ĠfÃ¼ggvÃ©ny Ã©ben
ĠkockÃ¡z atok
szÃ ¼let
Ġat y
ĠszÃ¡m viteli
ott sÃ¡ga
ĠRÃ¶v id
ĠIfjÃº sÃ¡gi
Ãģlt alÃ¡nos
ĠtÃº lter
v ai
ÃŃtott am
ĠK Ã©k
Ġesz ik
ĠeldÃ¶nt eni
ĠelkerÃ¼l Ã©se
ĠA ty
Ã¼lt ekint
osÃ ¡nak
ĠrÃ ©m
ĠK Ã©szÃ
ĠsÃ¼ tit
vÃ ¶lg
Ġfaj ok
ĠBud ai
ĠMe n
ĠvÃ¡ltoz atlan
ĠL iszt
formÃ ¡l
ford ul
ny ilatkoz
ĠlÃ ©vÃ©n
ĠminÅĳ sÃ©gÃ©t
VÃ©g Ã¼l
ĠKÃ©r dÃ©s
ik ban
ĠÃ©r ni
ĠtÃº lÃ©
Ġfe jÃ©ben
Jelen leg
Ġ elvet
osz or
i he
sÃŃt ik
F og
Ġki tartÃ³
Ġok ir
ĠkÃ©r lek
r s
Ġmeg engedett
ĠvÃ©del mÃ©t
Ġhiv atott
Ġfoglalkozt atÃ¡s
ern ational
ĠlÃ©g it
mÃ¡k at
Ġfinom an
Ġvonat koznak
Ġfunk cionÃ¡lis
ĠcÃ©l zott
Ġmer re
hÃº zÃ³d
b it
ĠT Åĳ
ĠM Ã
Ġt egyen
Ġellen sÃ©g
Ġfelt Ã¡m
ve nti
ĠmÃ©gis csak
Ġg um
ĠmÃ¡s okkal
Ġfigyelembe vÃ©telÃ©vel
Ã¼lÃ ¶p
kapitÃ¡ny sÃ¡g
tr op
ĠelÃ©ge de
ĠjÃ³ zan
Ġfest ett
v id
Ġh adi
ĠÃ¶n Ã©let
ĠszolgÃ¡l atot
3 00
³ kori
Ã ³kori
ĠnyÃ¡l kahÃ¡rt
Ġbar om
Ġmacs kÃ¡k
ĠkÃ©rdÃ©s ben
Ġpszich olÃ³giai
Ġle tartÃ³zt
ĠgyÃ¡rt Ã¡si
p it
k az
Ġcs isz
Ġmani p
lÃ¡sÃ º
u i
kÃ Ńn
K Ã¼l
ĠvÃ©rnyomÃ¡s t
ven c
ĠminÅĳ sÃ©get
ĠÃ¶rÃ¶k kÃ©
ĠKriszt iÃ¡n
ĠzÃ¡r ta
tud omÃ¡ny
Ġlend Ã¼let
vÃ ¶rÃ¶s
Ġmegismer ked
hes sÃ©k
Ġok leve
ĠtÃ¶rek szik
v atart
Ã¼lt e
iss zat
lÃ ¶v
Ġleg kor
Ġprec ÃŃz
ĠrÃ©giÃ³ ban
Ġd zs
Ã¡n dok
Ġcsoport ban
ĠmÃ Ńn
er mÃ©k
ĠvÃ¡l ni
b aj
ĠbÃ©r be
Ġrek on
ĠkÃ©szÃ¼lÃ©k ek
Ġgondol kodni
Ġtart ozott
Ġjav ÃŃtÃ¡s
rÃ¶v idebb
B rit
âĢĿ :
Ġak adt
Ġmagunk nak
Ġnevez tÃ©k
ĠmÃº l
Ġnap rÃ³l
ĠsajtÃ³tÃ¡jÃ©koztatÃ³ n
ĠveszÃ ¼nk
an om
Ã¡st alan
Ġst Ã¡d
ĠBe lg
ĠÃľ zem
Ġamat Åĳr
ĠÃºj szÃ¼lÃ¶tt
Ġfog adott
ĠÃļ t
ĠM I
ĠA utÃ³
Ġmeg dÃ¶bben
k avar
jaink ban
ĠvÃ¡lasz okat
Ġvissza Ã¡llÃŃt
Ġhelyzet Å±
ĠkÃ¶lt sÃ©get
lle nes
ĠszÃ ©kely
m oss
ĠelÃ©r Ã©sÃ©hez
Ġakik kel
nÃ ³t
Ã¶rÃ¶ korszÃ¡g
ĠÃ¶ssz pont
Ġtapasztal hatÃ³
f iz
Ġmi ben
........ ........
ĠkÃ¶vet ik
og ni
ĠzsÃŃr sav
ĠvalÃ³sÃ¡g ban
ly wood
Ġtart ozÃ©k
Ġolvas mÃ¡ny
kalÃ ¡cs
.Â §
Ġszab adtÃ©ri
ĠÃ³rÃ¡k ban
Ġdom ain
Ġalud ni
ĠM il
ĠalkalmazÃ¡s ok
l ov
Ġadatok hoz
Ġaut onÃ³
ĠKÃ ©z
art h
Ġmenedzs ment
ĠcsalÃ¡d ot
es szÃ¼k
ĠV Ã¡laszt
fi atal
ĠmÃ©r Ã©s
Ġinf o
ĠvÃ¡lasz olni
ĠIl letve
ko ckÃ
kÃ©r d
Ġw ork
ĠÃ¶lt Ã¶z
ĠkÃ©r Ã©s
Ġfoglalkoz nak
csoport ok
ĠcsÃ ³k
ĠmÃ©r sÃ©ke
Ġbizony ÃŃtvÃ¡ny
ĠjÃ¡tÃ©k ban
ĠtartÃ³z kodÃ¡si
ver ziÃ³
t n
nÃ µ
T art
ĠszÃŃn p
B ER
ĠvÃ¡lt ott
ĠszakÃ ¡cs
ĠBe ned
pr ess
Ġmegt Ã¡m
kÃ©szÃ ¼lÃ
Ġmagad nak
ĠkorlÃ¡t lan
ni ai
Ġ Ã³kori
ĠpÃ¡r atlan
Ġcs ig
ĠdÃ©lutÃ¡n i
Ã¡l hatÃ³
ĠtanulmÃ¡ny ok
Ġvet Ã©l
ĠelvÃ©g zett
ĠVis sza
Ġamely hez
Ã ¡zÃ¡s
Ġc i
esebb ek
csÃ ¡r
e nÃ¼nk
Ġ1 10
ĠjÃ³tÃ¡l lÃ¡si
ĠhÃ¡r mas
Ġbiz almas
ĠadÃ³s sÃ¡g
ĠnÃ©gyzet mÃ©ter
ĠB od
ik umok
Ġforint Ã©rt
ĠT at
av art
ĠP edagÃ³g
ekint ve
ĠopciÃ³ k
ĠhatÃ©kony sÃ¡g
Ġhoz am
Ġh ovÃ¡
Ġs kÃ¡
Ġcuk rot
Ġhely telen
¶ ne
r ika
sÃŃt ette
ĠszabÃ¡ly airÃ³l
iz om
S egÃŃt
Ġfut ott
ĠmÃ³dosÃŃt Ã¡sÃ¡rÃ³l
ne ti
ipt omi
Ġelmul aszt
ĠszokÃ¡s ok
ĠMag a
Ġdiv atos
Ġkert ben
Ġfolyt atÃ¡sa
ĠB IZ
Ġmegt esz
szemÃ©ly es
ĠÃ¡t gond
kan Ã¡l
sÃ ¡l
Ġpajzs mirigy
c es
ĠbiztonsÃ¡g ot
kÃ©sz let
ĠKriszt ina
Ġanyag bÃ³l
ĠInne n
ĠfÃ©rfiak nÃ¡l
Ġmegfog almazott
Ġkor Ãº
elÃ©s i
ĠvÃ¡r ta
adÃ¡s sal
ĠszemÃ©ly nek
Ġ19 45
ÃŃt Ã©sre
ĠszÃ ¶k
ol s
pont ot
Ġsz ank
zÃ¡l is
B I
kÃ¡ zt
ut Ã©n
om or
Ġper i
Ġmely re
ĠS zen
ĠnÅĳ ket
ĠhÃ©tvÃ©g i
ĠF Ã³r
e lal
Ġter vet
ig i
ĠR ad
Mind ig
ĠFacebook on
ĠfelsÅĳ oktatÃ¡s
Ġigaz olÃ³
ĠC lub
ly Ã
¶kke nt
u cs
ĠÃī j
Ġrejt Åĳ
ĠhivatÃ¡s os
od i
ĠszÃ ©d
ĠezelÅĳtt i
ĠmunkÃ¡l atok
F T
Or bÃ¡n
ĠhÃ¡borÃº s
ĠH egy
ĠszÃŃv em
m ont
nevel Ã©s
Ġmennyi sÃ©get
jÃ©t ek
Ġnemzeti sÃ©gi
ik k
Ġfizet Åĳ
ĠÃ¡r ut
Ġinten zit
ĠÃ¡ll jon
Ġw ellness
Ġmeg nÃ¶
Ġrendelet ben
sÃ©g Ã©rÅĳl
ĠHÃ¡z i
Ġki vÃ¡g
p g
vÃ ¡ban
ttÃ ¡
Ġmi elÅĳ
ĠÅ±r lap
ĠalÃ¡ ÃŃrt
vÃ¡n csi
ĠkiegÃ©szÃŃt Åĳk
ĠszemÃ¶lcsÃ ¶k
Ġfenntart Ã¡sa
ĠkÃ¡p oszt
zt Ã¼nk
ĠcÃ©l jÃ¡ra
200 3
vÃ¡sÃ¡r lÃ¡s
hagy Ã
Ġan alÃ³g
Ġrajt am
T he
ĠmÃ©ter re
Ġelfoglal t
Ġve vÅĳk
ĠOkt atÃ¡si
ĠÃ¡t lÃ©p
¶ vÃ©ny
ĠÃºjra haszn
ÃģR OS
rÃ ºg
ĠbeÃ¡llÃŃt Ã¡s
Ġrendszer rel
Ġnikot in
ĠmÅ±v Ã©szek
kÃ¼lÃ¶n b
ĠigÃ©ny Ã©t
2 000
ĠMagyarorszÃ¡g ot
Ġnap elem
ĠelÅĳny ben
Ġtisztes sÃ©ges
Ġt edd
ĠtÃ¶bbszÃ ¶rÃ¶s
ĠtÃ¡vol abb
Ġkeres se
ĠmemÃ³r ia
ĠvÃ©g ett
ĠP in
Ġtiszt essÃ©g
Ġeg Ã©r
ĠMagyarorszÃ¡g i
Ġmarad vÃ¡ny
e pe
ĠtÅ±zolt Ã
ĠM Ã³d
ĠI d
Ġfut Ã¡r
Ġf esz
rÃ© bb
ĠformÃ¡ jÃ¡t
ĠvezÃ©r lÅĳ
cskemÃ©t i
ĠrÃ©szlet eket
i bÅĳl
ed t
ja im
ĠjÃ¡t szÃ³t
Ġ mÃ©sz
dÃ ¶m
atÃ¡sÃ º
ĠlÃ ¶k
Ġjelle ge
ĠmegÅĳr zÃ©se
ĠÃ¡llamtit kÃ¡ra
ĠfÅ± tÅĳ
H O
Ġmeg elÃ©g
ĠJ ames
S C
ĠidÅĳpont ot
Ġs Ã©re
Ã©r zet
Ġjogosult ak
Ġt eg
Ã¡l d
ĠbiztosÃŃt va
Ġcs illap
Is mer
ĠR ep
h az
ez vÃ©ny
Ġigazol vÃ¡ny
Ġegy sÃ©gek
Ġkelet kezÅĳ
Ġp esti
ĠÃ©vtized es
Ġ Ã¶b
Ġigaz a
ĠBizt onsÃ¡g
Ġjogosul atlan
Ġr ob
ĠhÃ¡z a
Ġan no
ĠBizony os
egy sÃ©g
Ġpan aszt
ĠhasznÃ¡lt am
Ġautom ata
ĠkÃ©pvis eli
Ġpal ack
Ġpszich iÃ¡t
ĠcÃ©l zÃ³
Ġf okÃº
c d
Ġbemut atja
ĠgÅĳ z
ĠfunkciÃ³ kat
Ġkijelent ette
ol jon
hat tuk
ĠFÅĳ leg
Ġlegne heze
Ġkal cium
Ġvastag bÃ©l
ol csÃ³
ozÃ¡sÃ º
Ġszembe sÃ¼l
Ã¡llÃŃt Ã¡sok
Ãį V
ĠA P
Ġker eset
Ġprop ag
Ġgyermekek nÃ©l
Ġkap jon
Ġkapac itÃ¡s
ĠDV D
Ġme tal
minÅĳ sÃ©g
... "
Er re
ĠBib lia
ĠcÃ©g es
ĠGyÃ³gy szer
Ġ19 80
Ġember re
Ġpuszt a
valÃ³ kat
Ġmegtart ott
Ġajt Ã³t
Ġkiszolg Ã¡lt
ĠszÃ¶veg es
is h
e lnÃ©
Ġpr ost
rÃ ¡nak
Ġleg yek
ĠvÃ¡sÃ¡r lÃ¡si
ĠE lmond
Ġmed dig
ĠeredmÃ©ny ezi
Ġhal vÃ¡ny
lÅĳ dik
ye ng
he llyel
ĠsÃ©rÃ¼l Ã©sek
Z ET
ĠtÃ¡jÃ©kozt atÃ¡sa
Ġ keszt
ig o
ĠtÃºl ny
Ġmennyi sÃ©gÃ©t
an izmus
ĠKÃ³r hÃ¡z
Ãº ti
ĠH R
ĠkockÃ¡z ati
ĠelkÃ©pzel hetÅĳ
ĠsÃºly osabb
Ġfelt Å±nÅĳ
ĠR em
Ġkeser Å±
uk le
ĠS w
an od
ĠtÅ±zoltÃ ³
ĠdÃ ¶bben
Ġhar mÃ³ni
Ġme ta
N A
ĠP lay
oz o
ĠtÃ¡jÃ©kozt atni
t Ã¼k
Ã©r zÃ©s
ÃŃt Ã¡sÃ¡val
ĠÃ¼gy Ã©sz
Ġ ]
hagyÃ ³
Ġmag Ã¡rÃ³l
Ġanyag cser
Ġbe vezetÅĳ
gÃ ³s
ny ak
Ġ eff
ĠlÃ¡t nak
ĠmunkÃ¡ juk
ĠigÃ©nye it
Ġj utÃ³
Ġmill i
ĠgyÃ¶ kÃ©r
³l ag
ĠkÃ©szÃŃt ettem
ĠmÃ ©re
iv er
Ġmag zat
ĠutÃ¡n pÃ³tlÃ¡s
ĠðŁ ĺ
Ġbenn ed
ĠszÃ¡zalÃ©k ot
ĠkÃ¶r Ã¼ltekint
ORM ÃģNY
ĠtalÃ¡lkoz hatunk
Ġkis zer
uk on
Ġka zÃ¡n
Ġanyag csere
Ġreg g
g yors
D A
ĠfÃ¶l det
Ġelre jt
Ġszop tatÃ¡s
ĠÃ¼gyfÃ©l szolgÃ¡l
ol o
C Ã©g
as y
osz lop
ĠS oros
le bbi
Ġs Ã³t
IN T
Ġ15 00
ĠW C
feldolg ozÃ¡s
ĠajÃ¡nl atok
ĠÃ©b re
Ġtizen kÃ©t
ĠÂ °
Ġsos e
ĠkÃ¶telezett sÃ©gek
Ġarc Ã¡t
Ã¶t vÃ¶s
ĠKor Ã¡bban
Ġat ya
ĠszabÃ¡ly ozott
Ġ elker
Ġweb es
ĠmÃ¡s ra
ĠÃ¡llapot ot
Ġkine vez
ĠbiztosÃŃt unk
Ġleg rÃ©g
p rÃ³
NÃ© met
ĠszolgÃ¡l nak
ĠintÃ©zmÃ©ny ben
Ġpr ezent
Ġ elosz
ĠB ot
tt i
ok k
ĠegyÃ¼ttmÅ±kÃ¶dÃ©s i
rendszer e
ĠkÃ¶t ni
ossÃ¡g Ã¡t
Ġnap kÃ¶zben
ĠajÃ¡ndÃ©k ot
Ġ Ã³ceÃ¡n
ĠÃ¶sszeke ver
ĠkÃ¶lt Ã©szet
h ull
Ġhal lat
ĠÃ©rtesÃŃt Ã©st
Ì ĭ
Ġmegny er
Sze mÃ©lyes
Ġi vÃ
Ġr on
Ġtartalom mal
Ã¼lt etÃ©s
ĠLe l
ĠMi elÅĳtt
t Ã¶lt
Eg ye
ĠsÃºly a
iga zÃŃt
ĠfolyÃ³ ir
Ġfelb ukkan
Ġparancs nok
Ġru hÃ¡t
ĠH ort
ĠvÃ¡ltozÃ¡s a
ĠidÅĳpont jÃ¡t
Ġki vet
elÃ©s t
sÃ ¡v
ĠT Ã¡rgy
Ġsz tor
Ġhetek ben
ĠhozzÃ¡fÃ©r hetÅĳ
Ġmi tÅĳl
k aj
Ã¡lt al
ĠHol land
ĠszÅĳ nyeg
Ġemail ben
ĠvÃ¡r andÃ³s
kÃ¡n i
Ġale lnÃ¶ke
ch t
lva sÃ³
ĠlehetÅĳsÃ©g gel
m ap
Ġ ort
ĠelkÃŃsÃ©r ik
ok i
RÃ ¡
ĠadÃ³ zÃ³
ĠkÃ¶zvet ÃŃtÅĳ
Ġtelep ÃŃtÃ©s
Ġmag nÃ©zium
alÃ³g us
Ġle k
eszt ett
Ġb egy
ĠÃ¡r uk
Ġjog osÃŃt
ĠÃ©l mÃ©nyek
H al
ĠJ Ãĵ
Ġvissza utasÃŃt
Ġl aza
ll i
oz atos
ne vet
Ġmeg i
Ġmegjelent ek
vis s
Ġp oli
Ġa dÃ³d
ĠSzer zÅĳ
Ġvalami Ã©rt
Ġbefej ezÅĳ
Ġkezde nek
ĠtermÃ©ke ny
ĠlÃ¡tt uk
usÃ ¡nak
ĠesÃ©ly t
Ġf eszÃŃt
s zur
ata lem
o lÃº
mÃ©r nÃ¶k
ĠÃ©vtize de
ĠdÃ¼ hÃ
ĠÃį me
m eket
ĠB ay
Ġelv eszett
ĠW ar
Ġolaj at
ĠhasznÃ¡l hatja
ĠvÃ¡laszt Ã¡sa
Ã©z ni
ĠtalÃ¡l nak
H Ã©t
ÃŃt suk
pÃ©n zt
ĠL ap
ĠÃ©pÃ¼let ben
ug g
Ġcsoport ba
ĠfolyÃ³ irat
atÃ¡sÃ ¡ban
ĠbiztosÃŃt Ã©k
Ġcivil izÃ¡ciÃ³
ĠkÃ©p ez
Ġd ia
Ġnemze dÃ©k
Ġad hatÃ³
ĠK ur
Ġmeg Ã¡llt
Ġkrit Ã©rium
Ġfe dett
ĠminÅĳ sÃ©gben
Ġc ic
Ġingatlan ok
Ġstatiszt ikÃ¡k
erg Åĳ
Ã¡k ban
ĠSzÃ ¼
Ġmec cset
j an
ĠL MP
ke bb
Ġ elal
pÃ¡ly Ã¡n
D I
de le
ĠmesÃ ©lt
ikÃ ¡val
Ġkin Ã©zet
ĠÃ¶sszegyÅ±jt Ã¶tt
ĠkÃ©pzel ni
vÃ¡ny os
ĠlÃ¡b ak
kol ni
Ġun o
ĠtÃ¡mog atta
om as
Ġcs em
ĠmegÃºj ult
Ġgyerek ekkel
ĠÃ©pÃŃt Ã©se
Ġde leg
uz sÃ¡
h assÃ¡k
Ġforint ra
Ġmegegy ezik
Ġfilm je
ĠalkalmazÃ¡sÃ ¡t
ĠtalÃ¡lt unk
piac on
Ġrajon gÃ³k
Ġfalu ban
Ġkor tÃ³l
Ġnyir ok
Ãī let
Ġv ul
ĠSz ovjet
Ã¼ lÃ©keny
ĠelvÃ¡lt ozÃ¡s
ÃŃv juk
dob oz
Ã Ĺ
ĠmÅ±v ek
ĠkÃ³r os
ĠszÃ¡llÃ¡s hely
Ġfordul nak
ĠÃ¡l ma
Ġbor ÃŃtÃ³
A mit
Ġad junk
Ġlit eres
Ġkics ik
Ġal jÃ¡n
ĠKÃ¶ zel
ĠprÃ³ f
Ġdolg oztam
I ng
Ġfoglaltak at
es Åĳ
re deti
Ġd Ã¶r
Ã©rt Ã
aid at
Ġtervez Ã©si
ĠR om
kÃ¶zÃ¶n sÃ©g
ĠtÃ¡ny Ã©r
Ġmegismer ni
ĠmÃ ¼
ĠbÃ¶lcs Åĳ
olÃ³d ott
ug yan
lÃŃ va
ĠD NS
ĠÃ¼ zen
Ġr oss
Ġgyerek kor
ĠÃĸnkormÃ¡nyzat Ã¡nak
ĠE lnÃ¶k
Ãĸ K
Ġki hely
ÂŃ ÂŃ
kap u
Ġspont Ã¡n
kÃ©szÃŃt Ã©s
em in
ĠÃ©let emben
part i
Ãī V
Ġvegy Ã¼let
ĠdÃ¶nt Ã©seket
sÃ ©vel
Ġ mem
ĠszÃ¼lett ek
ad y
ĠeredmÃ©ny Ã©t
w are
ĠtÃ¡g as
ĠTelj esen
ĠBart Ã³k
i i
Ġfal at
ĠÃ¼gy ek
Ġ eszÃ¼nk
Ġop tikai
ĠmagÃ¡n Ã©let
ĠteljesÃŃt i
E H
¡ fa
ĠnÃ¶veked Ã©st
atkoz ik
S zak
ug rÃ³
Ġ om
Ġminden esetre
H z
Ġmegjelen Ã©si
ĠMi kÃ¶zben
Ġkis korÃº
ĠmÃ¡s hogy
il letve
Ãº csÃº
ĠÃ¼ tÃ¶tt
Ġfel jelent
ĠmÃŃn usz
f otÃ³
ĠkÃ¶z lÃ©s
ak tor
sÃŃt ani
Ġemel kedÅĳ
Ġotthon Ã¡ban
Ġfel hÃ¡bor
mÅ± sor
ge tett
ĠkÃ¶vet ve
Ġegy oldalÃº
Ġiz m
Ġp ip
Ġsav any
Ġfel ismert
ĠL ig
ĠhÃ¡lÃ³ zatok
ozott an
t eni
¶gÃ ¶k
Ã¼nk kel
ĠkÃ³rhÃ¡z ba
ĠKÃ¶z lekedÃ©s
ĠbÅĳv Ã¼l
fe dett
Ġjelent Ã©st
ku ren
vÃ¡llal Ã¡s
Ġmar ha
Ġkedvez Åĳbb
ĠS okkal
ĠbevÃ¡sÃ¡r lÃ³
ĠkÃ©rdÃ©s es
let eket
ese dett
ĠPe ter
] .
ĠÃ¼gy es
kÃ¡ hoz
Ġfot Ã³t
kÃ ¼let
Ġfal ak
Ġist ent
ow n
ĠkÃ©r Ã¼nk
Ġtele font
ĠjÃ¡r Ã¡s
Ġhang ozt
ĠhibÃ¡t lan
Ġfegyver es
Ġbe ad
ven dÃ©g
Ġmegold hatÃ³
fig ye
Ġszomb ati
ĠkockÃ¡z atot
Ġproc esszor
, ...
Ġne hez
Ġa dÃ³dik
i kÃ©t
Ġszer zetes
ĠSze mÃ©ly
Ġcser Ã©lni
val l
Ġegyeteme n
Ġelt art
ĠÃ¼d Ã¼lÅĳ
Ġs iv
p szich
Ġad ok
ogrÃ¡ fia
ĠV evÅĳ
Ãģ ll
Ġfele mel
Ġjog ainak
Ġi t
Ġkimond ottan
Ġfenyege tÅĳ
ĠnagymÃ©rtÃ©k ben
ĠCh ris
m usz
³k a
ĠcsÃ¶kken Ã©se
ĠhatÃ¡s ait
ĠkiprÃ³bÃ¡l ni
¶m b
ĠhÃ³nap ra
ĠmegÃ©l het
ĠvÃ©gez nek
ĠtÃ¡rs asÃ¡gi
Ġisko lÃ¡
ĠTele p
ĠtÃ©rd ÃŃzÃ¼let
Ġki foly
iÃ³ ta
Ã¼ mÃ
Ġdik tat
o ogle
Ġdolg oztak
ĠlÃ¡t hatatlan
ĠcÃ©l okat
hatÃ³ an
Ġingatlan t
egy szer
Ġenter obi
Ġb Ãºj
Ġfi atalem
X I
ĠB L
Ġveszte sÃ©g
ĠnehÃ©z sÃ©g
S T
pe nt
sÃ¡r ga
Ã©n es
Ġnem e
Ġkonflik t
ab lak
szek rÃ©ny
ass al
ĠÃ©rte sÃŃtÃ©s
Ġakt u
x y
Ã¶r Ã©s
ĠfÃ©rj em
Ġjutt atÃ¡s
Ġeleme i
ĠfÃ©nykÃ©pezÅĳ gÃ©p
e tikai
lle g
Ġkorr ig
Ġnagy kÃ¶vet
zÃ ¡nak
Ġa frikai
ĠÃŃr ott
ĠkÃ¶vetelmÃ©nyek nek
Ġoldal Ã¡ra
kÃ¶nyv tÃ¡r
Ġleg ki
ĠvÃ¡gy ik
ĠÃ¼gy Ã©szsÃ©g
Ġh iszt
Ġigaz olni
Ġa zÃ¡ltal
Ġter min
ĠhasznÃ¡lt a
ĠI vÃ¡n
ĠS or
ĠbeszÃ©lget ni
ĠcsinÃ¡lt am
Hoz zÃ¡szÃ³
kÃ¶zÃ¶s sÃ©g
elete n
Ġco ach
rÃ ¡cs
Ġprogram mal
Ġno vel
me denc
Ġr o
ĠÃŃrt ak
Ġl at
ĠlÃ©git Ã¡rsasÃ¡g
Ġfut Ã¡rs
olÃ¡s ok
aj nÃ¡l
Fig yelem
Ġvonat kozÃ¡s
ĠmunkÃ ¡ban
ĠmÃ©r fÃ¶ld
ĠS Ã
ĠfelhÃŃv ja
Ġroh an
ĠmunkÃ ¡ra
Ġle ra
Ġsz fÃ©r
ĠdollÃ¡r os
ĠszÃŃnvonal as
Ġelmond hatÃ³
r ÃŃ
t evÃ©keny
ĠtÃ¶rtÃ©ne tÃ©ben
Ġere jÃ©ig
meg a
Egy Ã©b
Ġil lÃ³
Ġsar ok
Ġmeg hi
ĠkÃ©pvise l
omÃ ¡k
Ġkor Ã¡nt
Ġzseni Ã¡lis
ĠÃī le
Ã ¡fa
Ġazok ban
l ista
ĠV ÃŃ
Ġv ari
Ġmegterem tÃ©s
ĠvizsgÃ¡l ni
Ġkes keny
ĠÃ¶ssze kÃ¶
c ker
magas lÃ³
ĠgyÅĳzel met
ĠpÃ¡n ik
g in
ĠkÃ¶ tÃ©s
Ġof f
Ġker Ã
ak nÃ¡l
Ġle nt
ÃŃt se
ĠkÃ¶ s
Ãº lt
ĠFÅĳ iskola
om nak
t Ã¶rtÃ©neti
ĠbÃŃr sÃ¡g
Ġlap ok
Ġnap jÃ¡t
zÃ¡l lÃ³
Ġilluszt rÃ¡ciÃ³
iter rÃ¡n
Ġrendez ik
zÅĳ bb
Ġr obbant
ĠelÅĳ d
Ġad alÃ©k
Ġst yle
H irdetÃ©s
ĠvendÃ©g eket
Ġhelyett es
u ch
ke ndÅĳ
ĠgÃ©p kocsi
ege den
V iszont
ĠA li
k rÃ³
ĠÃ©rdeklÅĳdÅĳ ket
ĠjÃ¡t Ã
kÃ¶zÃ ¶tt
ĠvÃ©r es
Ġ ov
nÃ¶ kÃ¶k
ĠkÃ¶zle kedÅĳ
ked v
k em
ĠL Åĳr
cs ek
b f
Ġnagy szÃ¼
Ġf oc
Ġ13 0
lÃ©s Å±
ĠH aj
ĠkÃ©p zÃ©st
ac t
AT I
Ġcsillag ok
le ment
Ġt rak
Ġd rÃ¡mÃ
ĠÃ©pÃŃt mÃ©ny
ĠsÃ¡r kÃ¡ny
ĠkÃ¡r ok
Ġj ubile
ÃŃt Ã¡sÃ¡hoz
e lo
© hes
Ġad tam
ĠElsÅĳ sorban
ĠTa valy
ĠHoz zÃ¡tette
Ġbejelent ett
Ġhoz zÃ¡d
Ġpri vÃ¡t
ĠS MS
Ġ kv
Ġv ert
Ġar atott
Ġport fÃ³liÃ³
Ġn it
Ġleg Ã©rdek
ĠokÃ ¡t
Ãĸ R
szÃ ©l
sÃ©t ek
ki bocsÃ¡t
ĠMint ha
meg old
ĠNe hÃ©z
Ġident itÃ¡s
ĠkÃ¶lt sÃ©gei
ĠfÃ µ
Ġisz lÃ¡m
Ġpar fÃ¼
ĠkategÃ³r iÃ¡k
Ġha ver
C ÃŃm
ĠmellÃ©khat Ã¡sok
lt etÃ©s
ĠJ egy
Ġtart almakat
ĠP app
ĠrÃ¡szor ulÃ³
ĠS am
Ġalatt a
Ġmegjelen Ã©sÃ©t
Ġhard ver
ĠtÃ¡vol sÃ¡gra
ĠcsÃ ¶
Ġfog am
b d
Ġelle nÅĳ
Ġfe nyÅĳ
per es
ĠD ezsÅĳ
lÃ³ d
Ġugyan ezt
Ġkilo mÃ©t
ĠfÅĳ re
nyilvÃ¡n ÃŃtÃ¡s
keres kedelem
Ġmikr of
ĠmeglÃ ¡tt
ĠE nnÃ©l
sp an
Ġeg ri
Ġmeg kÃ¼l
iz z
Ġgondos kodni
szÃ¡n t
Ġfejleszt Ã©sÃ©re
Ã ¡jÃ¡ban
ar at
Ġkorrup ciÃ³
ĠL esz
ĠlehetÅĳsÃ©ge it
ĠÃ³vod ai
Ġgyan Ãºs
ĠkÃ¶zep ette
t ed
ĠmilliÃ¡rd os
kÃ¶ ri
Ġkonferenci Ã¡n
Ġmagas an
kÃ¡ p
kÃ¶z sÃ©g
Ġmegkap ja
elt em
ĠtÃ¡m asz
Ġ6 6
Ġnull a
Ġpara mÃ©ter
ĠfÃ¡radt sÃ¡g
ĠmÅ±tÃ©t i
Ġhasmen Ã©s
Ġismer em
Ġelgondol kod
Ġlegmeg felelÅĳ
ĠhÃ©t re
un Ã¡nt
ĠW illi
ĠtalÃ¡lkoz ni
Ġelismer Ã©st
Ġ19 70
ĠÃ¶ssze vet
Ġakart ak
ĠP annon
Ã¡k ra
Ġtit ko
Ġcsoport ja
Ġalig ha
dÅĳ jele
eni e
ĠÃ¼zem be
d h
L L
Ġese mÃ©nyen
ĠT Ãºl
Ġem eli
Ġbizony ÃŃtani
in ess
Ġ6 2
© mÃ¡n
ĠâĢ Ŀ
P ort
Ġpolit ikÃ¡
atkoz ott
Ġauszt rÃ¡l
ĠT o
ĠBalog h
ĠkezelÃ©s Ã©vel
ĠvilÃ¡g Ã¡ba
ĠlÃ¡togatÃ³ kat
fizet Åĳ
sor i
me lÅĳ
Ġkom pen
Ġjog ellenes
Ġal ag
ĠLÃ ¡zÃ¡r
ĠmÃ³dosÃŃt ani
Ġgyakorlat ot
ĠnÃ©v re
ra f
4 00
ĠÃ©rtelm es
ĠbÅĳv Ã¼lt
ĠÃ¶rÃ¶k sÃ©g
alkot Ã
Ġv Ã©re
st Ã©ny
Ġgyakor lÃ¡sa
Ã¡l ok
Ġisko lÃ¡t
p ir
Ġke cskemÃ©ti
ĠvezÃ ©re
ĠgyÃ¼mÃ¶lcsÃ ¶t
in n
aut o
U t
ne ve
ĠgarantÃ¡lt an
ismer eti
Ġszere lmi
¶l cse
ĠhÃ¼ ly
©p ÃŃtÃ©s
Ġduz z
Ġba ja
Ġex kluzÃŃv
ĠmegÅĳr iz
Ġev olÃº
Ġprog ra
Ġ epe
d eke
Ġkisfi Ãº
Ġkever jÃ¼k
ĠkihÃŃv Ã¡st
K r
ĠSz ek
og Ã¡s
nyÃºjt Ã¡s
ĠElek tr
ĠhÃ³ lyag
ez on
ĠszerzÅĳdÃ©s es
ĠB eszÃ
ĠvÃ©dÅĳ olt
ĠmegnÃ¶v ekedett
azon osÃŃt
Ġne tÃ¡n
v ia
Ġnagy rÃ©szt
J Ãº
ĠN yelv
ĠkÃŃnÃ¡l nak
Ã¼ lettel
Ġese mÃ©nyt
ĠÃŃg Ã©re
az az
ĠzÃ ¶
Ġterve i
Ã¶s zi
ĠÃģ LT
Ġszak ad
ze x
Ġfel szere
ĠkÃ¶nyv eket
ĠKÃ ¶vet
Ã¡sok ban
ÃŃt sd
us za
on s
ĠC omp
ĠFÃ ¡j
ĠmÃ©r nÃ¶k
t ablett
ĠEd it
O n
Ġf Ã©sz
ĠkerÃ ¡
Ġtrag ikus
ĠÃ©let Ã¼ket
Ġmutatkoz ik
ĠÃ¡t adni
Ġstand ard
kÃ©r dez
ĠtÃ©ve dÃ©s
ol dÃ³
ĠtovÃ¡bb fejleszt
Ġtanult am
ĠfÅĳ zÃ©s
Ġok irat
Ġrengetege t
ĠHely i
Ġinfrastrukt Ãºra
Ġfal usi
ĠkirÃ¡ly nÅĳ
Ġc er
Ġbr ing
ĠMerc edes
ĠtÃ¡mog atjÃ¡k
ĠvizsgÃ¡l ati
la x
ine t
ĠfelhasznÃ¡l hatÃ³
N os
Egy re
A kÃ¡r
ĠD E
le hetÅĳ
at Ã¡nak
ĠdrÃ¡m a
ĠfelÃºj ÃŃtÃ¡sa
ĠV in
n b
li p
Ġag resszÃŃv
k esz
Ġ qu
ĠÃŃ rÃ¡sÃ
Ġkon kuren
int a
Ġszor ul
Ġc Ã¡f
Ġide jÃ©ben
Ġker ÃŃtÃ©s
Ġhely ezni
Ġrag asz
ĠvÃ¡lt ani
ĠtanulÃ³ i
Ġpar ko
ĠÃģLT AL
D NP
Ġg ratulÃ¡l
ĠBl ue
g on
ĠjelÃ ¶lÃ©s
Ġ missziÃ³
ĠSzer inte
Ġismeret eket
ĠS zÅĳ
ĠX IX
m ulat
mod er
ĠvallÃ¡s os
ĠhirdetÃ©s i
ĠkÃ©rdÅĳ ÃŃv
ĠszÃ¼ksÃ©ges sÃ©
t Ã¡jÃ©koztatÃ³
Ġv b
Ġtan Ã¡ri
Ġdom in
Ġisko lÃ¡s
Ġhip er
mÃ ©lt
ĠrÃ ¡b
Ġhar ang
Ġgondol juk
ĠnÃ©mi leg
K ed
al any
Ġ16 0
ĠszÃ¼let Ã©si
ĠÃ©r rendszeri
Ġfenn mar
Ġpap ill
ĠfelÃ ¼
ĠteljesÃŃtmÃ©ny Å±
Ġesete nkÃ©nt
ĠD ar
T ÃģR
ĠlakÃ ¡sÃ
Ġdem onst
jÃ¡t szÃ¡s
ĠK un
ur al
ĠO b
Ġp omp
i tter
ĠtÃ¶nk re
ĠOper a
ol j
Ġrecep tek
R O
Ġ elnÃ©
del met
ĠtÃ¼nte tÃ©s
szeret ettel
Ġkozmet ikai
Ġsof Åĳr
D D
ĠberuhÃ¡zÃ¡s ok
ĠA mÃºgy
Ġvissza kÃ¼l
omÃ Ńt
ĠszÃ©g ye
ĠA hol
art almÃº
ĠV ad
ovÃ ¡ny
Ġkomp atib
cik k
O kt
ĠAuszt rÃ¡l
ĠkÃ¡ bel
Ġak adÃ©mi
T ube
Ġszere l
Ġle nyom
lÃ¡r Ã³l
Ġ Ã¶l
ink re
or osz
Ġmeny asszony
ĠelkÃ©szÃ ¼l
ĠlakÃ ³k
tlen sÃ©g
Ġn ot
ĠÃ¼gye t
g yal
ĠmegszÃ¼let ett
ĠnÃ¶veked Ã©si
e o
ĠfelelÅĳs sÃ©ge
inÃ ©
Ġakart Ã¡k
ĠbocsÃ ¡n
Ġj azz
Ġtud atÃ¡ban
ĠÃ¡llam hÃ¡zt
Ġami be
ĠjÃ¡r ok
ĠkÃ©ny elme
ĠÃ¶k olÃ³giai
sÃº t
ĠAz az
ĠrÃ©sz esed
Ġkiny om
Ã¶s s
ĠtÃ¼re lem
Ġvolt Ã¡l
ĠZsuzs anna
p ÃŃr
em ellett
ĠInt ernational
Ġlet iszt
¶rÃ ¶
ĠcÃ©l jÃ¡t
ĠdÃ¶ntÃ¶tt ek
Ġhelyez i
ĠteljesÃŃt Åĳ
oz hatja
ĠC X
Ġjogosult sÃ¡g
ĠcsÃº s
ĠlegkÃ¶ze lebbi
Ġbe ÃŃr
ĠkÃ©r elmÃ
ĠelÃ©rhetÅĳ ek
kÃ¶ re
Ġbefog ad
ĠÃº s
ĠpÃ©l dÃ¡k
ĠvÃ¡llal ta
g omb
Ġtel ik
les z
ĠmÅ±kÃ¶ d
Ġkilo mÃ©teres
ĠÅĳr Ã¼lt
Ġtitok zatos
ĠelÅĳny ei
ĠVi rÃ¡g
ĠTÃ©ny leg
ĠtÃ¡rgy akat
as sÃ¡g
ez em
ĠE G
Ġmegv olt
ĠerÅĳsÃŃt Åĳ
ĠjÃ¶tt em
ĠdizÃ¡j n
ĠkerÃ¼let ben
ĠmÃ¡sod lagos
ĠÃŃr Ã¡st
Ġgraf ikus
dÃ ¶r
ĠmegÃ¡llap ÃŃtani
Ġle vÃ©lt
ĠE nnyi
Ġa helyett
ĠokÃ ¡n
Ġgyull adÃ¡st
lÃ©p Ã©s
ĠidÅĳpont jÃ¡ban
Ġsziv Ã¡r
ĠMind ezt
Ġb Ã©n
ĠT Ã¶r
v eget
Ġ5 7
szÃ¡mÃŃt va
ĠEz eknek
s ik
ĠlakÃ³ hely
ĠÃ©nekes nÅĳ
Ġide jÅ±
An nak
Ġki dob
Ġmindaz t
M ennyi
ÃīT EL
mÃ³ nia
Ġo lÃŃva
Ġte Ã¡t
Ġmodel lt
Ġlak t
Ã¡r da
ĠkÃ©pvis elt
Ġrov ar
Ġnagy szabÃ¡sÃº
ĠlÃ©p Ã©se
Ġtegy Ã¼nk
ĠjÃ¡r tunk
Ġhal Ã¡lt
ĠfÃ¡j lok
Ġegyen kÃ©nt
Åĳ v
oldal on
Ã³k nak
ĠidÅĳ zÃŃt
er on
kÃ©szÃ ¼let
ĠkÃ¼z dÃ¶tt
¶rÃ ¶g
ur Ã¡lt
ĠmunkÃ¡ jÃ¡nak
Ġ9 00
ĠtÃ©r i
bet Å±
kÃ¶rÃ ©ben
zat mÃ¡r
ĠPe t
Ġpartner ek
ĠakciÃ³ s
zat a
len dÅĳ
yÃ ³
Ġkap it
ĠerÅĳszak os
eny Ã©szt
ge ti
EZ ÃīS
Ġki ÃŃrt
z apor
Ġpe csÃ©t
ĠÃ©tter mek
Ġny ÃŃl
Ġegyetem es
ĠrendelkezÃ©s Ã¼nkre
Ġmind addig
Ġkong ressz
ap r
ĠÃ¡llam ok
ĠkÃ¶zpont ja
csÃ ¡t
ĠkÃ¶zel ben
ĠÃ¡ltal ad
ĠdÃ¶ntÃ©s h
Ġragy ogÃ³
ĠtechnolÃ³g iÃ¡val
ĠnÅĳk nek
ĠSz Å±z
Ġjelentkez Ã©s
Ġmegkez dÃ©se
ff y
egy szerÅ±
Ġele mi
ĠtÃ¶meg e
Ġfenti ek
Ġ5 3
ĠkÃ¶z hasznÃº
amar abb
ĠN Ã¡lunk
ac ute
Ġr op
szinte n
ĠInn ovÃ
ĠÃ¼l Ã©sen
ĠL XX
alkotÃ ³
ĠR t
Ġbeszer ezni
uni or
Ġpon ttal
meg elÅĳ
Ġhal adt
ĠmagyarÃ¡z at
ĠbekÃ¶vet kez
Ġ3 000
ĠfÅ±zÅĳ dÅĳ
¶dÃ ¶l
Ġp azar
tem plom
ĠelkÃ©szÃŃt eni
Ġn m
Åĳ leg
er o
Ġmeg Ã³v
ĠÃ¶tlet eket
kÃ ©v
Ġszak kÃ©pzÃ©s
Ġnyar alÃ³
op or
egyÃ¼tt es
f agy
ĠkÃ¶z ismert
ĠM ak
sÃ¡t ok
jÃ¡ ul
Ġvezet nek
Ġele ven
Ġlegneheze bb
t Ãºra
Ãĸ ssze
ĠnemrÃ©g iben
ĠÃ¶nrendel kezÃ©si
akÃ ¡cs
Ġtart ok
ĠbefolyÃ¡s oljÃ¡k
ĠO L
Ġmindegy ike
ĠF ar
V olt
Ġmeg nÅĳ
Ġcs i
ĠfÃ¶lÃ ¶s
i us
ros is
Ġpu ff
d ÃŃt
ĠMe t
Ġkollek tÃŃv
Ġs Ã¡tor
ĠszakkÃ©p zett
orit mus
ĠkormÃ¡ny zÃ³
ĠnÃ©z nek
ĠÃ©let mÅ±
ut az
ĠÃ©pÃŃt Ã©szet
jÃ ©r
Ġfe ne
e tn
Ġigyek ezett
Ġmunk ab
ja ik
ĠbenyÃºjt ani
Ġtrag Ã©d
nny e
ed ni
Ġ Ã¡zsiai
hÃ³ lyag
Ġar ca
ĠhigiÃ ©ni
ĠF I
ĠG PS
©lt etÅĳ
ĠB Ã©r
y Ã¡t
H U
bÃ ©ly
ĠelkÃ©szÃŃt ett
Ġle j
Ġlist Ã¡t
Ġb egyÅ±jt
ĠszÃ¡zalÃ ©kÃ
ĠT Ã¶rÃ¶korszÃ¡g
Ġr est
olaj at
ĠÃ©desany ja
Ġz ok
ree t
Ġrend re
ĠLengyel orszÃ¡g
Ġmarad andÃ³
Ġnyolc adik
ĠeszkÃ¶z zel
Ġmer Ã¼lt
S cript
Ġlist Ã¡ja
Ä Ĥ
os av
Ġmozd ulat
ĠB Ã¡cs
ontos an
gazd asag
bajnok sÃ¡g
Ġmegmut atja
Ġgar Ã¡zs
ĠgyÃ¡rt Ã¡s
s pe
kÃ¶ szÃ¶n
Ġhallg atni
ÃŃp usok
ĠelÃ©rhetÅĳ sÃ©g
ĠkÃ ¡d
ĠRende let
ĠlÃ ¶
ĠMiniszt ere
ĠF re
ĠnaptÃ¡r i
ĠÃ©rdek essÃ©g
ĠIgazgatÃ³ sÃ¡g
ĠirÃ¡ny Ãº
ĠellenÅĳr zÅĳ
Ġpan e
ĠP o
k kv
Ġfelle lhetÅĳ
Ġjog okat
Ġer Ã©ny
Ġfeldolg ozÃ¡s
ĠteljesÃŃt Ã©sÃ©hez
ĠV Ã¡m
Ã ¶ket
Ġrendszer be
ĠKamar a
hely re
osÃŃt Ã¡st
kÃ¶ lcsÃ¶n
ĠhiÃ¡ny zÃ³
Ġmen stru
alm am
oszor kÃ¡ny
ĠvÃ¡llalkozÃ³ i
Ġhis zi
ab Ã¡ny
B i
ĠrÃ©szÃ ¼k
ĠAg rÃ¡r
Ġfoly Ã©kony
le i
Ġfeladat ai
Ġwork shop
ĠlakÃ ³i
ĠEur ope
rÃ¡ zÃ³
Ġcselek v
Ġz sÃº
zÃ¡sÃ ¡ra
ĠV Ã¡lt
Ġmec csen
J og
Ġfej ezte
Ġkorr ekciÃ³
ink nak
ĠkizÃ¡rÃ³lag os
ad ag
] &
ta bb
ĠE llen
b y
ĠszelÃ Ń
ĠK a
Ġfelt Ã©ve
Ġanyan yelv
Ġmeg ne
Ġte jt
e lÄ±
vÃ ¡lÃ¡s
Ġtud nÃ¡
Ġcser Ã©lt
Ġs elejt
ht ml
le set
Ġrab szolg
Ġinten zÃŃ
Ġan tik
vÃ¡g Ã
dÃ¡sÃ ¡val
Ġtelefon os
Ġ6 7
Ã¡sÃ ¡ig
ĠEset leg
ĠFi atal
Ġeny Ã©m
ĠmegkÃ©r dÅĳjele
ĠjÃ³ nak
ĠivÃ ³v
vÃ©n nyel
ĠmÃ©rkÅĳ zÃ©st
Ġ kaj
ĠeskÃ¼vÅĳ i
ĠTe l
Ġamely rÅĳl
ĠP us
Ġj egyet
ĠÃ¼gyfÃ©l szolgÃ¡lat
Ã©r vÃ©ny
ĠvÃ¡ros a
zÅĳ dik
ĠE Ã¶tvÃ¶s
lÃ¡g yi
lÃ ©vÅĳ
Ġ krÃ³
ĠF C
ĠidÅĳ kÃ¶zben
ve ny
h Ã¡s
pr es
Ġkar c
kÃ©p telen
ĠÃ©pp Ãºgy
b re
Ġvi dÃ©ken
ĠegÃ©sz ben
d isz
ĠbeÃ©r kez
kan izs
ĠpÃ©ntek i
ĠÃģll at
Ġre dÅĳ
Ã ¡vÃ¡
Ġal Ã¡bb
ĠB aj
Ġrend be
ĠszabÃ¡ly ozza
ĠDok tor
ĠhÃŃv tÃ¡k
Ġelt Ã¶ltÃ¶tt
Ġje lm
Ġjel zett
hatÃ³ sÃ¡gi
f Ã¼l
ĠK lin
Ġaz elÅĳtt
Ġmegsz eg
hoz za
Ġben neteket
at an
ĠmÃ¶gÃ¶tt e
bi rt
lÃ¡ny i
h op
Ġfogyaszt Ã¡si
Ġnyar Ã¡n
Ġinsp ir
kom p
Ġautomati zÃ¡lt
ĠszabadsÃ¡g harc
Ġmegfigye lÃ©s
ĠÃī l
t ort
ĠalÃ¡ ÃŃrÃ¡sÃ
ĠcÃ©l jai
ĠtÃ¡mog atÃ¡sÃ¡t
Ã©r ve
ĠK az
ÃģL IS
jÃ¶n ni
ĠÃ¼gy ekben
ĠBened ek
Ġegy sÃ©ge
Ġjog ai
ĠszÃ©g yen
jÃ¡ts z
ĠtÃ¶meg kÃ¶zlekedÃ©s
ĠVi dÃ©k
lÃ ©re
ĠkÃ©p ezik
ĠEgye tlen
Ġfolyt Ã¡n
Ã©s Ã©Ã©rt
ĠFelÃ ¼gy
Ġelem zÅĳ
ĠhÃ©tvÃ©g e
ĠkÃ¼lÃ¶n leg
s zÅ±
cel lÃ¡r
ĠbÃ¶ngÃ©szÅĳ jÃ©ben
ĠpÃ¡n cÃ©l
AT A
Ġsor a
Ġper iÃ³d
szÃ ©p
izÃ¡l ni
ĠtÃ¡r ol
F elh
Ġfelfed ezÃ©s
ĠlÃ©p Ã©sek
Ġir at
ĠSzer b
ĠÃ¡p olÃ³
ĠfelszÃŃ vÃ³d
gyÅ±jt Ã©s
ĠszemÃ ©lye
Ġkri pt
Ġtud nÃ¡m
ĠdÃ¶ntÃ¶tt em
bizt os
ĠmÃ³dszer eket
ĠB ÃŃrÃ³
Ġmostan tÃ³l
Ġmeg Ã
Ġfigyelm eztetÃ©s
vÃ¡j c
Ġv edd
Ġalkal mi
al g
dÅĳ dik
ĠlÃ¡r vÃ¡k
Ġa c
ĠG roup
ĠpilÃ³ ta
ĠB p
ĠvÃ©gez zÃ¼k
Ġzavart alan
ĠÃ©v ezred
egye sÃ¼let
Ġmarad hat
ĠTer em
c cse
it Ã¡sa
M an
H asznÃ¡l
ĠT Å±z
Ġkulcs fontossÃ¡gÃº
rend ezÅĳ
R AM
sÃ ©nek
egy hÃ¡z
szÃ¡llÃŃt Ã¡s
Ġegy iptomi
Ġegy forma
ĠdÃ¡t uma
Ġpihe nte
Ġrend je
Ġzen Ã©s
ĠM att
vÃ¡gÃ ³
ĠfÃ¼rdÅĳ szoba
Ġst Ã¡b
ĠsÃ¡r g
Ġbony olÃŃt
r oss
¡z ott
Ġalap elv
ĠnÅĳ stÃ©ny
Â ·
Ġve tÅĳ
ĠszerzÅĳdÃ©s Ã©t
oz atlan
Ġrecept e
ĠszÃŃ vÃ©ben
lÃ ¡bÃ³l
ĠkÃ¶vetkezÅĳ ket
gyÃ¡rt Ã
ĠÃ¡gaz at
ĠV ic
ĠSzent lÃ©lek
ĠprÃ³bÃ¡lt a
ĠhozzÃ¡jÃ¡r ult
Ġnap vilÃ¡got
c ina
Ġszeptember ben
ĠN ik
Ġdekor Ã¡ciÃ³
Ġlak ik
fin anszÃŃr
n is
ĠYou Tube
ĠrÃ©g ebben
pon zor
Ġfilm es
ĠkapcsolÃ³dÃ³ an
ĠEr dÅĳ
, âĢ¦
S P
Ġfoly osÃ³
ĠfunkciÃ³ ja
Ġhihetetlen Ã¼l
Ġpont okat
Ġminden nek
p Ã¡n
c f
J elent
Ġvissza fizet
ĠkÃ¼lÃ¶nbÃ¶ zik
ukt ÃŃv
ĠidÅĳsza kÃ¡ban
ĠÃŃr va
ÃŃt hatja
Ġjav ul
we is
ĠmegkÃ¶ szÃ¶n
ment Åĳ
Ã¡t us
cs kÃ©k
E X
Ġrossz indulatÃº
atÃ¡s sal
ĠjÃ¡tszott ak
EL EM
Ġte jet
Ġnap rak
elm es
in ok
Ã ¶ne
lat ban
ÅĲ L
Ġcsup a
u men
ott Ã
ÃŃva bb
ĠC ap
lo ck
ĠIs mÃ©t
ĠbelÃ¼l rÅĳl
ĠJ uhÃ¡sz
Ġpo Ã©n
cs end
ĠT ÃģM
Ġeme lni
ĠÃ©g e
iszt ÃŃtÃ³
ĠkÃ¼lÃ ¼gyminiszter
or ge
od ban
Ġsab lon
Ġvissza Ã©l
Ġmegt alÃ
Ġ usz
Ġellen ben
rÃ¡k at
ĠbÃŃr ja
Ġcs ata
ĠkalÃ³ ri
ĠÃ©pÃŃt kezÃ©s
ĠÃ¡llapot Ãº
Ġnyom tatÃ³
igy Ã¡z
S zolg
ĠkÃ¶telezett sÃ©get
Ġh inni
ĠfÅĳ szerkesztÅĳ
Ġmagam at
z sÃŃr
e cet
ĠkÃ¡bÃŃtÃ³ szer
Ġr esze
ĠkormÃ¡ny t
ĠA C
Ã©rt em
ĠJog Ãº
tte t
ĠÃ¼gyintÃ© zÃ©s
Ġ Ã©len
ĠlehetÅĳsÃ©g Ã¼nk
Ġ Ã¶z
ĠkÃ©t szÃ¡z
Ġleg elÅĳ
Ġhelyez zÃ¼k
lÃ¡sÃ ¡ban
Ġke mÃ©nyen
atiszt ikai
Ġr ozs
ĠÃ¡llampolgÃ¡r ok
K E
ĠMÃ¡s rÃ©szt
EN Y
M ajd
ĠB it
Ġkan adai
EurÃ³p Ã¡ban
Ġnyom or
ĠmÅ±ve letek
ĠtermÃ©szet vÃ©delmi
ĠtÃ©ny ek
Ġelm ozd
ÃģS OK
ĠValÃ³ szÃŃnÅ±leg
l ja
rendszer ben
ĠlÃ³ g
Ġvett Ã¼k
ĠkÃ¶zÃ¶n sÃ©get
ĠnÅĳk nÃ©l
ĠR aj
kÃ¼nk ben
ĠSt e
Ġi ly
Ã©le k
ĠeltÅ± nik
ĠKÃ ¶v
Ġalkalm at
Ġ5 8
Ġdagan at
Ġantibiot ikum
ĠbiztonsÃ¡g osan
ĠbÃ ©kÃ
let y
ĠnyÃºjt otta
Ġ \
lÃ¡s ban
Ġlab da
ĠelkerÃ¼l ni
Ġnyar alÃ¡s
Ġ Ã©hez
Ġmegb ocsÃ¡t
y Å±rÅ±
ĠHon lap
Ġve hetnek
Ġpihe nni
ĠM ay
szÃ¡m ok
Ġbor ÃŃtÃ©k
em lÃ©
M ely
Ġjavas olja
ĠszolgÃ¡l jÃ¡k
ĠkutatÃ³ i
Ġkedvenc em
Ġbevon Ã¡sÃ¡val
ÃīR T
ĠLÅĳr inc
Ġszim b
ĠhiÃ¡ny os
a ce
r ug
ĠtechnolÃ³g iÃ¡t
ĠFrancia orszÃ¡gban
Ġt rÃ³n
G ondol
es kÃ¼
V Ã¡r
ellÃ¡t Ã¡s
Ġszabad sÃ¡got
Ġki magaslÃ³
ko c
d og
ĠsÃ¼ tÃ©s
az ek
Ġad apt
ĠÃŃ v
ĠfelÃ¼lete t
Ä± l
Ġle fed
Ġhelyez Ã©st
ĠtartÃ³z kodÃ¡s
Szab Ã
ĠirÃ¡ny ÃŃtÃ¡sa
ĠV Ã©le
ĠkÃ¡ vÃ©t
ĠÃ¶s vÃ©ny
Ãī D
Ġsorrend ben
ĠtelevÃŃziÃ³ s
ĠjÃ¶ jjÃ¶n
Ġf osz
O tt
ĠmellÃ©k lete
ĠrÃ©sz leg
ĠgyulladÃ¡s csÃ¶kkentÅĳ
or ient
ĠMindez ek
k val
jegy zÅĳ
ti an
SzabÃ ³
Ġmeg szÃ³lÃŃt
Ġem elÃ©s
ak hoz
kor ong
Ã¡rt Ã³l
Ġasztal ra
Ġ my
Ġ6 8
ĠtÃ¶meg es
emp ing
Ġd l
Ã¡m a
ĠkÃ©rdÃ©s ekben
Ġkiszolg Ã¡lÃ¡s
Ġleg olcsÃ³
y n
Ġigaz sÃ¡got
Ġb ra
T Ã¡jÃ©kozt
Ġugy ani
Ġkontine ns
ĠSz ar
Ã³k kal
z attal
ĠInst agram
ĠU ta
Ġhely rÅĳl
finom ult
Ġjel szÃ³
Ġbizott sÃ¡gi
ĠhasznÃ¡l va
Ġlegke vÃ©sbÃ©
Ġpont jÃ¡n
Ġszervez Ã©si
Ġs ci
k ac
id at
z fÃ©r
ĠZsuzs a
ĠWeb Ã¡ruhÃ¡z
Ġaj ta
kedÃ©s t
bet Ã©t
ĠhozzÃ¡szÃ³ lÃ¡sok
y erek
Ġle vÃ¡g
Ġdeb Ã¼t
Ġweb lap
gyÃ¡rtÃ ³
ĠÂ ·
L S
Ġ musz
Ġalkalmaz za
ĠalÃ¡ ÃŃrÃ¡s
ĠtÃ¡m aszkod
ĠN Ã©v
d ug
ĠkollÃ©g Ã¡k
Ġmegg yÃ³gy
ĠszabÃ¡ly ozÃ³
ĠalkatrÃ©sz ek
ĠvezÃ©r igazgatÃ³
Ġdagan atos
ĠkÃŃ mÃ©let
ĠRe al
ĠtÃ¼krÃ¶ zi
ĠkÃ¶ltÃ¶ zÃ¶tt
ĠKÃ ¡dÃ¡r
ĠVil mos
ic o
Ġtem atikus
ĠmÃ¡s sal
ĠelÅĳtt em
Ġtan ÃŃtÃ¡si
ĠÃ¶rÃ¶ met
ĠlevegÅĳ ben
ĠT elefon
ĠÃ¡llam fÅĳ
kÃ©szÃŃt Åĳ
uz z
Ġdal t
Ġ Ã¡fa
ĠpÃ©l d
Ġle Ã¡llÃŃt
Ġcs eng
Ġkisgy erek
Ġp iz
A F
Ġkap jÃ¡k
ĠkÃ¶zt Ã¡rsasÃ¡gi
lag Ã©n
izÃ¡l ja
ĠszemÃ ©ben
ĠMar s
ĠhÃŃ ve
ĠJava Script
ĠmÃ©rkÅĳ zÃ©sen
Ġami att
Ġrang sor
ĠkÃ¶lt sÃ©geit
Ġszenny ezett
Ġmeg adÃ¡sa
ĠPh il
Ġre pt
car is
ĠkÃ©szÃŃt ettek
Ġszer elt
ĠÃ©rez hetÅĳ
ĠrÃ¡m ut
gÃ¶ ny
uty in
Ġd Ã¡n
ĠminÅĳ sÃŃtett
ĠszemÃ©ly Ã©ben
Ġnyom ozÃ³
©ny i
ulÃ¡s ok
ĠbeÃ¡llÃŃt Ã¡sai
ĠSz egeden
Ġsok asÃ¡g
hang Ãº
f utÃ³
Ġzar Ã¡ndok
s burg
Ġgarant Ã¡lja
Ġpihen Ã©s
Ġhagy jÃ¡k
ĠvilÃ¡g osan
Ãļ jabb
Ãº k
Ġaktivit Ã¡s
P e
ĠMinde nt
e lav
Ġweboldal unk
ĠMinde nkinek
Ġmond vÃ¡n
ĠlÃ©p tek
ĠigÃ©nye inek
ĠÃĵv oda
Ġlink re
atok ra
ĠNAT O
Ġbol ond
l iz
Ġapp likÃ¡ciÃ³
Ġt ÃŃ
ĠR ol
hÅĳmÃ©rsÃ©k let
ĠszÃ¼ksÃ©g em
ĠvÃ¡r Ã
oldal Ã¡n
ĠerÅĳ lte
ĠerÅĳ forrÃ¡sok
Ãīr dekes
V M
n on
hal t
adi cionÃ¡lis
ĠvÃ¡l jon
Ġjobb oldali
keres kedÅĳ
Ġpa lett
ĠtÃ¡nc os
ĠS okat
Ã ¶d
ĠelÅĳny t
cs at
ĠszÃ¡z ezer
Ġide jÃ©re
ĠÃģ zs
M ik
ke p
r esz
Ġszav akkal
Ã¡l om
ne v
ĠtagÃ¡llam ok
Ġhang szÃ³rÃ³
volt Ã¡bÃ³l
ĠÃ¼d vÃ¶zÃ
ĠT rans
ĠregisztrÃ¡ciÃ³ s
olva sÃ³
Ġrend eztÃ©k
Ġgyakori bb
hord ozÃ³
ĠszÃ¶v ege
sÃ¡g Ã¡rÃ³l
og nak
Ġkics iny
ĠkÃ©sz sÃ©g
Ġle foglal
mennyi sÃ©g
ĠmegjelÃ ¶lÃ©s
at ch
ĠÃ¶t letek
Ġmegszer zÃ©se
Ġfelejt hetetlen
ĠkÃ¡r okat
ko vics
ĠidÅĳszak ot
Ġotthon rÃ³l
Ġut alÃ³
ĠfelÃ¼let Ã©n
ĠjÃ¡tÃ©k okat
Ġan onim
z nak
Ġla zÃŃt
ĠvÃ¡rÃ ³
Ġmeg illet
Ġdok tori
I nd
ĠIl ona
felÃ ºj
kÃ¶zpont Ãº
ĠMinden esetre
© jÃ©t
Ġ mulat
ĠKirÃ¡ly sÃ¡g
Ãĵ L
ĠmegÅĳr izni
¶ nyÃ¶r
ĠalapÃŃtÃ³ ja
Ġszenny vÃŃz
kozt ak
ĠÃ©r nek
elnÃ ¶k
Ġtakar mÃ¡ny
ĠpÃ³ lÃ³
ĠkÃ¼lt Ã©ri
V ET
Ġkezel je
Ġgy ep
Ġf arkas
OL T
Ġ7 6
Ġ14 0
Ġb ossz
ĠNor bert
ĠS ol
ĠelhÃŃ zÃ¡s
V ar
ĠelÅĳÃ¡llÃŃt ott
ĠszabÃ¡ly sÃ©rt
pÃ©n ztÃ¡r
hat nÃ¡nk
Ġgl utÃ©n
ĠÃ©l het
Ġhe nger
ap i
Ġki rak
ĠkÃ¶vet ett
Ġnyit otta
kÃ¶vete l
eszt e
ĠMad rid
ĠÃ©r v
c cs
ĠmegtÃ¶rtÃ©n ik
Ġoszt oznak
Ġtenni e
ĠpÃ©n is
ors zag
Åĳr zÅĳ
ĠÃºt mut
Ġle cser
ĠkÃ¶r mÃ
j j
ĠkÃ¼lÃ¶nÃ¶s ebb
Ġvagy ont
Ġ kand
ĠkÃ¶ rÃ©t
Ġfiatalem ber
fe lv
ĠrÃ©sz es
ĠAl ig
ag ok
AL OM
ĠTest Ã¼let
Ġismert ette
ĠmÅ± hold
ĠÃŃr Ã¡sa
ĠtÃ¶rtÃ©net Ã©nek
Ġalko holt
ĠEL ÅĲ
Ġmeg rendel
ĠgyÅ±lÃ¶ let
Ġ etn
hi asis
ĠkezelÃ©s re
ĠegyedÃ¼l i
ert o
Ġtol mÃ¡cs
vÃ¡lt ozt
ĠÃ©pÃŃt kez
ĠtojÃ¡s t
Ġhangul atÃ¡t
ĠveszÃ©ly eztetett
Ġbud ai
Ã ¡it
aszt ani
Ã©ke ny
Ġtest Ã©t
ĠrÃ©sz vÃ©telÃ©vel
ĠvÃ ¡lÃ³
ĠsÃ©rt Åĳ
KÃĸ Z
Ġalap ot
ik ip
pon ttal
Ġnyom tatÃ¡s
p lay
Ġnedv essÃ©g
v aj
Ġegy milliÃ³
fel ad
Ġhobb i
Ġgyermek eknek
ĠmegvalÃ³s ulÃ³
Ġil lÃºziÃ³
Ġamin osav
kÃ¶t e
ĠkonyhÃ ¡ban
ĠÃ¼nnep Ã©lyes
ĠcsÃ ¶n
ĠcsÃ ¡b
Ġfel vÃ©telt
Ġhid ratÃ
Ġaszfal t
I B
Ġesed Ã©kes
Ġtag ozat
ĠFer r
SzÃ ©p
ikÃ ¡l
Ġcsap atban
Ġ5 000
Ġelt Ã¶lt
Ġr Ã¡s
Ġleg elsÅĳ
H A
Ã¡ny i
vas tag
Ġkisebb sÃ©gi
ĠT r
Ġhad d
t ur
Ġle zaj
assz us
ĠÃ¶sztÃ¶n Ã¶z
Ġfogyaszt ani
ĠTan szÃ©k
ĠnyomÃ¡s t
ÃŃt Ã©let
KÃ©r dÃ©s
r eked
ĠEgy ipt
Ġki ment
Ġlegh ÃŃr
Ġmeg fejt
k agy
l iget
ĠszÃ¡mÃŃt hat
ĠkÃ¶szÃ¶ net
Ġgab on
ĠlÃ¡t va
ce ns
ĠsegÃŃt Ã¼nk
K OZ
ĠkÃ¶rnyezet barÃ¡t
Ã¡ciÃ³ ja
ĠhatÃ©kony sÃ¡gÃ¡t
ĠTele kom
ĠtÃ¡r ca
Ġember ekben
ĠszÃ¶veg ek
t Ãº
ĠÃĸ NK
d s
C h
ĠellÃ¡t ni
Åĳ ket
se i
ĠSzÃ ¡z
ĠSzovjet uni
im mun
c is
g yerek
ĠÃ©rtÃ©k ben
Ġkap ok
Ã©d i
Ġforrad almi
ĠkÃ¶telezÅĳ e
Ġhig g
ĠrÃ¡n t
ĠkÃ¶telezÅĳe n
k uk
egy Ã¼nk
1 20
Ãģ CS
vÃ¶lg yi
Ã¡r adt
b Ã©li
ok or
hÃ¡ zÃ¡n
Ġdr asztikus
Ã ¡h
Ġv egyen
alm uk
Ġ elav
ĠKÃŃ nÃ¡ban
ĠvÃ¡l assza
Ġfel zÃ¡r
ĠvÃ¡llalkozÃ³ k
us ta
e lcsÃ
Ġten isz
Ġtest ed
Ġaszt ali
Ġkit Ã©ve
Ġalkot Ã¡sok
ĠkÃ¼lfÃ¶ld re
Ġfejleszt Ã©sÃ©t
Ġhat almi
Ġinf lÃ¡ciÃ³
op ter
ĠF Ã¼lÃ¶p
ĠÃ©t kezÃ©si
ĠbeszÃ ©lek
ĠvilÃ¡g Ã¡t
c essziÃ³
ÃŃtÃ©s Ã©vel
tÃ¡b la
ĠD al
ĠlÃ¡s suk
ĠÃ©rtesÃŃt i
ĠKÃ¶z hasznÃº
ĠtalÃ¡lhatÃ³ ak
eger szeg
ĠF ut
Ī Ĵ
ĠemlÃ©kezet es
Ġvissza ford
gazdÃ¡l kodÃ¡s
j pg
ma zÃ³
gyÅ±jt emÃ©ny
Ġnagy ma
vi zet
ĠÃ©rtelm ezÃ©s
Ġezek rÅĳl
F ogy
Ġadat szolgÃ¡ltatÃ¡s
Ġdal ok
ĠBar cel
Ġjelleg gel
Ġokoz hatja
Ġt in
ĠfotÃ³ zÃ¡s
Ġir atok
ĠM S
ĠR ob
Ġitt eni
ar as
er rel
Ġmatemat ikai
emmel weis
OL Y
Ġki kÃ¼szÃ¶
Ġbeszer zÃ©se
ĠgÃ¶r d
Ġki hÅ±
Ġrendszer Ã©t
¡ jÃ¡val
Ter mÃ©k
Ġsziv attyÃº
ĠD K
Ġb Ã©re
Ġelny er
hogy an
ĠÃ¼gy nÃ¶k
C Ã©l
Ġgyerek nek
s okÃ¡ra
i rÃ³l
erÅĳ mÅ±
Ġha mi
! ),
ĠellenÅĳr zi
ĠkÃ¶ d
nnye l
v Åĳt
ĠjÃ³ voltÃ¡bÃ³l
Ġren det
ĠvÃ¡lasz ok
ĠvÃ©d jegy
ĠlehetÅĳsÃ©g Ã¼k
ĠszÃ¡ndÃ©k osan
ĠK erek
ke mÃ©ny
Ġleg rÃ¶videbb
Ġ kaz
ĠsÃ ©
Ġteszt elÃ©s
Ġhete t
c ul
Ġmo cs
BÅĳ vebben
Ġpane l
Ġprojekt e
okÃ ¡l
ĠtÃ¡rsasÃ¡g Ã¡ban
ap ad
Ġ0 5
ĠS iÃ³
m ogy
alÃ ¡sÃ¡t
\\\\\\\\\\\\\\\\\\\\\\\\\\\\\\\\\\\\\\\\\\\\\\\\\\\\\\\\\\\\\\\\ \\\\\\\\\\\\\\\\\\\\\\\\\\\\\\\\\\\\\\\\\\\\\\\\\\\\\\\\\\\\\\\\
Ġreag Ã¡lt
ĠkÃ©pvis elet
ĠD a
Ġgyors asÃ¡g
ĠhatÃ¡roz atot
ĠW ashing
ĠellenÃ¡l lÃ¡s
Ġtartal mÃ¡nak
ĠMezÅĳ gazdasÃ¡gi
ĠterÃ¼let eket
ĠI mÃ¡d
Ġkattint s
szÃ¡l lÃ¡s
Ġkeret e
juk ban
ĠinnovÃ ¡ciÃ³s
y d
Ġle adott
Ġfejleszt eni
ĠFÃ¶l dÃ¶n
ORMÃģNY ZAT
ÃŃl ia
sÃ ¶m
ĠV ide
ĠJ os
Ġbe leg
Ġjelentkez ni
sÃŃ k
Ġmeg becsÃ¼l
1 01
sÃ ¶t
ĠkiÃ¡llÃŃt Ã¡sa
ĠelnÃ¶ ki
Ġbirod alom
le ves
ĠfeltÃ©telek kel
ĠR it
Ġalak ulhat
lÃ ¡mÃ
Ġkap tÃ¡k
Ġkapcsolat okat
ĠproblÃ© mÃ¡s
ĠfelkÃ©szÃ¼l Ã©s
ĠÃ¼ze nete
Ġszem em
ÃŃt om
ĠkÃ¶ny vÃ©ben
kl ub
Ġl ila
ĠtudÃ³ sÃŃt
ĠfeltÃ©t len
ĠF l
Ġiro dÃ¡
ĠÃ¶sszet art
J a
Ġfigyelm eztet
Ġamelyek re
Ġmindennap os
je ct
ĠtÃ¼ nt
Ġpr ote
kÃ¶dÃ©s i
Ġegyes ek
Ġrecepte t
ĠhibÃ ¡ja
ĠkÃ¶z alkal
ĠszÃ³viv Åĳje
rendszer ek
j esz
ant e
ĠÃ¶sszegy Å±
Ġarany os
szÃŃn vonal
H AT
ĠLe n
f egyver
bur kol
Ġweboldal ak
ĠkerÃ¼l hetnek
ĠbiztosÃŃt juk
ĠB ul
rÃ¡ ja
sÃ¡g Ã¡val
ĠmÃ ¡l
Ġvi b
ĠvÃŃr usok
Ġintellige ncia
ĠhÃ¡t r
end er
mÃ©l jÃ¼k
ĠÃ©let Ã¼nket
ĠlÃ¡tni valÃ³
ĠÃŃr nak
Ġze nek
csator na
K om
Ġtartott am
N G
formÃ ¡k
zet len
Ġbemut atkozÃ¡s
p usi
Ġellen Ã¡ll
Ġrend ezte
ĠtÃ¼re lm
R Ã¶v
Ġp ed
Ġf ura
Ġszak terÃ¼let
l adni
l kes
p ert
Ġvezet Ã©st
Ġmegnyit Ã
vÃ©telÃ ©nek
ĠTÃ¶rvÃ©ny kÃ¶nyv
Ġtapasztal tam
ĠÃ©le szt
ĠmegvÃ¡lt ozik
osÃ ¡ban
Ġgyermek eket
ĠtÃ¡rsasÃ¡g ok
Ġcsapat nak
k rump
Ġref lex
Ġcsuk lÃ³
ĠA ss
acsony abb
. ]
ĠO ne
lmÃ ©r
h aza
ar Ã¡t
ĠsÃºlyos b
Ġvise lni
Ġmegt Ã©v
Ġfel vÃ©telek
csÃ ºt
ĠkenÅĳ cs
Ã ©hes
ĠlÃ¡tt unk
Ġkezd jÃ¼k
Ã¼r eg
ĠÃº szÃ¡s
Ġtest Ã¼nk
Ġtelj essÃ©g
Ġterme lÃ©si
Ġs c
rÃ¶ ket
ĠMar k
zÃ ©ket
Ġkeny eret
k avi
jÃ ¡Ã©rt
szÃ ³r
ĠfÅ±tÃ©s i
³ f
ĠrÃ¶gzÃŃt i
ĠTer Ã©z
Ġkoncerte t
Ġcsapat unk
ĠjanuÃ¡r ban
ĠÅĲ t
ĠhÃ¡zi orvos
ĠT em
ĠNap i
ĠrepÃ¼lÅĳ tÃ©r
Ġteremt eni
ĠsebessÃ©g gel
ĠkÃ¶rnyezet Ã©ben
Ġbron z
ĠlÃ¡tog atÃ¡sa
ĠszÃŃnp adi
Ġb un
ug r
g yÅ±rÅ±
ĠlÃ©g zÃ©s
Ġsti mu
ven dÅĳ
l ar
Ġkor ong
ĠtÃ¡rs keresÅĳ
Ġhib Ã¡kat
D K
ĠvezÃ ©ny
Ġal Ã¡z
szolgÃ¡lt atÃ¡si
Ġkis zÃ¡l
Ġfenntart Ã
al d
ĠlaboratÃ³ri umi
ĠmegnyitÃ ³
ĠszÃ¡m mal
ĠszÃ¡m okat
ĠkÃ¶zel jÃ¶vÅĳ
ĠG a
od dal
hajt Ã¡s
ce ll
¶ vÃ©
Ġcsend ben
ĠvilÃ¡g nak
ĠSe nki
Ġnor vÃ©g
port Ã¡l
Ġki felÃ©
at s
e ladni
vizsg a
Ġelismer Ã©s
S za
Ġ elcsÃ
Ġb ut
ĠA udi
Ġismert etÅĳ
Ġmegoszt ani
ĠtÃ¶r li
ĠKup a
Ġem lÅĳ
ĠlegÃ©rdek esebb
ĠÃ¡r ajÃ¡n
Ġtisztelet Ã©re
ĠfÃ©ny Ã©ben
ĠI X
Ġnye lve
Ġlist Ã¡n
ĠXX I
z am
Ġor sÃ³
ĠismÃ©t elt
e dett
ĠnÃ©z d
l szak
Ġv oks
ĠmegerÅĳsÃŃt ette
Ġf an
Ġten den
Ġigyek szem
Ġkib Åĳv
ĠÃ¶sszeÃ¡llÃŃt ott
e lszak
Ġt obb
ĠÃ©rtÃ©k papÃŃr
ĠhajÃ ³k
ĠMÃ¡r k
em elt
ĠvÃ¡lasz a
h Ã©n
ap s
Ġbar okk
ĠnÃ© mely
Ġegyen letes
format ikai
Ġtud janak
ĠV II
jÃ¡tÃ©k ok
ou nt
ce i
ig h
ere i
ĠlegmegfelelÅĳ bb
ĠS ky
ĠÃ©rvÃ©ny ben
j es
eg Ã©ny
Ġalkalm atlan
ĠI G
ver Ã©s
ĠgyÅ±jt e
Ġkifejleszt ett
Ġvon ult
Ġenergi at
ĠM P
Ez utÃ¡n
Ġsz ekciÃ³
rol l
ĠN Åĳ
Ġtud nÃ©k
ĠelÅĳ kÃ©szÃ¼let
Ã¡rs ak
ĠtulajdonsÃ¡g a
Ġh ul
Ġmer Ã©ny
Ġmegbeteg edÃ©s
Ġhat nak
ĠlÃ¡ny t
ĠhÃ¡zas pÃ¡r
iz mu
ri ve
r eszt
ĠbelÃ©p Ã©s
ĠkÃ¼ld jÃ¶n
Ġteg napi
ĠÃ¼d vÃ¶z
Ġeset re
Ġkiszolg Ã¡lÃ³
Ġagy on
ĠP ol
ĠR ud
Ġzeneszer zÅĳ
ĠL og
ajÃ¡n dÃ©k
Ġneheze bben
Ġhar ci
Ġleg d
ĠrÃ ¶nt
Ġtest re
Ġegy Ã©nek
ĠAmer ika
Ġgy Ã¶t
ĠeurÃ³ t
ĠkorÃ¡nt sem
Ãīr demes
ĠelÅĳ adÃ³k
ĠtÃ¶rtÃ©ne lmÃ
ĠM u
ru hÃ¡z
Ġkont raszt
Ġpanasz okat
sÃ ³g
ĠszÃ¡rmaz nak
Ġelmond ja
ĠÅĳ szÃ©n
¶ lÃ©se
ĠvÃ¡g juk
eze i
nÅĳ k
ĠP Ã¡p
ĠelÅĳ irÃ¡ny
Ġverseny kÃ©pessÃ©g
Ġhajt Ã
©v Åĳk
feltÃ©t ele
agy i
ĠkiÃ¡llÃŃtÃ¡s on
Ġmot ort
Ġmint Ã¡t
kÃ©ny szer
Ġtit kÃ¡r
Ġmeg Ã©rte
Ġmente sÃ¼l
ĠGy Ã
Ġki ab
ĠHat Ã¡r
Ġhazug sÃ¡g
ĠjÃ¶v Åĳt
seg Ã©ly
ĠT al
s zfÃ©r
n ab
kÃ¼l dÅĳ
Ġmegter he
Ġell op
ĠÃ©l i
ĠInnovÃ ¡ciÃ³s
ĠkellÃ©k szavatossÃ¡gi
Ġszorong Ã¡s
Ġfot Ã³z
Ġnevez ni
ĠelÃ ©nk
ĠgyÃ³gy tor
Ã¡r Ã
vet Åĳen
Ġvele tek
ge ner
Ġmegfele lni
Ġpr omÃ³
s ak
ĠCs ap
lt ak
ĠlÃ¡b Ã¡t
ĠazonosÃŃt ani
f Ã¡nt
zen dÅĳ
Ġnap ilap
ĠlÃ©p t
Ġhoz hat
ĠO k
ĠÃ¼nnep ek
Ġhal lÃ¡s
ĠÃ¡t adott
s am
ĠtevÃ©kenysÃ©g Ã©nek
ĠtalÃ¡lkozt unk
ĠbecsÃ ¼lt
Ġmatemat ika
Ã¼let i
ĠS tor
Ġ19 50
Ġ6 3
ĠD Ã©nes
ĠvezÃ©r igazgatÃ³ja
ĠVÃ ©
ĠkÃ¡vÃ© zÃ³
Ġi dÃ¡ig
ĠS vÃ©d
ĠCsak hogy
Ġvegy Ã¼k
at hatja
m app
bb al
ĠellenÅĳr zÃ©si
ĠkormÃ¡ny rendelet
ĠÃ©rvÃ©nyesÃŃt Ã©se
Ġmondani valÃ³
ĠkÃ©pvis elte
ĠÃģLTAL ÃģNOS
ĠfÃ¡jd alm
r atÃŃv
ĠValÃ³ ban
ĠB att
ĠhÃŃr eket
ĠpÃ©n ze
Ġhekt Ã¡r
Ġ7 7
ĠÃºt nak
Ġkomb inÃ¡lt
l aszt
m mel
ukle Ã¡ris
Ġindult ak
ĠjelentÅĳ sebb
ĠÃ¡rt atlan
Ġnyar al
lin i
G B
ĠszemÃ ¼nk
ĠK u
ĠTan ulmÃ¡ny
ĠÃ©ghaj lat
Ġp lety
ĠW il
Ġismer ni
ki adÃ³
ĠbekezdÃ©s Ã©nek
fog Ã¡s
ĠvalÃ³ t
Ġst adion
ik ar
bud ai
b Ã¼ntetÃ©s
Ġtart sa
Ġbetekint Ã©st
p ri
Ġtud jÃ¡tok
h os
ĠA R
Ġpul zus
ĠszÃ³l ni
bÃ¶ zÅĳ
Ġkab Ã¡t
zÃ ´
Ġhely Ã©be
il iszta
ebb ek
ĠfÃ¼ le
Ġ elszak
Ġpezs gÅĳ
Ġcsap att
Ġbolt ban
Ġbelt Ã©ri
ĠkÃ©p zÃ©sek
ĠorszÃ¡g bÃ³l
Ġs ap
Ġtart ozÃ¡s
Ġsz okt
ĠazonosÃŃt hatÃ³
Ġhagy d
Ġtit okban
Ġlelkes ed
Åĳ ri
ĠkÃ¼ld Ã¼nk
Ġ eladni
Ġalg oritmus
Ġl ang
Ġtizen egy
ĠÃ¡llÃŃt ottÃ¡k
Ġvissz any
ĠSzabad sÃ¡g
Ġvesz ek
ĠÃ¡tmÃ©rÅĳ jÅ±
ĠbÃ¡r Ã¡ny
ĠReg ionÃ¡lis
v inni
B er
ĠadatkezelÃ©s t
Ġt at
ĠÃ¡t Ã©l
ĠMe l
lÃ ¡ba
ĠlÃ©g kond
ĠhÃŃv ni
Ġkedvez mÃ©nyt
Ġ19 44
Ġkol lagÃ©n
ĠE nter
Ġmened Ã©k
Ġgaran c
ĠtÃ©r sÃ©gben
Ġkeze t
Ġfegy vert
Ġtagja it
Ġame ddig
Ġvitt Ã©k
Ġkor i
ĠadatkezelÃ©s sel
ĠkÃ¶ ti
ĠbÅ± ne
Ġ kval
m b
ĠÃī V
Ġkialak ul
rÃ©sz rÅĳl
Ġtud junk
ĠÃ©rt ettem
ĠÃ¶sszet Ã©telÃ
Ġmegfigyel hetÅĳ
elle mes
ĠP tk
©le sebb
% ,
Ġszer elÅĳ
Ġterem tÃ©s
ĠO ly
ĠbefektetÅĳ k
ĠkiÃ¡llÃŃt Ã¡st
ĠfelÃ©p ÃŃtÃ©se
P ro
ĠelÅĳ szeretettel
Ġlog ikus
o dÃ¡sÃ¡t
intÃ©z mÃ©ny
hes sÃ¼nk
ÃŃt hatatlan
ul d
Ġadat Ã¡t
ĠhajtÃ ³
csep p
ĠcsÃ¶kkent ik
ĠmegtalÃ¡l hatÃ³k
ĠÃ©r vel
ĠÃ¶r vend
ch o
ĠRo ck
ĠJak ab
ĠbeszÃ©l hetÃ¼nk
Ġesete t
Ġtor n
ĠkÃ©r ek
ĠtÃŃp usok
rÃ¡ciÃ³ t
is zi
ÃŃ me
szÃ ©
ĠFÃ©r fi
keres Ã©s
Ġu ra
ikÃ ¡kat
Ã ¡jÃ¡n
ĠÃ©j fÃ©l
ĠbiztonsÃ¡g Ã¡t
ĠF ed
av er
ĠtermÃ©szet e
f okon
Gy akor
ĠtÃºl menÅĳ
ĠÅĳri zet
Ġjele zni
Ġkuty Ã¡t
ĠAz zal
jai rÃ³l
ei bÅĳl
Ġgy anak
mode ll
ĠM aj
Ġrette net
ĠmegkÃ¶zelÃŃt Ã©s
is ak
ĠszÃ¡zalÃ©k ra
ĠcsinÃ¡l ja
Ġme di
ĠproblÃ©mÃ¡k kal
hasznÃ¡l ati
ĠmunkatÃ¡rs ak
osÃŃt Ã¡sa
ĠElÅĳ re
Ġkeres Ã©s
¡ inak
Ġfelt Ã¶ltÃ¶tt
ĠGy erek
Ġazok on
Ġmegismer Ã©se
zÃ©s Ã©ben
ĠbejÃ¡r at
ĠE K
ĠEr ika
ĠB ert
ad jÃ¡k
nÃ ¡ba
ĠÃ©letmÃ³d ot
ĠDe Ã¡k
¶kÃ¶ t
Ġfokhagy ma
Ġgaland fÃ©reg
Ġmed iterrÃ¡n
ĠszindrÃ³ ma
Ġboldog an
Ġf okon
V e
ĠformÃ¡ jÃº
¶ mÃ
sÃ©g tÅĳl
ing s
ĠosztÃ¡ly os
s zar
Ġfi zett
ĠÃĸNK ORMÃģNYZAT
Ġbetege t
Ġered mÃ©nnyel
Ġgyalog os
Ġismere tÃ©ben
ĠpÃ©n zÃ©rt
ulÃ¡s ra
Ġalap szabÃ¡ly
Ġgondol kodÃ³
gÃ©p ek
Ġoper a
ĠmÃ©r lege
Ġn on
ĠmegmÃ©r ette
zÃ©s eket
ked het
ĠÃ©r ik
Ġregener Ã¡lÃ³
ĠkielÃ©g ÃŃtÅĳ
Ġir igy
rÃ¡n t
ÃīS E
Ġszalag fÃ©reg
ĠÃ¡ldoz atok
ĠSzeret e
rÃ¶v id
ĠszabÃ¡ly talan
jÃ³ lÃ©ti
ĠÃŃr om
Ġmegtud ni
Ġpap ÃŃrt
osÃ ¡val
Ġbiz alommal
ĠX L
kÃ©p zÅĳdÃ©s
meg Ã¡llap
nÃ ©vel
li e
K ovÃ¡cs
it z
i kÃ©n
Ġtart almas
ĠHe ves
ĠbÃ©r let
ĠlÃ©t ezÃ©s
Ãĸ t
Ġmegt ett
opti mal
P edig
Ġki Ã¼tÃ©s
Ġindokol atlan
Ġg Ãº
ĠszÃ³rak ozÃ¡s
problÃ© mÃ¡k
ĠbocsÃ¡t ott
Ġ19 60
ĠtÃ¡rs ulat
felÃ¼let e
c y
ĠvÃ¡laszt jÃ¡k
ĠteljesÃŃtmÃ©ny Ã©t
ĠregÃ©ny e
RÃĵ P
ĠhagyomÃ¡ny osan
Ġfiatal okat
it Ã¡si
Ġ etikai
Ġelhelyez kedÅĳ
d c
V H
Ġgyermek kor
Ġch ip
m ati
ĠC as
Ġp ult
ĠÃ¼ze netek
ĠtulajdonsÃ¡g ai
csÃº cs
ĠbeszÃ ©lÅĳ
Ġmi Ã³ta
talÃ¡l kozÃ³
hÃŃ d
szÃ¼k sÃ©g
ĠÃ¡l lÃ¡sa
ĠemlÃ©k eztetÅĳ
ĠgazdÃ¡l kodÃ¡s
ĠmÃ©re tek
nyÃŃ lÃ¡s
Ġhaj szÃ¡l
Ġtr adicionÃ¡lis
okÃ ¡t
ĠadÃ³ be
B O
ĠJ on
Ã ¶vÃ©
Ġszub jektÃŃv
Ġr oz
Ġkor ona
ad ar
x it
Ġismert em
ĠleghÃŃr esebb
ĠFig yelem
Ġ5 9
Ġolt Ã¡s
ĠidÅĳ sek
Ġharc ot
atÃ¡sÃ ©rt
ĠbÅĳ rÃ¶
ĠvalÃ³s ult
oter Ã¡pia
ĠÃ¡t venni
Ġolyan nyira
Ġg ig
ĠivÃ³v ÃŃz
¼g ye
Ġb anda
Ġold ani
Ġajt Ã³k
Ġfiz i
Ġf onal
Ġjegy zet
ĠkÃ©ny elem
Ġizg atott
ĠT akarÃ©k
Ġszt rÃ¡j
ĠKollÃ©g ium
ĠidÅĳ rÅĳl
csÃ¶kkent Ã©s
Ġkezdet Ã©n
ke ll
Ġlehet s
ĠgyÅĳ zÅĳ
Ã³d ik
ĠegÃ©sz sÃ©gÃ©t
ĠkÃ©p i
E ddig
ĠmegszÃ¼nte tÃ©se
Ġlevele ket
Ġkol ostor
kor szak
ĠajÃ¡ndÃ©k ba
Ġd Ã³zis
Ġalkot Ã³k
an ikus
helyett ese
Ġdarab ok
ĠhiÃ¡ny zott
Ġtart Ã¡s
ĠA K
¡ pr
s im
ĠMas ter
ĠgyÅ± lÃ
K Ã¶r
ĠkÃ¶z be
ĠkilomÃ©ter re
fej lÅĳdÃ©s
i ak
ĠmegÃ¡llap ÃŃthatÃ³
Ġhor ror
ĠBÃ ¶lcs
ĠÃ©rtelme tlen
O lv
ĠfÃ³rum on
Ã ¡pr
ĠHar ry
Ġhang jÃ¡t
eszÃ ©lt
ciÃ³ k
ĠkizÃ¡r t
Ġtav aszÃ¡n
Ġverseny re
ĠEr nÅĳ
Ġszoci Ã¡l
Ġdefin i
kelt Åĳ
S Ã¼
Ġbelv Ã¡r
Ġhal at
ĠkÃ¼szÃ¶ b
ĠW est
ºg y
kÃ©r Åĳl
ĠpÃ¡rhuz amos
ĠH IV
ĠG ra
ĠK od
SzÃ¡m os
Ġelhely ezni
Ġnyom ozÃ¡s
ĠkÃ¶lt Ã¶z
Ġtervez tÃ©k
Ġad va
os od
og e
t eli
Ġenged Ã©lye
Ġkerest em
ud a
ĠRend kÃŃvÃ¼l
hu rt
azd a
Ġelnevez Ã©s
ĠfenntartÃ ³
ĠR TL
Ġmegkez dÃ©s
zÃ¡sÃ ¡bÃ³l
ez se
ĠvÃ¡ros rÃ©sz
Is mÃ©t
fel hasznÃ¡lÃ¡s
³n usz
hÃŃ vÃ³
Ġny akÃ
Ar ra
ĠS emmelweis
ĠkevÃ©s sÃ©
Ġke zÃ¼nk
ĠelÅĳfizet Åĳ
ĠtÃ¡rs ai
ĠtÃ©r ÃŃtÃ©s
t eljesÃŃt
Ġf od
zÃ¡ lÃ¡s
Ġgy Ã¡m
Ġele je
ĠjellegÅ± ek
ĠmegkÃ¶ tÃ¶tt
Ġ8 6
ĠÃīp ÃŃt
ĠvirÃ¡g ok
ĠMÃ¡r ta
ĠgÃ©p i
Ġfut ni
f c
lt on
ĠD R
Ġment i
g alom
Ã©rtÃ©ke lÃ©s
ĠhÃ¶lg yek
ĠtermÃ ©
Ġki oszt
Ġcsatlak ozik
Ġfut ami
fe lmÃ©r
ĠÃ¡t adÃ¡sa
Ġspe cial
E s
ag a
f y
vit Ã¡s
Ġfa hÃ©j
ĠirÃ¡ny ÃŃtja
uk k
Ġmelle sleg
Ġmagyar Ã¡zta
Ġnagy vÃ¡ros
Ġellen sÃ©ges
al kat
ĠszÃŃn Ã©szek
ĠkÃ¶zÃ©let i
Ġvolt a
Ġkar csÃº
ĠrÃ ¶p
nete l
ĠvÃ¡ros ba
ĠÃ¡ll atokat
Ġelme nni
ong rÃ¡d
Ġtext il
Ġ8 8
jelent Ã©s
Ġszakasz ban
and ra
ĠU g
gaz mus
ĠnÃ©v telen
ĠhozzÃ¡ Ã©rt
ĠszakkÃ©p esÃŃtÃ©s
ĠsÃ¼t emÃ©ny
ny Ã¡j
ĠL Ã©ny
ÃŃt Ã¡sÃ¡ban
zÅĳdÃ©s e
ĠkÃ©pessÃ©g Ã©t
ĠfeltÃ¶lt Åĳ
M SZ
ĠS zÃ¡r
ĠtÅ± nnek
unk hoz
polit ikÃ¡
ĠH Åĳ
mest ert
ĠcÃ©g Ã¼nk
kÃ¶ze li
arch ia
Ġref lek
ĠT ulajdon
ĠVidÃ©k fejlesztÃ©si
Ġol csÃ
n isz
m iskol
ĠmÃ¡gnes es
Ġvisszasz or
ĠkÃ©s le
V Ã¡l
ĠhÃŃ g
Ġviszket Ã©s
Hor vÃ¡t
Ġutc Ã¡ra
Ġfolyam atÃ¡t
Ġmely bÅĳl
Ġp ere
ĠeredmÃ©nye kÃ©ppen
Ġle ir
Ġbit coin
Ġbe vÃ©telek
Ġtit eket
©g yen
iszt enc
ĠbeÃ©r kezett
ĠszÃ¼ksÃ©g let
rÃ¡ny i
ĠkÃ©szÃŃt Ã©s
g Ã¶r
Ġ ef
ĠnyÃŃlt an
Ġfel jebb
Ġhely eztÃ©k
Ġlehets z
ĠfelhasznÃ¡lÃ³ t
ĠtÃ¡mogatÃ¡s sal
vÃ©ny es
Ġhajn ali
vezetÅĳ i
sÃ¡g rÃ³l
Ġszer dai
ĠegyÃ¼ttmÅ±kÃ¶dÃ©s t
Ġbale setek
Ġfontos sÃ¡gÃ¡t
vÃ ³t
ĠSZAB ÃģLY
Ġere jÅ±
vÃ©g ig
akÃ ºgy
Ġmasz k
het ne
ĠminimÃ¡l bÃ©r
Ġalkalmaz nak
ĠdÃ¶ntÃ©s hozatal
ĠtÃ ©p
het sÃ©g
ĠkÃ©szÃŃt enek
vÃ ¶n
ĠS vÃ¡jc
Ġkomp akt
ĠÃ©rd emel
Ġakk redit
ĠemlÃ©k mÅ±
Ġorosz lÃ¡n
Ġtr ad
Ġszervezet be
Ġcsatlak ozÃ¡s
ĠfelhasznÃ¡lÃ¡s ra
Ġked velÅĳ
ĠimmÃ¡r on
kÃ¶vet kez
ĠtÃ¡l al
ĠÃĸnkormÃ¡nyzat i
J Ã³l
ĠproblÃ© mÃ¡val
N Ã©p
Ġfoglalkozt atÃ¡si
ĠÃ©lettart am
Ġsoroz ata
Ġkiter jedt
ĠkÃ¶zÃ ¶lni
ĠtÃ¡jÃ©kozt atta
ĠbeÃ¡llÃŃt ott
Ġvis elt
ĠtÃºlny omÃ³
v esszÅĳ
r ov
ĠterÃ¼let Ã©t
ĠrÃ©g Ã©szeti
omb aton
ĠÃ¼tem ben
Ġtor ny
Ġmegmond ani
ĠSzÃ ¡l
ĠbÃŃ bor
Ġsmin k
ĠtÃ¡r olni
ĠFÃ³r um
asz i
ĠFran k
ĠtÃ¡rsadalom ban
olt uk
intÃ©z kedÃ©s
Ġlak berend
Ġ; )
ĠD er
ĠB Ã¡t
ĠkÃŃsÃ©r i
von at
ĠÃīle lmiszer
ar ra
hett Ã¼k
ĠelvÃ¡r hatÃ³
ess ion
ĠpÃ³t lÃ©k
Ġlegal acsonyabb
ĠR os
ĠmÃ³d os
ĠM Å°
n incs
ĠplÃ© bÃ¡n
Ġegye sÃ¼l
Ġug r
Ġkifej ezÃ©st
ĠmegsÃ©rt Ã©se
ĠfelsÅĳ fokÃº
ĠEgy szerÅ±
hat na
helyzet ben
Ġmegmut atni
l vÃ©t
Ġ Ã¶vÃ©
sza kÃ©rt
ĠazonosÃŃt Ã¡sa
ĠmÃ Ńt
ĠS Ãºly
ĠlÃ©t ezett
ĠGab ri
tart alma
Ġfog lalÃ³
ĠkÃ¶zt ud
k emping
ĠL os
Ġker este
ĠDebrecen ben
ĠlÃ¡thatÃ³ k
ink ben
ĠidÅĳszak a
Ġkony hai
ĠkÃ¶zvet ÃŃt
Ġfej em
Ġszint jÃ©t
¶kke nÅĳ
ĠÃ¡llapot Ã¡nak
Ġlelki ismeret
ĠLond onban
ĠkizÃ¡r Ã
ĠÃŃtÃ©let e
Ġmind hÃ¡rom
Ġi ma
e lkes
Ġmegtekint Ã©se
ÃŃtÃ©s sel
ĠV III
ĠtÃ¶rvÃ©ny javas
zÅĳ t
Ġh em
Ġfizikai lag
ĠÅĳ rÃ
Ġ7 8
ĠsegÃŃt ette
ĠPolgÃ¡rmester i
Ġ8 4
ĠmegerÅĳ sÃ¶
ĠnyÃºjt ja
ĠEgyesÃ¼let e
verseny e
vÃ ¶lt
ĠÃ©g Åĳ
Ġmond hatjuk
Ġhely ezte
Ġki vÃ©g
u le
ĠB os
ĠelÅĳford ult
Ġgondol unk
ĠX VI
Ġcsill ogÃ³
l ux
Ġhajt ott
Ġbejegy zett
Ġli mit
ĠbetegsÃ©g ben
Ġle tÃ©t
Ġked vet
Ġfor mai
ak er
ĠkizÃ¡rÃ ³
Ġv ezett
ĠD ÃŃ
ant Ã©n
rÃ¡ny ÃŃtÃ³
me ny
ĠvÃ©grehajt Ã¡sa
ĠAuszt ria
nap ja
ĠBÅĳ vebben
ĠkÃ¶z li
ĠellenÅĳr zÃ¶tt
ĠbÃºtor ok
ĠkÃ¶ny vel
ly Ã¡s
ĠD igitÃ¡lis
ĠÃ©l ve
ĠfelnÅĳtt eknÃ©l
Ġolvas om
Ã¶rÃ¶ kÃŃt
Ãī Z
Ġszervezet nek
Ġagy ag
Ġfog ak
ĠmÃ³dosÃŃt Ã
olg Ã¡lt
Ġsze nd
ĠÃºjra ind
Ġle fogy
u um
ĠT our
A hhoz
Ġharmon ikus
Ġfoglalkozt atÃ³
ĠegyÃ¼ttmÅ±kÃ¶ dve
ĠhÃŃv Åĳ
ter vez
Le ÃŃrÃ¡s
ĠhozzÃ¡ Ã¡l
ĠÃ¼gy let
Ġszeret jÃ¼k
Ġfontos sÃ¡gÃº
Ġmegne hezÃŃt
Ġmegtart ani
Ġhor dÃ³
Ġkapcsolatt art
Ġ18 48
ĠEgyetem i
Ġsiv atag
ĠmÃ³dosÃŃtÃ ³
ĠMi che
ĠEzen kÃŃvÃ¼l
Ġki finomult
ĠtÃŃp usÃ¡t
lg y
Ġgond ok
ĠfoglalkozÃ¡s ok
Ã ¶g
Ã¼ nnep
Ã¡z ati
lmÃ ©let
w eb
ĠtÃ¶rek vÃ©s
ĠtanÃ¡cs okat
ĠFog lal
Ã©ri uma
olÃ³d nak
Ġprogram okkal
ĠformÃ¡t umban
ĠM is
tele nnek
Ġp okol
bÃ ¶z
ĠÃ©s szerÅ±
ĠAnnyi ra
op h
ĠH Ãºs
Ġtiszt viselÅĳ
e hÃ¡t
ĠÃ¼zem i
Ġdecember ben
b l
Adat vÃ©delmi
ĠS T
Ġbetart Ã¡sa
b ek
Ġmos dÃ³
Ġalkot Ã¡sa
d Ã¼nk
ĠÃ¶rÃ¶kbe fog
Ġarc on
ĠzÃ¡log a
kod Ã¡st
ĠritkÃ¡bb an
Ġkan cellÃ¡r
T iszt
Ġgumi ab
ĠhÃŃv ott
kÃ©szÃ¼lÃ ©k
ĠtÃºlmenÅĳ e
Ġfilm eket
ĠbÃ¡t y
ĠtÃºlmenÅĳe n
Ġtem pÃ³
ĠfÅĳ polgÃ¡rmester
Ã³t Ã³l
ĠK ER
ĠhirdetÃ©s eket
for gÃ³
©mÃ¡n t
ĠpÃ³t olni
hal Ã¡l
Ġlin ken
L A
Ġjelentkez het
csÃ ¡k
ĠnÃ¶veked Ã©sÃ©t
Ġkarakter ek
Ġr iv
ĠinterjÃº t
ĠvÃ¡llal unk
ale nt
ĠJ uli
Ġbor ok
ĠÃ©szre vÃ©t
Ġmedit Ã¡ciÃ³
Ġbele vÃ¡g
Ġstart up
n cs
ĠBe teg
Ġ6 1
ĠfejlÅĳ dÃ¶tt
Ġismerte tÃ©se
ĠrÃ©sztvevÅĳ i
ĠkÃ¼lÃ¶nbÃ¶ zte
ĠcsÃŃ k
ĠrÃ©sz leges
ĠC ookie
Ġb ogy
E hhez
Ġkreativ itÃ¡s
Ġszakasz a
Ġalap ok
Ġez ren
ĠÃ©l mÃ©nye
t ehÃ¡t
t atja
ĠÃ©let Ã¼nkben
iÃ³ t
Ġelv Ã¡rt
ĠMag azin
eszt Åĳen
Ġleg siker
Ġto le
Ġgi ardiasis
ĠlegolcsÃ³ bb
o j
ĠsportolÃ³ k
ĠtalÃ¡l mÃ¡ny
Ġa ug
ĠSzerzÅĳdÃ©s i
eszÃ ¼lt
lik k
Ġtelep ÃŃtett
Ġillesz kedik
p Ã¡l
ag on
f b
csab ai
ĠpÃ¡ly Ã¡t
Ġren eszÃ
Ġkut atÃ¡sa
Ġtiszt Ã¡z
ĠhÃ¡z ast
ĠbeÃ¡llÃŃt Ã¡sa
ĠÃ©rt ed
Ġegy ikÃ¼k
ĠmÃ¡jus ban
ĠG B
Ġlegend a
ĠK ul
Ġszer kezeti
zÃ¡r Ã³lag
Ġjavas l
ĠjÃ¡r ul
ĠszÃ¡m lÃ¡k
ĠM unk
Ġellen sÃºly
ĠM OL
Ã ³nak
ĠrÃ¡ ford
Ġtem pl
Ġfelismer ni
ĠsugÃ¡r zÃ¡s
Ġrendelkez ett
e tikus
ĠmÃ©rt e
ĠkÃŃ sÃ©re
up Ã¡n
ĠvÃ©r zÃ©s
ĠT Ã©g
Ġkony h
ĠmegkÃ¶zelÃŃt hetÅĳ
ĠK omÃ¡r
NY V
Ħ ¢
Ġforr Ã¡st
ĠrÃ¡k os
Gy ors
ĠmÅ± emlÃ©k
z Ä±
Ġcsoport ot
ĠSzi lÃ¡rd
Ãľ g
Ã¡s pÃ¡r
ill an
ĠkÃ©r ik
Ġforgalom ban
ĠelÅĳÃŃr Ã¡soknak
ĠintÃ©zkedÃ©s t
ĠkapcsolÃ³ dnak
Ġkapsz ula
ĠP Ã©l
ĠkÃ¶zÃ¶s sÃ©get
ford ulhat
Ġvall omÃ¡s
Ġenerg iÃ¡
v Ã©rt
________ ________
Ġnagy ra
Ġs ark
Ã¶ss z
H asz
y ar
Ġutas ok
ĠsÃ¼tÅĳ t
fog lalÃ³
Ġjog erÅĳs
lab da
Ġhajnal ban
em atikus
ĠC XII
Ġj anu
ĠbÅĳ sÃ©ges
ĠkÃ©nye lmi
ĠigÃ©nybe vÃ©tele
ver Åĳ
t szett
hÃ¡z as
Ġc Ã©r
an kÃ©nt
ĠelÃŃt Ã©lt
foly Ã
del me
Ġhe ves
Ġg Ã¶rÃ
ĠÃ¡t vÃ©tele
ĠellÃ¡t Ã¡sÃ¡ra
ĠI TT
sÃ©g em
or og
ĠÃŃz ben
Ġb om
ĠfolyÃ³ sÃŃt
o val
Ġap Ã¡m
b rÃ¡n
folyÃ ³
ĠX XX
st ÃŃl
Ġfoglalkoz unk
Ġ klÃ³
Ġmele ge
Ġkol b
b be
Ġterem tÅĳ
Ġhalad va
f ris
ĠfelszÃŃ vÃ³
Ġpubli kÃ¡l
O GY
Ġfel ke
Ġsz ponzor
ĠUniver s
Ġmos ogatÃ³
ĠÃ¶ngy ilkossÃ¡g
okÃ ¡lis
h ess
Ġhar ap
Ġmegf ertÅĳ
Ġharc os
ro ham
ĠpÃ©l dÃ¡ja
ĠÃ¡t hal
st rong
ĠrÃ©sz vÃ©t
ĠvarÃ¡zs latos
ĠifjÃº sÃ¡g
Keres Ã©s
adÃ ¡ban
Ġelmond ani
Mi re
ĠE B
ĠkÃ¶ny Ã¶k
op Ã
ĠfelhÃŃv ni
ĠÃĸssz esen
ab Ã©t
alkot Ã¡s
Ġsemmi kÃ©ppen
lÃ© c
Ġint im
okt atÃ³
ĠGe orge
ark tus
Ġkukor ic
Ġkicser Ã©l
Ġnor mal
b es
a hol
ly a
Ġliszt e
Ġkere sÃ¼nk
ĠcsalÃ¡d nak
ĠszolgÃ¡l ni
ĠvilÃ¡g ba
ak bÃ³l
Ġmered ek
Ġkrit ika
Ġle szÃ¡mÃŃtva
er eket
ĠmÃº ze
ĠszolgÃ¡ltatÃ¡s aink
Ġtor ta
Ġteszt ek
ĠerkÃ¶l cs
Ġmeg mozd
ĠkÃ¶teles ek
ĠnÃ©zÅĳ pont
sÃŃt Ã©sÃ©t
om ot
Ġtag sÃ¡g
vÃ ³dik
Ġegy sÃ©get
ĠFig yel
Ã¼s sze
Ġagy i
Ġrajt unk
N o
Ġ8 9
Ġ Ã©hes
Ġsor sÃ¡t
Ġsor ba
Ġb oszorkÃ¡ny
ĠrÃ¶ hÃ¶g
ĠAn gel
l nyom
ĠCent er
ĠrÃ³z sa
b oly
ĠkÃ©z ben
Ġgyakor olni
ĠEng em
Ġfokozott an
Ġ kac
ĠkÃ¶rÃ¼l mÃ©nyei
h ite
Ġnagy vÃ¡llal
ĠfeszÃ¼lt sÃ©get
Ġbejelent kezÃ©s
Ġrendel hetÅĳ
ĠhalÃ¡l ra
ĠkÃŃvÃ¡n atos
ĠEs z
h r
Ãĸ S
Ġt um
ci pÅĳ
in fo
Ġfej jel
Ġtan Ã¡csÃ
Ġmint hogy
ASZ N
¶kÃ©let es
Ġ Ã¡pr
Ġp us
Ġ mapp
ĠcsÃ ³nak
s ug
ĠA B
ĠK re
Ġn oszt
Ġany Ã¡k
ĠfogyatÃ©k os
olÃ³g iÃ¡t
Ġrendel ni
ĠmagyarÃ¡z za
Ġv ez
ĠszÃ©les kÃ¶rÅ±
ĠvÃ©l hetÅĳen
ĠB KV
ĠautÃ³ pÃ¡lya
Ġser dÃ¼lÅĳ
ĠKÃ¶zÃ¶s sÃ©gi
Ã©n ak
ĠfÅĳ z
ĠSzi lÃ¡gyi
Ġ1 01
ĠÅĳr zi
Ġbefej ezÃ©s
Ġre d
ĠkÃ¶lt sÃ©gÃ©t
fÃ© lÃ©
szabadsÃ¡g rÃ³l
Ġfelt Ã©rkÃ©p
ĠG rand
ĠtÅ± zi
ĠrÃ¡jÃ¶tt em
Ġszeretete t
vÃ¡r ium
Ġd ag
Ġne vek
ĠP ower
Ġ8 2
ĠmÃ©rsÃ©ke lt
ĠidÅĳjÃ¡r Ã¡si
Ġlog isztikai
it Ã¡sÃ¡t
Ġmaguk kal
Ġer Ãµ
e cset
csÃ¶kken Ã©s
Ġfel vÃ¡lt
K on
kÃ ³k
ĠfotÃ³ kat
ĠG reen
e lnyom
Ġal polgÃ¡rmester
ĠhelyszÃŃn re
omÃ ¡t
ĠI R
Ġkeszt yÅ±
Ġ krump
ĠhÃ³nap ot
t Ã©ren
Ġfenntart ani
Ġvitamin ok
Ġnyom ja
ez dÅĳ
Ġfris sÃŃtÃ©s
c ke
vÃ© vel
Ġfelad atait
u alitÃ¡s
ĠmÃ©lt Ã¡ny
¡ns z
200 1
Ġmegjegy ezni
Ãľg y
ĠkiadÃ¡s ok
ĠkÃ¡l ium
Ġleg felsÅĳ
Ġfog ott
ĠbÃ ¶g
ĠmaradÃ©k talanul
zÃ¡sÃ ¡val
Ġdolog ra
Ã©r Ã©s
ĠbetegsÃ©g eket
ĠtÅ±n het
ĠP esti
Ġele jÃ©tÅĳl
ĠÃ¡ll ok
moder nebb
ĠfÅĳ Ãºt
Ġany Ã¡m
ĠvÃ©r Ã¡ram
pt e
Ġ12 00
ĠÃī pp
Ġvett Ã¼nk
Ġ elkes
Ġbu kÃ¡s
vÃ ¶k
Ġl az
VI D
ĠfÃ³k usz
h ossz
n st
ĠM os
Ġrendelkez Ã©seit
Ġlog ikai
ĠirÃ¡ny ul
pÃ ¡
Ġb omb
Ã¡lt uk
ezte tÃ©st
Ã¡ly os
an Ã¡k
Ġtervez i
almaz za
vÃ©g re
Ã©sz i
ĠorszÃ¡g ba
ut c
tit kÃ¡r
ĠrÃ©s zen
Ġkozmet ikum
Ġb ajt
B or
Ġkar di
ĠkÃ¼l vilÃ¡g
Ġgyermeke i
ĠgyÅĳ zÃ¶tt
Ġmi r
ĠorszÃ¡g szerte
ha jÃ
ĠB on
Ġtesz ek
Ġhelyzet ek
Ġgyull adÃ¡sa
ĠszimbÃ³l um
ĠhasznÃ¡lt ak
Ġkit ett
ĠU gye
Ġfor rÃ¡sÃ
ĠjavÃŃt Ã¡sÃ¡ra
Ġirod ai
ĠjÃ¶vÅĳ beli
Ġc ol
tr on
ĠsegÃŃt sen
Ġsor ok
ĠM r
ĠmegÃ¡llap ÃŃtotta
Ġmegjele nte
Ã¼k nek
ĠkÃ¶zÃ©ppont jÃ¡ban
¡lÃ¡sÃ ¡t
ĠzÃ¡r ult
ĠigazsÃ¡g Ã¼gyi
ĠmÃ©r hetÅĳ
Ġf emin
ĠKr istÃ
kÃ¡ i
Ġpszich Ã©s
ĠÃģl lÃŃt
vit ele
Ġmegvan nak
Ġlel ket
Ġalap jait
Ã©r zÃ©ke
Ġ7 1
Ġszabad ul
ĠvetÃ©l kedÅĳ
Ġelny erte
nÃ ¶m
Ġmunka Ã¼gyi
ĠkivÃ¡laszt ani
ĠidÃ© zett
Ġbele fÃ©r
ĠgyanÃº ja
ĠfelszÃŃn re
Ġh in
ĠtermÃ©ke i
ĠkÃŃnÃ¡l ja
ĠkÃ©s zte
Ġb ag
Ãĵ K
ĠGy Ã¶ngy
Ġcs on
ĠValÃ³ jÃ¡ban
je kÃ©nt
Ġp rÃ©d
ÃŃt endÅĳ
ĠtanulmÃ¡ny ait
Ġtulajdon osok
ĠvÃ©del mÃ©re
Ġegy hangÃº
vÃ ³s
z ia
ĠmÃ ¡t
Ġmeg Ã©pÃŃt
Ġkli ens
ellem zÅĳ
ĠÃ¶ssze jÃ¶vet
t Ã¼
ĠigÃ©ny eket
Å± n
d alom
Ġle ad
ĠkÃ¶ze pÃ
ĠtÃºl lÃ©p
Ġsz am
ĠhÃ¡rom szÃ¶g
Ġlej jebb
Ġross zat
ozÃ³ t
Ġdolg okra
ĠnÃ© hol
ĠsegÃŃtsÃ©g re
Ġ3 50
mÃ ¡j
ĠcsÅĳ d
© ber
szÃ ³d
Ġper met
ĠL ov
Ġszakasz on
ĠkÃ©pessÃ©g ek
ĠhalÃ¡ lÃ¡t
ĠGyÅĳ ri
ĠhalÃ¡ lÃ¡nak
ell o
ĠelÅĳadÃ¡s okat
ĠT op
ĠlÃ©g kÃ¶r
Ġgab ona
ĠkÃ¶zvet ett
Ġliszte t
ĠÃ¶sszefÃ¼gg Ã©s
Ġriv Ã¡lis
kori ban
p ozÃŃciÃ³
ĠbÃ¶lcs essÃ©g
D R
Ġal szik
sze mÃ¼
ĠT y
vÃ©telÃ ©re
ĠlÃ¡togatÃ³ ink
Ġdokumentum okat
Ġkomp ozÃŃciÃ³
ĠkiszÃ¡llÃŃt Ã¡s
P Ã¡ly
ĠtovÃ¡bb kÃ©pzÃ©s
200 2
ĠÃ¼gyfele ink
ĠbÅĳ vebb
e lvÃ©t
ĠG Ã©p
ĠNÃ ¡d
Ġszt ere
ĠevangÃ©l ikus
l adÃ¡s
Ġpartnere i
Ġki ak
ĠP olit
ĠnevÃ© hez
ĠjelentÅĳ sÃ©gÃ©t
Ġhagy tam
mÃ ©vel
szÃ¡llÃŃt Ã
ÃŃt hetÅĳ
Ġismer etter
ĠlÃ¡ts z
ĠklÃŃma vÃ¡ltozÃ¡s
ĠÃ¶ssze kÃ¶tÅĳ
ik nak
Ġfelfed ezni
b lok
a uz
alom ra
Ġtur mix
mag azin
ĠFerenc vÃ¡ros
ĠutasÃŃt Ã¡s
Ġ9 8
zÃ³d ott
Ġb akteriÃ¡lis
szÃ¡llÃŃtÃ ³
Ã¡rÃ ³
szer v
Ġap Ã¡t
Ġlegy Ã©l
Ġarc ul
kÃ¼ nket
Ġost rom
Em lÃ©k
Ġut akon
Kapcs olÃ³dÃ³
Ġallerg ia
szinte t
ĠelÃ¡r ul
ĠAd y
ĠkÃ¼lÃ¶n bÃ¶z
elle r
Ġfogam zÃ¡s
ĠA lt
Ugyan akkor
ĠelÅĳad Ã¡sÃ¡ban
A k
ĠD Ã¶nt
Ġcsend esen
Ġfog adtÃ¡k
Ã©n nyel
Ġment or
ĠvÃ¡ltozat ban
Ġ kemping
er vez
J Ã©zus
ve le
] ,
ĠÃ©pÃŃt ettek
ĠirÃ¡ny ÃŃtott
ĠÃŃr Ã¡sok
ĠSzolgÃ¡lt atÃ¡s
ĠcsÃ¼tÃ¶rt Ã¶ki
ĠhatÃ¡roz zÃ¡k
ĠszÃ¡mÃŃtÃ³gÃ©p Ã©n
ĠkÃ¶z gazd
tart Ã¡si
ĠmÃ©d iÃ¡ban
J e
Ġ _
ĠbÅĳr re
Ġjelen sÃ©gek
ĠL ip
ĠhozzÃ¡ adott
ĠtÃ¡jÃ©koztatÃ³ t
t eszt
ĠÃľzem eltetÅĳ
Ġo dÃ¡ig
ĠCor vin
szav az
ĠhatÃ¡roz ata
Ġ mogy
Ġindult unk
at itis
fÅĳ nÃ¶k
C se
ere dett
Ġtiszt ÃŃtÃ¡s
dÅĳ lt
kÃ¶te t
Ġrepr od
ĠtÃ¡ jÃ¡n
Ġal any
Ġbr azil
cs kÃ³
szÃ¼let ett
Ġjavas lom
Ġin k
ĠjÃ³tÃ¡l lÃ¡s
ĠbecsÃ ¼l
lap ok
ĠhajÃ ³t
Ġkar os
Ġkil ogram
eren ciÃ¡t
ĠÃ¶sszer ak
Ġleg modernebb
Â ĳ
ĠelÅĳkÃ©szÃŃt Åĳ
csÃ ¶v
mezÅĳ vÃ¡sÃ¡r
ĠT H
ĠdicsÃ ©r
ĠkedvezmÃ©ny ezett
I r
zÃ ©l
Ġetn ikai
ĠREND EL
Ġutal t
Ġkiterjed Åĳ
mÃ ©lÅĳ
ocs is
Ġ0 2
Ġtulajdon Ãº
in st
ĠkÃ¶tÅĳ dÅĳ
ĠfeltÃ©telek nek
Ġvegy i
u it
ĠhelyreÃ¡llÃŃt Ã¡sa
Ġhelyzet ekben
ĠS he
ĠprÃ³bÃ¡l juk
ĠT Ã¡nc
csÃ ©k
¡m olÃ³
ĠvÃ© deni
Ġmunka kÃ¶r
Ġ miskol
p ot
ĠÃŃ zlet
ĠÃ©rint kez
ĠkÃ¡rty Ã¡t
ĠPart ner
ĠfÅĳ zÅĳ
kedvez mÃ©ny
OR T
Ġblog on
ĠsegÃŃtsÃ©g Ã©re
ĠÃ©vtized ben
ĠkiszolgÃ¡lt atott
al y
w s
h atÃ¡sÃº
ĠÃ¡llat orvos
Ġad j
Ġ elnyom
azek as
iz ont
ĠelsÅĳ bb
ĠbÅĳ re
n Ã©tek
Ġl ik
ĠEr Åĳs
ĠÃ¡llÃŃt Ã¡s
lnÃ¶ ki
l fÃ©r
ĠhagyomÃ¡ny ok
Ġkup on
Ġrep Ã¼l
Ġenged Ã©llyel
al k
Ġadag ot
Ġing ad
Ġmegfele lnek
e lfÃ©r
Ġmut attak
ĠTÃ¶bb ek
ĠEzÃ ºttal
ko csik
Ġmoder ni
Ġtor ok
ĠdÃŃj az
ĠkÃ¶zremÅ± kÃ¶dÅĳ
Ġemlege tett
M ed
Ġl inket
ĠkÃ¶z szolgÃ¡lati
ĠidÃ© zÅĳ
ĠtÃ¡rsadalom mal
Ġszakmai lag
Ġ kavi
Ġok ozni
Ġfigyelm esen
ĠtechnikÃ ¡val
ĠÃ¡t adÃ¡s
ĠS il
lÅĳ t
tud Ã¡s
ĠT Ã¡jÃ©kozt
ĠalakÃŃt ja
ĠmegkÃ¶nny ÃŃti
ĠjÃ¡r at
Ġneme t
ĠC amp
Ã¼lete n
ĠlÃ©leg zet
ĠtÃ©ny t
Ġletiszt ult
ĠkÃ¶zlemÃ©ny Ã©ben
ĠtÃ¡r hely
ĠÃ©lÅĳskÃ¶dÅĳ k
n Ã©t
Ġ moss
Ġutaz ni
ĠTim es
ĠkereskedÃ©s i
Ġfogad jÃ¡k
F EL
Ġszen zor
ĠelÅĳny Ã¶k
ĠszerzÅĳdÃ©s kÃ¶tÃ©s
Ġ Ã©de
ĠÃŃr d
Ã¡ri us
ko cs
ĠT Ã¡v
ĠNy it
== ==
ĠH id
ĠSzerete t
zÃ©t ek
ed del
emel kedÅĳ
ĠL Ã©g
F eltÃ©t
ala xis
Ġsz ir
Ġfig y
ĠutÃ³lag os
Ġ0 3
Ġ6 9
meg hatÃ¡r
ĠÃ©rtek ez
ĠÃīrt Ã©k
t Ã¶meg
ĠSZ ÃģM
Ġadatt ovÃ¡bb
Ġfenn marad
ÃīN EK
Ġ198 8
ĠH asz
ĠA st
ĠS ony
ĠszereplÅĳ i
H ET
Ġhang ok
ĠkÃ¶zeljÃ¶vÅĳ ben
fÃ ©lÃ
Ġtem ati
er a
z ing
Ġzak l
ĠjÃ¶vÅĳ nk
ipar ban
Ġd esz
sÃ¡g uk
Ġh egedÅ±
ĠmenekÃ¼lt ek
ĠtÃ¼ ndÃ©r
Ġhegy ek
ĠkerÃ¼lt em
gÃ ¶tt
szer elÅĳ
ĠkihÃŃv Ã¡sok
Ġ8 3
ĠSzÃ ¼let
ata ink
ĠrÃ¶gzÃŃt eni
ĠtanÃ©v ben
z u
Ġko alÃŃciÃ³
pÃ ©
la u
Ġkedv em
ĠhozzÃ¡jÃ¡r ulnak
Ġsor os
ĠM ut
ĠmÃ³d ok
Åĳ ben
ĠÃ©r zett
ĠmÅ±v Ã©szett
Ġmeglep Åĳen
lÃ ¡tt
e lak
ĠkÃ¶lcsÃ¶n Ã¶z
Ġanyag okkal
Ã©s szel
ĠÃ¡ltalÃ¡n osan
ĠkÃ©pzÃ©s ben
ĠarÃ¡ny os
Ġsug all
ĠerdÅĳ ben
Ġ elfÃ©r
Ġfel kap
Ġr and
foglal kozt
szÃ¶vet kezet
ĠA qu
ke zÃµ
Ġadat b
ez zÃ¼nk
ulÃ¡sÃ ¡hoz
Ġkap us
ĠH AT
Ġlen cse
Ġhang zÃ¡s
ajn al
mÃ ¡z
Ġdolg unk
ĠvÃ¡ltoz nak
ĠkÃ¶hÃ¶g Ã©s
ĠO ttÃ³
elh Ã¡r
Ġse be
Ġle me
fal ak
Ġmeg annyi
Ġalk otta
ar itÃ¡s
Az onban
ĠkereskedÅĳ k
Ġhegy i
³ vÃ³
Ġkoc kÃ¡zt
g ur
Ã©p ÃŃtÅĳ
ĠmegszÃ³l al
ĠNek i
Ġkerese l
H asonlÃ³
Ġbe jÃ¶tt
Ġmint Ã¡k
sÃ¼tik e
ĠfÅĳ vÃ¡r
ĠformÃ ¡ciÃ³
Vi lÃ¡g
Ġ7 4
P C
ĠX III
Ġf l
Ġme sÃ©k
V a
Ġa spekt
sÃ¼tike t
ĠcÃ©g nek
ĠszÃ¡mÃŃt Ã¡st
S M
ĠÃ¼l ve
Ġkapcsolatt artÃ¡s
ĠgÃ¶r csÃ
ĠemlÃ©k ek
Ġhat almat
Ġ ..
ĠkezelÅĳor vosÃ¡t
ĠelvÃ¡r Ã¡s
¡ lÃ©
es re
ĠkÃ©rt em
ĠHung Ã¡ria
Ġart rÃ³zis
oszt Ã
ĠSzÃ¡m omra
Ã©t eli
vÃ© bÅĳl
ĠkÃ©rd ezni
Ġobjekt um
ĠbÃ¶ jt
se bben
hetetlen nÃ©
ĠkeresztÃ©ny sÃ©g
ĠvÃ¡laszt ottam
T Ã©ny
Ġdiagnoszt izÃ¡l
n us
ÃģL T
Ġpap ri
Ġim pr
Ġport ugÃ¡l
ĠB irodalom
Ġdarab ig
Ġh un
Ġeljut ni
ĠE zÃ¡ltal
Ġkr ÃŃzis
ĠmellÃ© kelt
ĠtÃ¡r olÃ¡s
Ġmag Ã
Ġgra fi
szterg om
ĠbefolyÃ¡s olÃ³
Ġhal Ã¡sz
Ġbeker Ã¼lt
Ġfenyege tÃ©s
Ġvit Ã¡k
ĠAl sÃ³
Ġer kÃ©ly
ĠP ozs
Ġmutat juk
Ġi v
re y
ĠIs z
ĠCsalÃ¡d i
tart almÃº
ĠvÃ¡gy Ã
ĠhatÃ¡r Ã¡t
Ġg Ã©l
Ġbelse jÃ©ben
ĠIgaz sÃ¡g
Ġ ecset
Ġmer Ã©sz
sÃ¡r Ã³l
Ġfeldolg ozÃ³
ĠfÅĳ isko
kÃ¶nyv ek
rÃ³ s
b alÃ©p
szÃŃ nt
ĠK le
KÃ¶zÃ ¶s
egy ek
Ġfel bor
U N
ĠÃ¡r akat
Ġpontos abb
Ġmi bÅĳl
ĠB at
Ġistent iszt
ĠPÃ¡rizs ban
Ġt omb
ĠdicsÃ ©ret
ĠjelenlÃ©t Ã©t
h as
ĠvÃ©g lege
ĠU N
ĠszÃ¡zalÃ©k ban
Ġszent mi
Ġmond anak
Ġpar ad
rend i
V Ã¡sÃ¡r
ĠvÃ¡gyÃ ³
Ġmeg szor
Ġfajt Ã¡ja
ĠelÅĳkÃ©szÃŃt Ã©se
ĠgyÃ³gynÃ¶vÃ©ny ek
Ġ Ã³l
Ġdik t
j egyet
age n
Ġannyi ban
Minden ki
ĠÃ¡ll va
Ġd Åĳ
Ġrend ezni
Ġkor ig
l os
Ġte Ã¡s
ĠlÃ©t fontossÃ¡gÃº
ĠT av
Ġked di
Ġmeg ker
ĠtÃ¡plÃ¡lkozÃ¡s i
ĠkÃ¶nyvtÃ¡r i
n Ã¡ra
it o
Ġ Ã¡zt
ĠkollÃ©g ium
Ġnagy mÃ©retÅ±
ĠproblÃ© mÃ¡m
ĠG ergÅĳ
Ġalap elve
Ġcsont ok
ĠfelmÃ©r Ã©se
ubor Ã©k
Å±r Åĳ
ĠfÃ ¡bÃ³l
ĠrÃ¶nt gen
Ġal l
ĠÃ¼nne pel
ĠsÃ¼ tÃ¶tt
ĠdÃ© mon
ĠLu kÃ¡cs
Ġf ik
Ġab roncs
Ġme nete
Ġfel kut
Ġmegjele nni
ÃŃ tte
Egy szer
vÃ© le
Ġfe dÅĳ
ĠlÃ©p Ã©sben
Ġmeg tilt
ĠRÃ³ mai
Ġve heti
ĠÃ¡talak ulÃ¡s
pÃ¡ly Ã¡s
ĠÃ¡tlÃ¡t szÃ³
ked jen
RÃĵP AI
ĠÃ©rtelm ezÃ©se
Ġost oba
Ã ³vÃ³
ĠbekÃ¶vet kezÅĳ
P R
Ġbefej ezÃ©se
d omb
ĠjÃ¡tÃ©k kal
ĠÃ©v eken
omÃ¡sÃ ¡ra
zÃ¡nk ban
Ġviszony ÃŃtva
Ġorosz ok
ĠemlÃŃt ettem
Ġ kot
ĠÃģ ron
Gy ermek
izmus t
Ġsiker eket
ĠgyÅ±jt enek
ĠnÃ©z em
ĠmÅ± sort
ĠhÃŃrleve lÃ¼nk
ĠK SH
ĠfinanszÃŃr ozÃ¡si
het nÃ©nk
ĠCent rum
ang ol
I SZ
ny ben
h is
Ġfel szÃ³l
â Ħ¢
Ġind ÃŃtotta
ra ft
ĠellÃ¡t va
Ġpal ot
szeret e
Ġp ub
anyag okat
we e
sÃ¶t Ã©t
r obot
Ġmunka menet
ĠmegÃ¡llap ÃŃtÃ¡s
Ġkompon ens
Ġbe csap
Ġs ÃŃp
Ġcsir ke
Ġb az
Ġmeg osz
kÃ¶ny vi
ĠM ex
ĠÃ¼z emel
Ġhajlamos ak
ĠvÃ¡g Ã
ĠpÃ©n zint
met s
Ġbeker Ã¼l
ĠkezelÃ©s Ã©rÅĳl
ĠH VG
g mail
Ġvis zik
ĠcsinÃ¡l nak
ĠEU R
Ġle ny
ĠszÃ¡mÃŃt va
Ġzavar ja
Ġfelismer Ã©s
Ġegy ikÃ
ĠkÃ©szÃŃt Ã¼nk
Ġki eg
Ġzs ar
iÃ¡n us
z ig
ter mÃ©szet
ĠszÃŃ vet
Ã¡ll at
galmas abb
ĠÃŃrt unk
ĠhÃºsvÃ©t i
Ġl ocs
ĠV ezet
ĠelÃ¡l l
Ġgyerme kÃ©t
ĠM A
ĠvÃ¡gÃ ³
ĠleÃŃr ni
ĠKol ozs
ĠkÃ¶rÃ¼lÃ¶tt e
EGY Z
Ġfel mut
Ġmeg hÃ³d
Ġkit Ã¼ntetÃ©s
ĠelnÃ¶ kÃ©nek
ĠsÃ©t Ã¡l
ĠFeltÃ©t elek
M E
ĠidÅĳ nk
ĠminÅĳ sÃ¼lÅĳ
K ev
ĠszÃ¼ nte
Ġhit elek
ĠmÃ©d ium
ĠtelefonszÃ¡m on
Ġg r
Ġem b
Ġmindenek elÅĳtt
ram is
ĠmagÃ¡ny os
ĠL or
ĠX VIII
Ã©r a
kel ni
Ġdolg Ã¡t
ĠÃ©vtized ekben
zÃ¡sÃ ¡nak
ĠÅĲ r
Ġmindez ek
utÃ ³t
int Ã©r
Ġnem hogy
ĠnÃ¶v ekedett
ĠR og
emel kedÃ©s
rÃ©sz ek
ĠP S
ĠlÃ¡t Ã¡st
Ġp att
ĠK eze
¶ nk
ĠminÅĳsÃ¼l nek
ĠkÃ¶zÃ©r zet
ikÃ ³i
19 99
Ġt un
ĠB ele
Ã¼nk be
Ġnagy sÃ¡gÃº
Ġkoncent rÃ¡lt
ĠfolyadÃ©k ot
Ġnyom atÃ©k
ĠbarÃ¡t ai
ĠidÃ© zet
Ġbicik li
V Ã¡lasz
ĠcsokolÃ¡ dÃ©
Ġakti vis
Ã ¡juk
ĠhatÃ¡ridÅĳ n
Ġfejleszt ett
v il
ĠtermÃ©k kel
osztÃ ³
Ġh ot
ĠM UNK
ze nekar
ĠelvÃ¡r Ã¡sok
ĠÃ©rvÃ©ny esek
ĠÃ¼l Ã©sÃ©re
Ġgaz dÃ¡k
Ġalkalmaz ottak
ĠmegtalÃ¡lhatÃ³ ak
Ġgyermek vÃ©delmi
ĠigÃ©nye lnek
Ġfog almak
Ġtekint ik
ĠG old
arend szer
ĠszÃ³ tÃ¡r
inter jÃº
Ġkis tÃ©r
od y
ĠH ir
ĠszabadidÅĳ s
veszt e
ak adÃ©mi
ĠrendezvÃ©ny t
Ġmegrende lÃ©st
ĠfelnÅĳtt eknek
Ġazok rÃ³l
k hoz
am ban
Ġb oka
mÃ ¡ciÃ³
ĠnÃ©gyzet mÃ©teres
ĠkÃŃnÃ¡l unk
ĠhasznÃ¡l hatÃ³k
an ti
or ban
E lÃ©g
lik opter
Ġnovember ben
ĠM ai
Ġspekt ru
ot o
ĠlÃ¡tt ak
Ġkelle nek
ĠR Ã³zsa
ĠinformÃ¡ciÃ³ szabadsÃ¡grÃ³l
ĠnyÃºjt hat
im mel
Ġelfogad om
Ġor gazmus
ik t
ĠDuna Ãºj
Ġverseny ek
Ġd Ãºs
eszt ivÃ¡lt
ĠelÅĳ kelÅĳ
Ġhomlok zat
Ġ0 4
Ġkattint Ã¡ssal
Ã¡g a
p il
Ã¶rtÃ©ne lmi
ĠnyilvÃ¡n osan
ĠP utyin
ĠÃ¡t jÃ¡r
m iszt
Ġd ac
Ġford ÃŃtÃ³
det ben
ele tek
Ġmely hez
Ġtud nÃ¡nk
ĠrÃ¡n Ã
Ġko vÃ¡cs
Ta valy
E x
o lÃ¡n
ĠcÃ©g nÃ©l
Ġborz asztÃ³
Ġmostan ra
ĠO lvasÃ³
Ġalak ultak
me lt
K Ã¶n
Ġtan ÃŃtott
t Ã¡vol
ke i
felÃ ¼nk
ĠrÃ¡nÃ ©
Ġkamar a
Ġminiszt eri
ĠfÃ©l idÅĳ
ĠÃ©rtelm ezhetÅĳ
F F
Ġmegp ihe
vÃ¡sÃ¡r lÃ¡si
ĠAtt Ã³l
ĠhÃº zni
Az ok
Ġtes tt
ĠH Ã¡ny
mi vel
Ġrekon strukciÃ³
ĠfÃ©r Åĳ
Ġre lax
¶s s
ĠtÃ¶rtÃ©n Ã©sz
ĠszerzÅĳdÃ©s i
Ġjegy ek
Ġezek hez
Ġjav ult
ul ai
ĠfÃ©rfiak nak
szt Ã¡r
egy es
ck op
ĠH ELY
il os
Ġital ok
Ġkar antÃ©n
dÃ¡sÃ ¡ra
kÃ©r Ã©s
l ront
f erenc
ĠkÃ¶zÃ¶lt Ã©k
Ġle ford
ĠkÃ¶zÃ ¶
ĠE nd
ĠbÃŃrÃ³ i
ĠmunkÃ¡ltatÃ³ i
Ġlegsiker esebb
ĠoktÃ³ber ben
ĠelÃ©r Ã©sÃ©t
e lront
ĠakadÃ¡ly ozza
Ġfog ant
ĠlÃ©p Ã©sre
ĠtartÃ³z kodÃ³
ĠeurÃ³ s
Ġ7 3
ĠfejlÅĳdÃ©s Ã©nek
ĠCs ongrÃ¡d
ĠmÃ©r le
Ġrend hagyÃ³
Ġiro dÃ¡k
ĠT ART
Ġteme tÃ©s
ĠmÃ©r Ã©si
ĠTer v
hat almi
ass unk
ap os
Ġpe tÃ©k
ĠJ Ã³k
ĠszÃ¼lÅĳk nek
ĠlezÃ¡r t
ĠKÃ¶zlekedÃ©s i
ĠM Ã³z
munikÃ ¡ciÃ³
Ġs al
ĠmigrÃ¡n s
Ġap u
ĠfÃ¼ggÅĳ leges
ĠÃ©rvÃ©ny telen
ĠVÃ¡llal kozÃ¡s
Ġcigarett a
ĠB eszÃ©l
Ġkompatib ilis
Ġfak ad
Ġszik la
Ġ eur
KOL A
ĠB ad
Ġmegterem tÃ©se
P ont
Ġablak ok
k W
ĠErÅĳ forrÃ¡sok
ĠsÃ©rt ett
ĠN ic
ĠnÃ©pszava zÃ¡s
âĢĶ âĢĶ
ĠmÃ³dszer tan
ass anak
ĠU ram
ĠS ir
Ġbeteg tÃ¡jÃ©koztatÃ³
Ġfog almÃ¡t
of il
ny Ã©k
Ġr assz
ĠmÅ±kÃ¶dÃ©s hez
Ġr es
ĠmunkavÃ¡llalÃ³ i
c kÃ³
ĠÃºj szerÅ±
k okt
ĠKristÃ ³f
d r
ĠMik ulÃ¡s
ut olsÃ³
Ġs Å±r
ĠÃ©lvez ni
Ġszed Ã©se
Ġbo hÃ³
ĠkiÃ¡llÃŃt Ã
f u
I g
ĠÃ¶sszet Ã©tele
Ġmutatkoz ott
Ġtur nÃ©
re nt
ny olc
ĠidÃ© zte
ÃīK OZ
a utÃ³k
kÃ©p viselÅĳ
Ġkev ert
ĠpolgÃ¡r ok
Ġmas szÃŃr
Ġprojekte t
l vezet
og nit
ĠÃ¼nnep sÃ©g
ote chn
ÃŃt sÃ¼k
d j
ĠÃ©r ve
ĠnÃ©z i
ĠbÃº za
** *
A mÃºgy
Ã¡s mÃ³d
Ãĵ G
ĠC ivil
ĠkiÃ¡llÃŃtÃ ³
Ġsze dett
ĠNo bel
unk rÃ³l
O l
len g
Ġmiskol ci
?? ??
ĠvÃ¡laszt hat
Ġb y
ĠtÃ¡mogatÃ¡s ra
ĠG Ã¡spÃ¡r
Ġbud dh
Ġte p
be vitel
ĠmegÃŃtÃ©l Ã©se
Ġokoz zÃ¡k
mun kÃ¡t
S zÃ¡llÃŃt
ĠwebÃ¡ruhÃ¡z ban
ĠlÃ¡tog at
ĠkÃ¶zÃ ©rt
ĠmunkÃ¡n kat
H i
P al
ĠGe l
g an
ĠV Ã©r
je llem
Ġkifej ezÅĳ
Ġdisz nÃ³
ĠtÃ©mÃ¡ jÃº
rt am
ja val
Ġcenti mÃ©ter
Ġmo sÃ³
ĠNe kÃ¼nk
ĠmegszÃ¼ nt
ĠmeghÃŃv ott
alÃ ¡ny
ĠAng liÃ¡ban
Ã©v i
Ġelkez dÅĳdÃ¶tt
T eljes
ĠprÃ³bÃ¡l nak
Ġalkot jÃ¡k
ĠÃ¼zlet ek
ĠÃ©rtelm ezni
c b
per sze
Ġ19 20
ĠcsÃºs z
hat alom
ĠbÃ¡n tal
Ġprogram jÃ¡t
ĠtÃ¶lt enek
ĠgyÃ³gyszer Ã©szÃ©t
ĠnÃ©l kÃ¼
ĠminÅĳ sÃŃtÃ©s
Ġgyakorlat okat
ĠJ OG
Ġmas szÃŃv
Ġbalaton i
ĠH amarosan
ĠKÃ ³
kri min
ĠU lt
ĠVÃ©g re
sÃ ¡ra
ĠkitÅ± zÃ¶tt
ĠjelÃ¶lt e
n Ã¡r
Ġmegkez dÅĳdÃ¶tt
ĠfunkciÃ³ val
H osszÃº
osabb Ã
Ġtapasztal atokat
ĠÃ¡tmeneti leg
uszt ikus
Ġmegny erte
Ġkompromiss zum
Ġtemplom ot
osabbÃ ¡
Ġmo sÃ¡s
e ai
hagy ma
Ny ug
Ġw e
ĠinterjÃº ban
ĠÃ©v ekkel
Ġszavaz at
ĠÃºtvonal on
ĠbÃº vÃ¡r
ĠhÃ¡ttÃ©r be
ĠÃ©d essÃ©g
ez zen
Ġ kavar
p esti
Ġrez si
Ġn ukleÃ¡ris
Ġhitel intÃ©zet
ĠOli mp
it isz
ĠÃŃrÃ³ k
ĠN E
Ġhol tt
ĠD J
ĠfÃ¼ zet
kateg Ã³r
ard o
ĠkÃ©r het
ĠtÃ¼net mentes
ag Ã
menedzs ment
Ġbelg a
as ak
ĠmunkÃ¡ hoz
ĠD onald
ĠevangÃ©l ium
Ġterjed t
Ġszarvas mar
Ġoper atÃŃv
ĠSzak kÃ¶zÃ©p
Ġfog adt
ed zÅĳ
ĠellenÅĳ ri
olÃ¡sÃ ¡hoz
ĠdÃ ¶g
ĠkezdemÃ©nyezÃ©s Ã©re
ĠmegkÃ¼lÃ¶nbÃ¶ ztetÃ©s
ĠÃ©rt jÃ¼k
ĠT oy
Ġkifejt ette
je lleg
ĠTele vÃŃziÃ³
I nt
ĠN AP
ĠhibÃ ¡
Ġhord oz
ĠOR SZÃģG
Ġnyert ek
ĠmÃ³dosÃŃt Ã¡sÃ¡t
Ġlehet Ãµ
ĠinformÃ¡ciÃ³k kal
lÃ ¶m
ĠÃ¡rt almatlan
ĠmegnÃ¶ vel
Ġrom lott
Ġmegfizet ni
Ġodafigyel ni
ĠfÃ ¡jÃ³
ĠG ener
Ãģ r
Ġdarab ja
Ġjobb ak
ajd a
Ġbe hajt
ĠmÃ¡rcius ban
Ġs Ã¶rt
Ġjutott am
ĠTh omas
Ġmegh ÃŃvÃ
vagy is
mÅ± tÃ©t
etlen Ã¼l
Ġv ege
Ġri aszt
hass unk
ĠSzÃ ¡llÃŃt
ĠkÃ©ny telenek
ci e
ĠMinisztere lnÃ¶k
Ġcsin os
ĠrÃ ¡z
Ġhaj lÃŃt
ĠhozzÃ¡fÃ©r hetÅĳvÃ©
ĠKÃ©szÃ ¼lt
Ġinfluen za
Ġ elak
Ġes nek
dÅĳ n
Ġszak os
Ġc om
Ġlist Ã¡jÃ¡t
ĠfesztivÃ¡l on
ĠgyÅĳ z
Ġkegy elem
ĠbeÃ¡llÃŃt ani
U P
u ha
Ã¡z ik
Ġa er
Ġalkot Ã³i
Ġgit Ã¡ros
ĠszÃ©r ia
ĠM ol
Ġhelmint hiasis
ĠPus kÃ¡s
ĠrÃ©sz eket
ez z
Ġs u
ĠkÃ¶tÅĳ dik
ez mÃ©ny
es ben
ĠfÅĳ zni
ĠhasznÃ¡l atot
Ġny erÅĳ
ĠtÃ© mÃ¡val
Ġbe tilt
Ġnagy ok
Ġfog ni
ĠmÃ³dszer tani
Ġspeci fikus
¶dÃ ¶r
ĠkiemelkedÅĳ e
Ġimp lant
t ar
ĠkÃŃvÃ¡ncsi ak
Ġcs emp
ĠMiskol ci
Ġbib liai
ĠkiemelkedÅĳe n
Ġrep Ã¼lÃ©s
Ġfin omÃŃt
kÃ¶ ves
M ÃŃg
Ġhonlap unkon
ĠP ay
ĠJ ul
ĠMeg Ã¡llap
ing atlan
ĠegÃ©szsÃ©g re
Ġhirdet ett
Ã ¡ink
ĠcsÃ ¶v
Ġfelgy or
ĠkÃ¼lÃ¶n Ã¡llÃ³
1 50
hÃ ¡cs
f d
uj j
ÃģJ ÃīKOZ
¶ss z
Ġauto immun
terÃ¼lete n
l szenve
ĠAt ya
e lszenve
ĠkialakÃŃt Ã¡sÃ¡ra
ÃŃ d
Ġtekint Ã©ly
pÃ³t lÃ³
ĠfelzÃ¡r kÃ³
ĠV ÃģROS
Ġtan ter
Ġenerg iÃ¡val
ĠkultÃº rÃ¡k
Ġ: (
Ġtiltak ozÃ¡s
ĠmÃ©lt Ã¡n
Ġn ul
op ia
ĠeljÃ¡r Ã¡ssal
ĠcÃ©l csoport
techn ikai
kult Ãºra
sÃ¡g bÃ³l
ĠkÃ¶nyv es
Ġj usson
Ġstres szt
Ġ elront
Ġoldal unkon
ĠmegbÃŃ zÃ¡sÃ¡bÃ³l
Ġleg elt
gyÃ¡rt Ã¡s
Ġtu dÃ¡sÃ¡t
bÃ³ c
ĠkezelÅĳ orvos
ĠkormÃ¡ny nak
B Ã
Ġverseny tÃ¡rs
ozÃ³ i
Ġegy eztet
ed Ã©ny
Ġhisz ik
Ġhab Ã¡r
Ġzsin Ã³r
Ġele s
Ġr ong
vett ek
in get
ĠbiztonsÃ¡g a
ĠIS O
ĠfÃ© lÃ©
ig ment
mai lt
ny Ã¡k
ĠÃ¡llap ÃŃtja
ĠEgyed Ã¼lÃ¡llÃ³
ĠakÃ¡r milyen
Ġbaj om
szur d
kor on
ĠS ik
ĠK ong
Ġverseny ben
Ġr esz
ĠRomÃ¡n ia
Ġimp ul
Ġszervez Ã©se
Ã©r Åĳ
ĠkialakulÃ¡sÃ ¡hoz
ĠE nged
ĠtalÃ¡lkoz nak
ĠmÅ± szak
/ ÂŃÂŃ
Ġszer tart
Ġmegnyug tatÃ³
Ġragy og
ĠkerÃ¼l jenek
ĠmÃ ¡z
Ġkont akt
e ladÃ¡s
ĠGabri ella
ĠtÃ¼ zet
ĠSze nte
ĠvÃ¡log atÃ¡s
ag o
ĠkedvezÅĳ tlen
Ġverseny kÃ©pes
ĠkÃ¶zlemÃ©ny ben
od ox
P l
ak odÃ³
ĠÃ©rtÃ©kel ni
ĠOper atÃŃv
N Ã©gy
ĠmegvÃ¡sÃ¡r olni
ĠAlkotmÃ¡ny bÃŃrÃ³sÃ¡g
Ġhelyen kÃ©nt
Ġhal adja
Ã ©ber
Ġle szÃ¶g
mÃ©d ia
ĠcÃŃ mer
ĠMin Åĳ
Ġlefoly t
Ġfelt Ã¶r
Ġhoz hatÃ³
ĠMÃ¡r pedig
ĠÃ¼gy esen
u mÃº
Ġdolog nak
ĠK ata
ĠAk inek
ĠvÃ¡ltozat Ã¡t
dÃŃ ja
ĠkormÃ¡ny hivatal
ĠM L
Ġkor csoport
ĠdÃ¶nt Ã©sÃ©t
ĠtalÃ¡l od
Ġegyen lÃŃt
Ġtulajdon jog
ĠtÃ¡ vi
Kis kun
soroz atot
Åĳl ap
ai ba
ven ciÃ³
Ġmeg hajt
ĠdiplomÃ ¡t
ĠÃ©rt ik
ĠvÃ¡r tÃ¡k
Ġt yÃº
Ġrendszer Ã©nek
csi cs
Ġant iszem
ĠprÃ³bÃ¡l ni
ĠP iros
ĠO M
at o
ĠÃ¡t hely
ĠszÃŃnek e
ĠÃ¼zlet e
ĠKaton a
Ġelt Ã¶r
ĠfelhÃŃv ta
m isztikus
Ã¡n kat
lÃ ©let
ĠintÃ©z mÃ©nye
ĠsÅ±rÅ± n
l hallg
Ġmig rÃ¡ciÃ³
det Ã©se
Ġmeg Ã¶l
ĠK eleti
ĠÃ©r sek
ĠillÃ³ olaj
Ġfejezet e
ĠhÃ¡lÃ³ szob
Ġb ox
ĠtartomÃ¡ny ban
Ġolt Ã¡r
azit a
ĠÃ©lt e
ĠpÃ©nzint Ã©zet
Ġsor ak
Ġelt ilt
e lhallg
it Å±
ĠÃ¶sszes ze
Ġdefin ÃŃciÃ³
os p
ĠN i
nap on
Ġleg iz
m ore
ĠigÃ©ny elt
t atÃ³k
Ġmegb eszÃ©lt
Ġforg almazott
ĠfertÅĳ zÃ©st
ĠmegvÃ¡laszt ott
Ġ Ã³vÃ³
Ġvon ja
Ġismert ek
OG RAM
Ġra v
Ġ8 7
Ã¶rg yi
ĠeredmÃ©ny esen
ĠszÃ¶vet ek
Ġ Ã¡h
Ġfel jegy
me lÃ©s
Weboldal unk
Ġhelyi ek
ĠhÃ©tfÅĳ i
atÃ ¶r
j utt
Ġcsod Ã¡t
fot v
ĠgÃ ¡
ĠÃ©rzel me
ĠV elen
Ġvonal on
¶nyÃ¶r Å±
F C
ĠtestvÃ©r ek
Ġkiszab ad
ĠÃŃtÃ ©lte
Ã ¡lÃ©
ĠhozzÃ¡ jut
ĠgÃ ¡zt
Ġegyez mÃ©ny
vit elÃ
ĠCs ab
re c
ĠT akÃ¡cs
ĠdÃŃs zlet
ve lte
ĠidÅĳ be
Ãĸ L
ĠkÃ©r nek
Ġcs il
ĠR Ã©ka
Ġmegtekint hetÅĳ
ĠvÃ¡gy ak
ĠtÃ¼krÃ ©ben
Ġbevezet ett
Ġbeille s
Ġuniver zÃ¡lis
nyit Ã
ĠS u
ĠtÃ¡rgyal Ã¡s
nap ot
ĠmielÅĳ bb
Ġkifoly Ã³lag
Ġs per
ĠszÃ¡l lÃ¡st
ĠfÅĳ tt
sÃ¼ tÃ¶rt
iÃ ¡z
ĠhelyszÃŃ nek
ĠalkalmazÃ¡s t
Ġ elszenve
us sal
ĠtÅĳle d
ĠF ri
ceg auto
Ġiz zÃ³
fe nt
a mÃ¡t
sÃ©ge inek
m ula
ĠFor ma
ki Ã¡llÃŃt
Ã¼gy nÃ¶ksÃ©g
id i
p ost
h alom
ĠelÅĳsegÃŃt Ã©se
be cs
ĠÃ¡l mai
Ã¼l Ã©sek
ĠdÃŃ zel
ĠhelyszÃŃ nt
al ÃŃzis
ed tek
Ġgondol od
ĠfebruÃ¡r ban
rÃ¶g zÃŃt
k redit
ĠvÃ©g kÃ©pp
sÃŃt Ã©sÃ©re
Ġterme lÅĳk
ĠN A
dÃ¡sÃ º
Ġmenny ezet
ĠkÃ¶lt Åĳi
Ġle vet
Egy es
Ġfak tor
ig g
ÃŃt Ã¡sÃ¡rÃ³l
ĠbiztosÃŃt otta
m agy
Ã¡ciÃ³ k
vÃ¡llalkozÃ¡s ok
ĠmegvalÃ³s ult
Ã¡m adÃ¡s
Ã ©je
ĠHal lg
Ġkieme lni
Ġtiszt elettel
Ġnyilatkoz ata
in gen
ĠtÃ©t elek
zÃ ©n
Ġfajt Ã¡k
ez res
nyitÃ ³
ĠIgaz i
ĠL as
p us
ĠteljesÃŃt Ã©sÃ©t
Ġ elvÃ©t
Ġcsap attal
nÃ© met
Ġrem eg
ĠkÃ©sÅĳ n
Ġ up
ĠÃ¶nmag a
ĠmÃ©r ni
mÃ ©lye
fÅ± tÃ©s
ĠelkerÃ¼l hetetlen
ĠE t
Ġelhely ezÃ©se
cs in
ug h
Ġha ja
al at
ĠkÃ³d ot
ĠÃ¡t dolg
Ġrov at
Ġce l
ri an
ĠLa ci
ĠproblÃ©mÃ¡ i
Ġjut hat
J ÃģN
ĠkalÃ³ ria
Ġhang osan
Ġtest mozgÃ¡s
Ġkeres ek
Ã³ri Ã¡s
Ġih let
Ġb asszus
ĠL y
Ġkivon at
ĠkÃŃsÃ©r letek
od on
Ġny ÃŃr
©v al
ĠsrÃ¡c ok
K ore
ĠtudomÃ¡s t
opÃ ³
ĠjelÃ¶l i
S I
Ġfel dob
ĠÃ¶b lÃŃt
ĠV eg
ĠbeszÃ© det
T Ã³th
sori asis
gyakor lat
ti ve
Ġugyan ÃŃgy
ĠtÃ¡rs a
ĠP lus
Ġutal nak
ĠV Ã¡g
ĠÃ©vfordulÃ³ ja
l adott
ottÃ ³
Ġsavany Ãº
Ġhome opÃ¡t
Ġfelismer Ã©se
Ġbeilles z
Ã¡rt ya
ÃŃtÃ©s Ã©hez
ĠAf ri
Ġtilt ott
ĠstÃŃl ust
Ġmed ve
ĠfelÃ©p ÃŃtett
ol ogy
e mÃ©nyek
Ġdolg ozat
ĠAuszt riÃ¡ban
ĠAl p
ĠkialakÃŃt Ã¡sÃ¡t
lep le
Ġ kek
ĠÃ¼gy vÃ©di
amb urg
ĠJe an
Ġnem igen
anÃ ¡d
Ġkonflikt usok
ĠKÃ¶ szÃ¶
or Ã¡ma
Ġcser Ã©p
ĠSpanyol orszÃ¡g
ĠkÃŃvÃ¡n sÃ¡g
ĠFÃ©r gek
Ġmondja m
ĠE lle
R IS
Ã³r Ã¡s
Ġtablett Ã¡t
ĠÃī R
ĠmÃ¡r kÃ¡k
Ġb il
¶ zÅĳ
ĠjÃ¡tÃ©k a
ĠÃ¼ tÃ©s
ĠszÅ± kebb
ĠtÃ¼ s
Ġtett Ã¼nk
ĠsajtÃ³tÃ¡jÃ©koztatÃ³ jÃ¡n
ĠpÃ¡lya udvar
c u
Ġhar is
pr Åĳ
ĠbÃ©l ben
alap ÃŃtvÃ¡ny
mat ikus
Ġmeg vÃ©d
rend ezÃ©si
Ġnevez hetÅĳ
to oth
ĠtanÃ¡cs kozÃ¡s
Ġrelat ÃŃv
ĠfejlÅĳdÃ©s t
Ġkal i
fil met
olÃ³ dni
jav ÃŃtÃ³
iÃ ©
ĠtermÃ©k ekkel
ĠF a
r ez
ĠhatÃ¡r ok
a hogy
ĠAr ch
ĠO f
ĠfehÃ©r jÃ©k
Ã©k kel
Ġgondol atait
ĠelÅĳnye it
k eme
ĠkÃ© mÃ©ny
csillag os
Ġkul lan
Ġbe Ã¡gy
Ġhangul ata
ĠSzÃŃn hÃ¡zban
y er
Ġez ent
Ġalap jÃ¡ul
zt unk
e ladott
Ġad venti
ĠKÃ ¡
Ġv ezettek
ei met
ĠvÃ¡r va
Ġkis ma
ĠtÃ¶ltÃ¶tt em
ut as
im at
Ġmesszi re
kul cs
Ġnyugalom ra
lan di
ĠfolytatÃ³ dott
Ġsem leges
ĠdÃŃj akat
Ġhormon Ã¡lis
m att
ĠMost an
ĠÃ©des apja
ÃīL Y
ĠÃ³rÃ¡k at
Ġkap hatnak
ol hatjÃ¡k
Ġnevez i
Ġsziget elÃ©s
Ġfele lni
M K
ĠBÃ©cs ben
Ġfor og
Ġmax im
ĠFel nÅĳtt
Ġelismer Ã©se
mar keting
izÃ¡ lÃ¡sa
Ġmeg adja
ĠkÃ©p eken
Ġsz ter
l ot
Ġuni Ã
vÃ¡l ogatott
Ġt akt
ĠuniÃ ³
Ġlem ezt
Ny ilvÃ¡n
Ġelem zÃ©sek
ĠszÃŃneke t
kiegÃ©szÃŃt Åĳ
vis elÃ©s
6 00
ĠkrÃ© met
Ġvak cin
ĠL EG
ĠcsÃº nya
Ġfig ura
l ikus
Ġeb Ã
echn ika
ĠtÃ¡r olÃ¡sa
b og
u mÃ¡ban
ĠÃ©r zÃ©sek
ĠfeltÃ©tele irÅĳl
ĠajÃ¡nlat kÃ©rÅĳ
ĠEgyed Ã¼l
ĠjelenlÃ©t Ã©ben
Ġjel zik
ĠrendeltetÃ©s szerÅ±
gÃ©p e
Ġser pe
li c
fr ika
P U
ĠMIN D
ĠM obil
eg t
ĠÃºj rat
Ġazok hoz
ĠpÃ©l dÃ¡
Ġutal Ã¡s
ĠszÃ¡mÃŃt hatunk
re di
Ġkez dÃ©s
Ġ9 2
ĠM ess
¡ci ai
Ġbiz almat
ĠÃ¡prilis ban
ĠLin ux
Ã©szÃ ¼l
foly Ã¡s
Ġfigyelem re
ĠT ekint
ĠR ossz
Ġgondol s
ĠkÃ©p re
ĠP ilis
ĠkÃ¶zpont jÃ¡ban
ĠszÃ¼ nt
in Ã¡rium
V ajon
Ġhivatal i
Ġeff ekt
ĠkivizsgÃ ¡lÃ¡s
ĠvÃ¡lt Ã¡s
Ġjavas olta
Ġgondols z
ĠelÃ©g edve
ĠÃ¡ll atot
Ez eket
ĠÃ¡ttekint Ã©s
ĠnagysÃ¡g rend
uk ott
ĠszÃ¼let Ã©se
Ġmondan Ã¡m
Ġigaz at
lovÃ ©n
Ġmegt or
alm on
Ġkapcs olt
ĠÃ©r le
Ġpont ra
Ã¡rg yal
ĠOkt Ã³ber
ad almas
ÃŃt Ã©sek
ĠÃ©rd emben
Ġadatok ra
ĠszemlÃ ©l
unk bÃ³l
ĠnÃ¶vel ik
Ġs ie
ĠlÃ¡t hatunk
ĠbÃ¼sz kÃ©n
Mi elÅĳtt
ĠhatÃ¡ly balÃ©p
Ġle lt
Ġhum an
ĠtÃ¼nte tÅĳ
ĠK incs
ĠidÅĳtartam ra
Ġ ).
ÃŃ li
ĠjÃ¡tszÃ ³dik
ves szÃ¼k
L egyen
Ġ elhallg
unÃ¡nt Ãºli
ĠkÃ¼ s
Ġtapasztal atait
Ġtapasztal atot
[...]
