{"<s>":0,"<pad>":1,"</s>":2,"<unk>":3,"<mask>":4,"<sep>":5,"<cls>":6,"<|endoftext|>":7,"<unused0>":8,"<unused1>":9,"<unused2>":10,"<unused3>":11,"<unused4>":12,"<unused5>":13,"<unused6>":14,"<unused7>":15,"<unused8>":16,"<unused9>":17,"<p>":18,"[PAD]":19,"[MASK]":20,"[UNK]":21,"[SEP]":22,"[CLS]":23,"!":24,"\"":25,"#":26,"$":27,"%":28,"&":29,"'":30,"(":31,")":32,"*":33,"+":34,",":35,"-":36,".":37,"/":38,"0":39,"1":40,"2":41,"3":42,"4":43,"5":44,"6":45,"7":46,"8":47,"9":48,":":49,";":50,"<":51,"=":52,">":53,"?":54,"@":55,"A":56,"B":57,"C":58,"D":59,"E":60,"F":61,"G":62,"H":63,"I":64,"J":65,"K":66,"L":67,"M":68,"N":69,"O":70,"P":71,"Q":72,"R":73,"S":74,"T":75,"U":76,"V":77,"W":78,"X":79,"Y":80,"Z":81,"[":82,"\\":83,"]":84,"^":85,"_":86,"`":87,"a":88,"b":89,"c":90,"d":91,"e":92,"f":93,"g":94,"h":95,"i":96,"j":97,"k":98,"l":99,"m":100,"n":101,"o":102,"p":103,"q":104,"r":105,"s":106,"t":107,"u":108,"v":109,"w":110,"x":111,"y":112,"z":113,"{":114,"|":115,"}":116,"~":117,"¡":118,"¢":119,"£":120,"¤":121,"¥":122,"¦":123,"§":124,"¨":125,"©":126,"ª":127,"«":128,"¬":129,"®":130,"¯":131,"°":132,"±":133,"²":134,"³":135,"´":136,"µ":137,"¶":138,"·":139,"¸":140,"¹":141,"º":142,"»":143,"¼":144,"½":145,"¾":146,"¿":147,"À":148,"Á":149,"Â":150,"Ã":151,"Ä":152,"Å":153,"Æ":154,"Ç":155,"È":156,"É":157,"Ê":158,"Ë":159,"Ì":160,"Í":161,"Î":162,"Ï":163,"Ð":164,"Ñ":165,"Ò":166,"Ó":167,"Ô":168,"Õ":169,"Ö":170,"×":171,"Ø":172,"Ù":173,"Ú":174,"Û":175,"Ü":176,"Ý":177,"Þ":178,"ß":179,"à":180,"á":181,"â":182,"ã":183,"ä":184,"å":185,"æ":186,"ç":187,"è":188,"é":189,"ê":190,"ë":191,"ì":192,"í":193,"î":194,"ï":195,"ð":196,"ñ":197,"ò":198,"ó":199,"ô":200,"õ":201,"ö":202,"÷":203,"ø":204,"ù":205,"ú":206,"û":207,"ü":208,"ý":209,"þ":210,"ÿ":211,"Ā":212,"ā":213,"Ă":214,"ă":215,"Ą":216,"ą":217,"Ć":218,"ć":219,"Ĉ":220,"ĉ":221,"Ċ":222,"ċ":223,"Č":224,"č":225,"Ď":226,"ď":227,"Đ":228,"đ":229,"Ē":230,"ē":231,"Ĕ":232,"ĕ":233,"Ė":234,"ė":235,"Ę":236,"ę":237,"Ě":238,"ě":239,"Ĝ":240,"ĝ":241,"Ğ":242,"ğ":243,"Ġ":244,"ġ":245,"Ģ":246,"ģ":247,"Ĥ":248,"ĥ":249,"Ħ":250,"ħ":251,"Ĩ":252,"ĩ":253,"Ī":254,"ī":255,"Ĭ":256,"ĭ":257,"Į":258,"į":259,"İ":260,"ı":261,"Ĳ":262,"ĳ":263,"Ĵ":264,"ĵ":265,"Ķ":266,"ķ":267,"ĸ":268,"Ĺ":269,"ĺ":270,"Ļ":271,"ļ":272,"Ľ":273,"ľ":274,"Ŀ":275,"ŀ":276,"Ł":277,"ł":278,"Ń":279,"©s":280,"Ã©s":281,"le":282,"Åĳ":283,"er":284,"at":285,"Ġs":286,"al":287,"kÃ":288,"eg":289,"zÃ":290,"an":291,"Ġt":292,"Ġh":293,"Ġv":294,"ek":295,"sÃ":296,"lÃ":297,"az":298,"ak":299,"mÃ":300,"Ġf":301,"es":302,"tt":303,"in":304,"ny":305,"¡l":306,"¡s":307,"is":308,"Ġaz":309,"em":310,"or":311,"¡r":312,"on":313,"ol":314,"Ã¡l":315,"Ġn":316,"ez":317,"be":318,"og":319,"ĠkÃ":320,"©r":321,"ok":322,"ag":323,"Ġa":324,"©g":325,"ĠÃ©s":326,"Ã¼":327,"ÃŃ":328,"os":329,"Ġsz":330,"ar":331,"ik":332,"jÃ":333,"egy":334,"Ã¡s":335,"ĠA":336,"zt":337,"¡t":338,"meg":339,"Ġmeg":340,"¡n":341,"cs":342,"Ġp":343,"Ã¡r":344,"Ã©r":345,"re":346,"de":347,"ke":348,"bb":349,"ly":350,"as":351,"rÃ":352,"Ġle":353,"ogy":354,"ze":355,"Ġegy":356,"ap":357,"ve":358,"agy":359,"ben":360,"ele":361,"Ġis":362,"Ġb":363,"lt":364,"me":365,"ĠkÃ¶":366,"ĠmÃ":367,"©t":368,"ni":369,"Ġhogy":370,"sÃ©g":371,"©n":372,"ĠszÃ":373,"vÃ":374,"Ġi":375,"¡g":376,"mi":377,"ban":378,"ki":379,"ad":380,"he":381,"int":382,"ĠtÃ":383,"Å±":384,"oz":385,"Ġnem":386,"Ġfe":387,"ott":388,"Ġg":389,"nk":390,"lÅĳ":391,"Ãº":392,"Ńt":393,"ra":394,"om":395,"ja":396,"it":397,"©k":398,"©p":399,"Ġki":400,"nt":401,"let":402,"ut":403,"©ny":404,"³l":405,"Ã¡n":406,"âĢ":407,"het":408,"©l":409,"Ã©n":410,"ig":411,"ĠM":412,"ÃŃt":413,"szÃ":414,"ett":415,"ed":416,"am":417,"nek":418,"Ã¡t":419,"Ġcs":420,"Ġj":421,"nak":422,"¡k":423,"ĠE":424,"Ġal":425,"Ġbe":426,"lÃ³":427,"Ã©l":428,"ai":429,"Ġd":430,"us":431,"atÃ":432,"ot":433,"iÃ":434,"Ġszer":435,"¡ny":436,"zer":437,"sÃ¡g":438,"min":439,"kez":440,"ĠS":441,"ul":442,"ĠÃ©r":443,"Ã¡lt":444,"ĠtÃ¶":445,"Ġr":446,"Ġmin":447,"kor":448,"Ġke":449,"Ã©t":450,"unk":451,"ĠK":452,"Ġfel":453,"dÃ":454,"Ġ(":455,"ĠjÃ":456,"Ġgy":457,"Ġ1":458,"Ġak":459,"Ġc":460,"art":461,"Ã³l":462,"olt":463,"aj":464,"szer":465,"ese":466,"ĠlÃ":467,"kÃ¶":468,"¡sÃ":469,"Åĳl":470,"ont":471,"Ġez":472,"elÅĳ":473,"ll":474,"od":475,"atÃ³":476,"Ã©k":477,"ud":478,"ren":479,"Ġme":480,"lle":481,"uk":482,"¡m":483,"Ġvagy":484,"iÃ³":485,"¡z":486,"Ã¼l":487,"ĠâĢ":488,"zet":489,"ne":490,"oly":491,"dÅĳ":492,"Ġ2":493,"¶n":494,"Ġte":495,"ĠvÃ":496,"00":497,"ĠÃº":498,"Ġmi":499,"ĠT":500,"ĠB":501,"alÃ":502,"sÃŃt":503,"asz":504,"ĠH":505,"¶s":506,"Ġleg":507,"ozÃ":508,"ker":509,"ab":510,"eke":511,"Ġter":512,"mer":513,"Ġny":514,"Ã¡ll":515,"hat":516,"©v":517,"ĠN":518,"mÃ©ny":519,"se":520,"Ġde":521,"nÃ":522,"Ġad":523,"lÃ¡s":524,"rt":525,"lye":526,"ond":527,"¼l":528,"Ã©sz":529,"vet":530,"vel":531,"dÃ©s":532,"Ġren":533,"kal":534,"ĠelÅĳ":535,"att":536,"ĠF":537,"Ġlehet":538,"ĠAz":539,"il":540,"Ġnagy":541,"ciÃ³":542,"olg":543,"ĠnÃ":544,"Ġhe":545,"je":546,"Ġvan":547,"ĠI":548,"Ġker":549,"mag":550,"val":551,"iz":552,"eze":553,"hÃ":554,"ĠP":555,"¡bb":556,"ber":557,"¡ban":558,"den":559,"est":560,"Ġvolt":561,"ĠÃŃ":562,"Ġut":563,"mÅ±":564,"¶tt":565,"ĠmÃ¡r":566,"zÅĳ":567,"atÃ¡s":568,"Ġtud":569,"ĠrÃ":570,"Ã©v":571,"eket":572,"..":573,"lÃ©s":574,"Ġha":575,"ĠkÃ¶zÃ":576,"ba":577,"okat":578,"Ġer":579,"Ġem":580,"kap":581,"ezet":582,"Ã¶s":583,"©ben":584,"ta":585,"Ġin":586,"Ġcsak":587,"elÃ":588,"aszt":589,"ĠV":590,"Ġl":591,"Ġ-":592,"nÃ¡l":593,"mint":594,"rÃ³":595,"ge":596,"Ã¡ly":597,"ĠÃ©v":598,"Ġmag":599,"Ã©p":600,"Ã©szÃ":601,"zÃ©s":602,"©rt":603,"Ã¡k":604,"za":605,"ĠâĢĵ":606,"Ġjele":607,"elle":608,"Ġan":609,"ĠmÃ©g":610,"hoz":611,"©ly":612,"Ġkap":613,"ony":614,"ia":615,"ug":616,"Ġtart":617,"ma":618,"va":619,"Ãī":620,"ĠD":621,"hatÃ³":622,"Ġkell":623,"Ġmint":624,"ĠG":625,"Ã¼k":626,"ĠmÃ¡s":627,"alÃ³":628,"Ġami":629,"Ġame":630,"ĠC":631,"Ġne":632,"lÃŃt":633,"Ġval":634,"ti":635,"ĠL":636,"old":637,"Ġhely":638,"leg":639,"sze":640,"jÃ¡n":641,"bÃ³l":642,"Ġminden":643,"ĠÃ¼":644,"Ġfog":645,"agyar":646,"Ġvis":647,"ye":648,"sÅĳ":649,"Ġsze":650,"ket":651,"Ġkez":652,"ĠÃ¶s":653,"sÃ©ge":654,"Ġfor":655,"lyen":656,"len":657,"mÃ¡ny":658,"kÃ©n":659,"iszt":660,"©z":661,"Ġvi":662,"jÃ¡t":663,"Ġpr":664,"¶k":665,"³d":666,"esz":667,"ĠkÃ©p":668,"Ã¼nk":669,"obb":670,"Ġazt":671,"um":672,"ĠvÃ©g":673,"ĠÃ¡ll":674,"eszt":675,"Ġkor":676,"Ã©se":677,"¡ra":678,"elt":679,"Ġese":680,"©let":681,"juk":682,"nny":683,"¡ciÃ³":684,"Ġsem":685,"¶l":686,"Ġszere":687,"ĠtÃ¶bb":688,"Ġig":689,"esen":690,"jt":691,"Ã©rt":692,"Ã¡sÃ":693,"Ãģ":694,"ĠR":695,"Ġnap":696,"ĠfÃ":697,"op":698,"01":699,"kÃ©nt":700,"ĠhÃ":701,"rÃ³l":702,"mert":703,"ĠJ":704,"hez":705,"ult":706,"ĠÃ¡t":707,"szÃ¡g":708,"¼k":709,"Ġamely":710,"vÃ©":711,"Ġalap":712,"¶r":713,"ajd":714,"hetÅĳ":715,"¼lÃ":716,"âĢĿ":717,"Ġrend":718,"li":719,"Az":720,"ĠÃºj":721,"Ġeset":722,"for":723,"ĠmÅ±":724,"ozÃ¡s":725,"ĠkÃ¶z":726,"ĠÃ©rt":727,"ko":728,"del":729,"¡mÃ":730,"pe":731,"Ġbi":732,"ob":733,"ovÃ":734,"ĠidÅĳ":735,"un":736,"¡val":737,"Ġoly":738,"vez":739,"jÃ¡k":740,"ur":741,"Ġhasz":742,"kis":743,"ci":744,"orszÃ¡g":745,"mond":746,"©le":747,"lsÅĳ":748,"Ġakkor":749,"atok":750,"eszÃ":751,"ani":752,"kÃ©szÃ":753,"ost":754,"Ã¡sa":755,"ort":756,"dÃ³":757,"Ġszerint":758,"id":759,"ÃŃr":760,"Ġtal":761,"eb":762,"ozÃ³":763,"ikus":764,"rÅĳl":765,"ĠÅĳ":766,"Ã©re":767,"Ġtan":768,"csÃ":769,"ch":770,"Ġkis":771,"Ġember":772,"Ġar":773,"vÃ©ny":774,"fe":775,"ĠlÃ¡t":776,"Ã©ben":777,"Ġolyan":778,"alm":779,"ĠjÃ³":780,"rtÃ©n":781,"Ġmind":782,"Ġhan":783,"Ġhoz":784,"Ã¡lis":785,"mik":786,"¡d":787,"zi":788,"ĠkÃ¶vet":789,"Ġelle":790,"osÃŃt":791,"st":792,"olÃ³":793,"ĠvÃ¡l":794,"abb":795,"ĠszÃ¡mÃ":796,"ÃŃv":797,"ette":798,"lÃ¡g":799,"¡lÃ³":800,"ert":801,"Ġjelent":802,"Ġ3":803,"Ã¼let":804,"edig":805,"Ġok":806,"ĠÃŃg":807,"zÃ¡s":808,"Ġsok":809,"ĠelÃ":810,"¼lÃ¶n":811,"ĠutÃ¡n":812,"Ã©let":813,"sza":814,"ĠkÃ©r":815,"Ġsor":816,"na":817,"¶v":818,"Ã©ny":819,"ĠvalÃ³":820,"kÃ©p":821,"Ńn":822,"\":":823,"kel":824,"Ġjog":825,"ĠtÃ¡":826,"ĠszÃ¡m":827,"zen":828,"Ġtel":829,"ĠO":830,"ovÃ¡bb":831,"elÃ©s":832,"ĠÃŃgy":833,"ere":834,"tek":835,"ĠÃ¡lt":836,"Ġazon":837,",\"":838,"ir":839,"Ã©nek":840,"lÃ©":841,"Ġpedig":842,"ozt":843,"ĠvÃ¡r":844,"tÃ©s":845,"zÃ©rt":846,"Ġbizt":847,"Ġhat":848,"bÅĳl":849,"Ġeg":850,"elsÅĳ":851,"ĠtÃ¶rtÃ©n":852,"av":853,"ĠkÃ¶r":854,"Ã¡rs":855,"Ġfoly":856,"ri":857,"Ġmert":858,"oldal":859,"zel":860,"ĠkÃ©t":861,"ĠÃ©p":862,"ĠszemÃ":863,"ĠEg":864,"ĠkÃ¼lÃ¶n":865,"ng":866,"magyar":867,"Ġre":868,"ĠÃ©let":869,"Ġah":870,"atos":871,"lan":872,"egÃŃt":873,"ontos":874,"akÃ":875,"ĠÃī":876,"ran":877,"vÃ¡n":878,"ĠÃ¡l":879,"ĠelsÅĳ":880,"kat":881,"©vel":882,"vezet":883,"jÃ¡r":884,"ĠEz":885,"Ġles":886,"iv":887,"tlen":888,"Ãĸ":889,"ikai":890,"Ã¡st":891,"lÃ¡t":892,"ĠâĢŀ":893,"ĠszÃ³":894,"zÃ³":895,"Ã©g":896,"Ġszab":897,"Ã¶n":898,"mÃ¡s":899,"Ġlesz":900,"Ġadat":901,"³g":902,"Ã¼lt":903,"ĠhasznÃ¡l":904,"zÃ¡":905,"majd":906,"Ġele":907,"tele":908,"mikor":909,"pont":910,"Ġmagyar":911,"ĠÃºg":912,"ĠÃºgy":913,"Ġmond":914,"Ã¡z":915,"Ã³g":916,"Ġmajd":917,"fi":918,"nap":919,"oszt":920,"Ńv":921,"Ġalkal":922,"ĠnÃ©":923,"Ã©szet":924,"Ġil":925,"ce":926,"any":927,"Ġkapcs":928,"zat":929,"ÃŃz":930,"Ġ201":931,"szt":932,"Ã¶r":933,"szerÅ±":934,"Ġgyer":935,"Ġszem":936,"ĠkÃ©szÃ":937,"ĠÃ¡ltal":938,"Ġgond":939,"mar":940,"yan":941,"alom":942,"llett":943,"nnyi":944,"fÃ":945,"Ġhal":946,"ĠtovÃ¡bb":947,"nÅĳ":948,"Ġszak":949,"ĠvilÃ¡g":950,"zak":951,"Ġillet":952,"lv":953,"sÃ©ges":954,"...":955,"ĠfÅĳ":956,"adÃ¡s":957,"ĠsegÃŃt":958,"ĠszemÃ©ly":959,"teg":960,"jÃ¼k":961,"vÃ©t":962,"fele":963,"Ġst":964,"ĠkÃ¶zÃ¶tt":965,"tem":966,"ĠvÃ¡lt":967,"Ġint":968,"ha":969,"Ġug":970,"ter":971,"ĠÃ¡r":972,"Ã©si":973,"Ġnagyon":974,"im":975,"ass":976,"tÅĳ":977,"¼let":978,"Ã¼g":979,"ĠmÃ³d":980,"Ġmely":981,"munk":982,"Ġfej":983,"fog":984,"nd":985,"bÃ":986,"Ġve":987,"hÃ¡z":988,"incs":989,"ĠÃ¶ss":990,"¡b":991,"kÃ¼l":992,"¡j":993,"Ġfele":994,"©d":995,"Ġ19":996,"sal":997,"koz":998,"Ġezt":999,"ink":1000,"Ġszolg":1001,"ami":1002,"ĠtalÃ¡l":1003,"met":1004,"eni":1005,"net":1006,"©ke":1007,"ĠÃ©rd":1008,"asÃ¡g":1009,"ĠÃ¶ssze":1010,"zÃ¡r":1011,"ata":1012,"¼nk":1013,"gÃ":1014,"Ġol":1015,"Ġmunk":1016,"Ġaki":1017,"rÃ¡ny":1018,"Ġmegt":1019,"ment":1020,"Åĳk":1021,"Ġfi":1022,"ĠlehetÅĳ":1023,"ĠjÃ¡r":1024,"ĠcsÃ":1025,"ĠSz":1026,"Ġegye":1027,"kom":1028,"Ã©st":1029,"ĠegÃ©sz":1030,"azd":1031,"¶ld":1032,"hely":1033,"zett":1034,"akor":1035,"¶nt":1036,"Ġ4":1037,"Ã©vel":1038,"ei":1039,"lal":1040,"ĠszÃ¼k":1041,"sÃ©get":1042,"Ġ5":1043,"Ã¡si":1044,"Ġkapcsol":1045,"jele":1046,"ĠNem":1047,"kÃ¡r":1048,"adÃ":1049,"nni":1050,"ĠjÃ¡t":1051,"ĠtÃ¶r":1052,"elv":1053,"³k":1054,"ram":1055,"hasz":1056,"ezt":1057,"ĠHa":1058,"ĠcÃ©l":1059,"mek":1060,"¶lt":1061,"Ġ\"":1062,"Ġz":1063,"ati":1064,"©re":1065,"Ġugyan":1066,"most":1067,"vi":1068,"Ġide":1069,"Ġdolg":1070,"Ġszeret":1071,"Ã¡sok":1072,"Ġrendszer":1073,"Ġigaz":1074,"izs":1075,"kon":1076,"Ġvezet":1077,"Ġalatt":1078,"ner":1079,"Ġszint":1080,"Ġmost":1081,"ĠÃĸ":1082,"Åĳs":1083,"mun":1084,"Ġellen":1085,"Ġilletve":1086,"Ã¡llal":1087,"Ġtelj":1088,"ĠhozzÃ¡":1089,"³r":1090,"³t":1091,"ĠKÃ":1092,"Ġkom":1093,"ozott":1094,"\\\\":1095,"¶rÃ":1096,"ing":1097,"omÃ¡ny":1098,"Ã³gy":1099,"ĠrÃ©s":1100,"ĠtÃ¡m":1101,"Ġegyik":1102,"nnek":1103,"ĠrÃ©sz":1104,"kÃ¡":1105,"ĠÃ¶ssz":1106,"Ã©z":1107,"),":1108,"ĠfÃ©r":1109,"ekt":1110,"vas":1111,"nÃ©l":1112,"Ã¡rt":1113,"¶t":1114,"Ġvon":1115,"Ã¡ban":1116,"ĠMagyar":1117,"inek":1118,"Ġott":1119,"amint":1120,"atal":1121,"ĠcÃŃ":1122,"ĠZ":1123,"lÃ¡sÃ":1124,"Ġbiz":1125,"¡nak":1126,"mai":1127,"isz":1128,"Ġnek":1129,"ip":1130,"Ġakik":1131,"ĠÃģ":1132,"ver":1133,"ĠEgy":1134,"ĠfelÃ":1135,"Ã¡nak":1136,"ĠkÃŃ":1137,"ĠbÃ¡r":1138,"kol":1139,"vÃ¡ny":1140,"nne":1141,"rend":1142,"ajÃ¡t":1143,"ĠtÃº":1144,"Ġmegfele":1145,"Ġmar":1146,"ĠU":1147,"Ġfelt":1148,"mut":1149,"ĠrÃ¡":1150,"atlan":1151,"Ġper":1152,"Ġitt":1153,"Ġhang":1154,"Ġvalamint":1155,"Ã¼tt":1156,"ebb":1157,"ĠÃ©l":1158,"\":\"":1159,"lÃ©k":1160,"essÃ©g":1161,"mÃ©t":1162,"Ġvissza":1163,"kod":1164,"ĠszÃ¡mÃ¡ra":1165,"lat":1166,"ĠpÃ©n":1167,"¼lt":1168,"\",\"":1169,"ezÅĳ":1170,"formÃ":1171,"osan":1172,"dÃ¡":1173,"Ġarra":1174,"ogram":1175,"Ġind":1176,"Ġany":1177,"Ġoldal":1178,"szak":1179,"Ġrendel":1180,"ĠbeszÃ":1181,"zik":1182,"Ã¡ra":1183,"Ġamit":1184,"hu":1185,"dik":1186,"ĠkÃ¶vetkez":1187,"ven":1188,"tÃ³l":1189,"Ġmiatt":1190,"Ġkon":1191,"Ġked":1192,"lm":1193,"ĠtermÃ":1194,"¡cs":1195,"hÃ¡ny":1196,"ĠlÃ©t":1197,"Ġfig":1198,"sÃ³":1199,"ĠMi":1200,"Ã¡bb":1201,"eng":1202,"Ġtele":1203,"Ġhanem":1204,"Ġmellett":1205,"ĠelÅĳtt":1206,"ĠÃ¼g":1207,"kÃ¶z":1208,"Ġjelen":1209,"ajt":1210,"Ġw":1211,"ezÃ©s":1212,"mÃ©szet":1213,"Ġpar":1214,"urÃ³":1215,"alÃ¡d":1216,"Ġvisz":1217,"ind":1218,"Ġnincs":1219,"Ġsik":1220,").":1221,"Ġver":1222,"ĠmÅ±kÃ¶":1223,"ĠszÃ¡z":1224,"Ã¶nt":1225,"lap":1226,"Ã¡llÃŃt":1227,"ekkel":1228,"©lt":1229,"Ã©lkÃ¼l":1230,"elem":1231,"Ġamikor":1232,"tal":1233,"kar":1234,"tam":1235,"Ã¶t":1236,"ĠsajÃ¡t":1237,"pen":1238,"utÃ":1239,"¶z":1240,"ĠorszÃ¡g":1241,"ĠkÃ¼l":1242,"nÃ©":1243,"ĠÃºt":1244,"leszt":1245,"ege":1246,"ĠÃ¶n":1247,"ĠegyÃ¼tt":1248,"âĢ¦":1249,"up":1250,"sÃº":1251,"0000":1252,"ĠvÃ¡laszt":1253,"Ġor":1254,"tak":1255,"Ġrendelkez":1256,"ĠkezelÃ©s":1257,"adÃ³":1258,"eme":1259,"nyi":1260,"kut":1261,"Ġelt":1262,"¡bÃ³l":1263,"ulÃ¡s":1264,"of":1265,"ulÃ³":1266,"ĠpÃ©l":1267,"olÃ³g":1268,"Ã¡sz":1269,"ĠtÃ¡rs":1270,"izsg":1271,"Ġbeteg":1272,"ĠgyÃ³gy":1273,"Ġazonban":1274,"¡ba":1275,"Ġse":1276,"ĠÃ¼gy":1277,"ĠmegfelelÅĳ":1278,"ull":1279,"Åĳt":1280,"Ġmun":1281,"©b":1282,"ill":1283,"ĠÃ©n":1284,"Ġered":1285,"nte":1286,"osz":1287,"Ã¶rÃ":1288,"ov":1289,"olna":1290,"yen":1291,"Ġgondol":1292,"ĠW":1293,"ekben":1294,"Ġ6":1295,"ĠbiztosÃŃt":1296,"Ġahol":1297,"Ã©b":1298,"ĠtÃ¡r":1299,"fej":1300,"ĠvÃ¡llal":1301,"ĠszolgÃ¡lt":1302,"von":1303,"ĠterÃ¼let":1304,"ĠszÃŃn":1305,"ĠigÃ©ny":1306,"atot":1307,"Ġjobb":1308,"lem":1309,"Ġilyen":1310,"sor":1311,"ĠÃŃr":1312,"Ġhar":1313,"ĠpÃ¡r":1314,"urÃ³p":1315,"ĠcsalÃ¡d":1316,"Ġtest":1317,"vÃ¡r":1318,"vis":1319,"ĠnÃ©lkÃ¼l":1320,"pr":1321,"¡sÃ¡r":1322,"Ã¶tt":1323,"nyv":1324,"ac":1325,"Ġfoglal":1326,"hasznÃ":1327,"ember":1328,"sel":1329,"ĠtÃ¡mog":1330,"olÃ¡s":1331,"Ġkeres":1332,"Ġben":1333,"ĠbÅĳ":1334,"dig":1335,"ant":1336,"Ġja":1337,"Ġalkalm":1338,"Ġgyakor":1339,"Ãºjt":1340,"ĠsorÃ¡n":1341,"moz":1342,"ĠakÃ¡r":1343,"ĠkÃ©rdÃ©s":1344,"ÃŃj":1345,"ÃŃtott":1346,"ĠDe":1347,"ï¿":1348,"ï¿½":1349,"okkal":1350,"oss":1351,"ĠSzÃ":1352,"Ġvolna":1353,"Ġtiszt":1354,"Ã¡m":1355,"tte":1356,"¶g":1357,"Ġpont":1358,"kozÃ¡s":1359,"sÃ©gi":1360,"kozÃ³":1361,"jÃ©k":1362,"Ġfontos":1363,"Ġsiker":1364,"ka":1365,"Ã¡rom":1366,"ÃŃtÃ":1367,"ors":1368,"Ġbizony":1369,"ĠajÃ¡n":1370,"Ġ200":1371,"Ġannak":1372,"tart":1373,"ĠalapjÃ¡n":1374,"Ġma":1375,"ĠGy":1376,"Ġvalami":1377,"yi":1378,"Ġfolyam":1379,"Ġkar":1380,"onsÃ¡g":1381,"Ġprogram":1382,"Ġhagy":1383,"tr":1384,"ĠkÃ¶zÃ¶s":1385,"201":1386,"³z":1387,"Ġtag":1388,"ekint":1389,"ĠhÃ©t":1390,"Ġmegv":1391,"ĠeredmÃ©ny":1392,"ĠbelÃ":1393,"ĠjÃ³l":1394,"det":1395,"Ġismer":1396,"formÃ¡ciÃ³":1397,"¡hoz":1398,"adt":1399,"lmÃ":1400,"ĠhatÃ¡r":1401,"ĠtermÃ©szet":1402,"gen":1403,"anak":1404,"Ġmindig":1405,"ĠtÃ¼":1406,"SZ":1407,"Ġgazd":1408,"ĠdÃ¶nt":1409,"Ġesz":1410,"Ġhi":1411,"Ġmagas":1412,"kÃ¡bb":1413,"dett":1414,"mal":1415,"gel":1416,"okÃ":1417,"seny":1418,"omb":1419,"ang":1420,"sÃ©gek":1421,"ĠtÃºl":1422,"zem":1423,"Ġlett":1424,"ĠesetÃ©n":1425,"utÃ³":1426,"omÃ":1427,"Ġkut":1428,"atott":1429,"kedÃ©s":1430,"egye":1431,"Ġes":1432,"ĠkerÃ¼l":1433,"ŃvÃ¼l":1434,"Ġcsap":1435,"ess":1436,"ezte":1437,"Ġ10":1438,"udap":1439,"yel":1440,"Ġazok":1441,"di":1442,"Ã³t":1443,"udapest":1444,"ĠkÃ¶lt":1445,"iszen":1446,"¡tt":1447,"lyet":1448,"¶kke":1449,"ĠazÃ©rt":1450,"Ġ8":1451,"nkor":1452,"zal":1453,"Ġszabad":1454,"Ã¡cs":1455,"Ġnyil":1456,"ĠtermÃ©k":1457,"kÃ©s":1458,"Åĳe":1459,"Ã¡ciÃ³":1460,"Ã©ke":1461,"ĠszÃ¡l":1462,"Ġ20":1463,"ist":1464,"Ġkereszt":1465,"Ãļ":1466,"port":1467,"hogy":1468,"Åĳen":1469,"ĠjÃ¡tÃ©k":1470,"almaz":1471,"Ġed":1472,"zab":1473,"Ġmut":1474,"ezÃ©rt":1475,"vÅĳ":1476,"uszt":1477,"©ve":1478,"ĠlÃ©p":1479,"Ġanyag":1480,"Ġ7":1481,"ic":1482,"atÃ¡sÃ":1483,"ĠkÃ©szÃŃt":1484,"la":1485,"ĠszerzÅĳ":1486,"szÃ¡m":1487,"etlen":1488,"Ġakar":1489,"ĠszÃ¡mÃŃt":1490,"jÃ©n":1491,"Ġmunka":1492,"ĠezÃ©rt":1493,"Ã©sÃ©t":1494,"ĠhÃ¡z":1495,"ĠCs":1496,"kot":1497,"Ġford":1498,"Ġko":1499,"omÃ¡s":1500,"Ãį":1501,"rÃ¡n":1502,"usz":1503,"ajn":1504,"rÃ³b":1505,"hatÃ¡r":1506,"ĠirÃ¡ny":1507,"©hez":1508,"inak":1509,"sen":1510,".)":1511,"zÃ¡l":1512,"ĠpÃ¡ly":1513,"dÃ¡ul":1514,"ĠinformÃ¡ciÃ³":1515,"ason":1516,"Ġmoz":1517,"jon":1518,"³s":1519,"ĠtÃ©r":1520,"Ġra":1521,"hon":1522,"ĠkÃ¶rny":1523,"oda":1524,"Ã¡ny":1525,"Ã©sek":1526,"ĠerÅĳ":1527,"jÃ¡ban":1528,"ĠmÃ©r":1529,"ĠÃ©rte":1530,"ĠIst":1531,"ĠtÃ¶rvÃ©ny":1532,"Ã¡nos":1533,"ĠelÃ©g":1534,"oblÃ©":1535,"fal":1536,"almas":1537,"rÃ¡":1538,"Ã©ly":1539,"mÃ©nyek":1540,"ĠszabÃ¡ly":1541,"Ġsemmi":1542,"tÅĳl":1543,"nem":1544,"ĠkÃ¶nny":1545,"oport":1546,"Ġfogy":1547,"ĠrÃ©szÃ":1548,"Ġjelle":1549,"leges":1550,"vos":1551,"Ġszervezet":1552,"anyag":1553,"iai":1554,"Ġweb":1555,"ĠkÃ¶tele":1556,"ves":1557,"Ġfelad":1558,"Ġhiszen":1559,"ĠelÃ©r":1560,"Ġelv":1561,"ĠÃ©rint":1562,"ie":1563,"ĠszÃ¼ksÃ©ges":1564,"ozat":1565,"eken":1566,"Ã¶lt":1567,"olit":1568,"amp":1569,"ĠnÅĳ":1570,"Ġteljes":1571,"elek":1572,"ika":1573,"Ġreg":1574,"Ġnemzet":1575,"Ġvannak":1576,"Ġgyermek":1577,"and":1578,"lnÃ":1579,"Ġmill":1580,"Ġkev":1581,"Ġmegjele":1582,"Ġmilyen":1583,"ÃŃtÃ³":1584,"20":1585,"ĠnÃ©p":1586,"keny":1587,"¶m":1588,"Ġvizsg":1589,"ĠhÃ³":1590,"Ġbele":1591,"lg":1592,"hÃ¡t":1593,"lag":1594,"Ġvonat":1595,"bÃ¶":1596,"ĠhÃ¡rom":1597,"lik":1598,"tÃ¡r":1599,"jesÃŃt":1600,"szÃŃn":1601,"Ġezek":1602,"okban":1603,"ĠsÃ¼":1604,"Ã¡sÃ¡t":1605,"ĠmÃ¡sik":1606,"ĠÃ¶t":1607,"ĠhÃ¡t":1608,"nc":1609,"Ġfil":1610,"ĠegyÃ©b":1611,"Ã³r":1612,"delmi":1613,"ĠhatÃ¡s":1614,"ĠproblÃ©":1615,"Ġbar":1616,"ossÃ¡g":1617,"ĠvÃ©r":1618,"Ġeng":1619,"Ġtekint":1620,"Ġhos":1621,"ĠrÃ©g":1622,"zs":1623,"ĠfÃ©l":1624,"bben":1625,"foly":1626,"ĠminÅĳ":1627,"ĠÃ©ves":1628,"Ġtesz":1629,"szÃ¶n":1630,"ent":1631,"Ġamelyek":1632,"asztal":1633,"Ġid":1634,"zor":1635,"ulajd":1636,"ĠÃ©rdek":1637,"gal":1638,"akÃŃt":1639,"ĠkÃ©s":1640,"Ã¼gg":1641,"ĠfelhasznÃ":1642,"Åĳbb":1643,"jobb":1644,"esebb":1645,"mel":1646,"ener":1647,"ro":1648,"szab":1649,"hal":1650,"ezett":1651,"zÃ¡n":1652,"ĠtÅ±":1653,"ĠszolgÃ¡ltatÃ¡s":1654,"csi":1655,"jÃ©kozt":1656,"ĠvÃŃz":1657,"¡gy":1658,"kÃ©t":1659,"fel":1660,"ĠintÃ©z":1661,"ĠbelÃ¼l":1662,"ĠvÃ¡ros":1663,"ĠtÃ¶rtÃ©ne":1664,"ºlt":1665,"ĠMagyarorszÃ¡g":1666,"Ġadott":1667,"ĠadÃ³":1668,"Ġhelyzet":1669,"ĠtÃ©ny":1670,"Ġtap":1671,"Ġhaz":1672,"tor":1673,"Ġkat":1674,"nagy":1675,"atban":1676,"ĠÃ©pÃŃt":1677,"ismer":1678,"Ġabb":1679,"âĢĵ":1680,"ĠkÃ¡r":1681,"Ġesetben":1682,"ossz":1683,"Ġverseny":1684,"ĠNagy":1685,"ĠkormÃ¡ny":1686,"szÃ¶r":1687,"¡p":1688,"ĠformÃ":1689,"ep":1690,"Ã©hez":1691,"ĠteljesÃŃt":1692,"Ã³k":1693,"ium":1694,"ĠszÃ¼":1695,"Ġviszont":1696,"otta":1697,"Ġ9":1698,"Ã©le":1699,"ine":1700,"ĠcÃ©g":1701,"ked":1702,"utÃ¡n":1703,"mÃ©r":1704,"ord":1705,"ÅĲ":1706,"rÃ¡s":1707,"ĠszÃ©p":1708,"telen":1709,"Ġgyerek":1710,"ĠpÃ©ldÃ¡ul":1711,"¡lÃ¡s":1712,"var":1713,"ĠkÃ¶ze":1714,"ÃŃtÃ¡s":1715,"ub":1716,"\\\\\\\\":1717,"ĠmunkÃ":1718,"Eg":1719,"vÃ©keny":1720,"Ã¡b":1721,"Ġnyug":1722,"elmÃ":1723,"Ġokt":1724,"odik":1725,"Ńg":1726,"Ġmegold":1727,"ĠkÃ¶rÃ¼l":1728,"ĠszemÃ©lyes":1729,"ĠegyszerÅ±":1730,"vit":1731,"szik":1732,"chn":1733,"Ġhaszn":1734,"Ġment":1735,"Ġszinte":1736,"ezni":1737,"alÃ©k":1738,"ĠMeg":1739,"ĠrÃ©sze":1740,"ÂŃ":1741,"ikÃ":1742,"Ġ15":1743,"ĠMin":1744,"Ġadatok":1745,"II":1746,"Ġnagyobb":1747,"Ã©szt":1748,"mad":1749,"ĠfeltÃ©t":1750,"Ġkial":1751,"Ãĵ":1752,"Ġmarad":1753,"¶bb":1754,"Ġlenne":1755,"¡ja":1756,"ĠfÃ¡j":1757,"Ġlegjobb":1758,"ĠvÃ©":1759,"lak":1760,"jegy":1761,"Ha":1762,"ĠkorÃ¡bb":1763,"Ã©ve":1764,"urÃ³pai":1765,"ĠcsÃ¶kke":1766,"szÃº":1767,"Ġrende":1768,"Ã¶bb":1769,"vÃ©g":1770,"csak":1771,"iÃ¡k":1772,"ook":1773,"Ã³z":1774,"¼g":1775,"olni":1776,"Ġmennyi":1777,"³ta":1778,"atni":1779,"ĠrÃ©szt":1780,"mest":1781,"Ġgyors":1782,"Ã©sÃ©re":1783,"Ġhason":1784,"Ġminde":1785,"jÃ©t":1786,"Ġlegyen":1787,"ĠBudapest":1788,"ait":1789,"ĠvezetÅĳ":1790,"Ġhogyan":1791,"Ġ18":1792,"ĠnÃ©hÃ¡ny":1793,"ĠszÃ¡r":1794,"ÃŃrÃ³":1795,"fÃ©le":1796,"ĠnyÃºjt":1797,"ĠÃ¶rÃ":1798,"Ġfolyt":1799,"ĠszÃŃv":1800,"Ġfejleszt":1801,"ĠhÃ³nap":1802,"Ġjut":1803,"Ã³ta":1804,"Ġtulajd":1805,"tÃ¡k":1806,"Ġoszt":1807,"rand":1808,"ĠÃ©t":1809,"Ġalkalmaz":1810,"ĠmeghatÃ¡r":1811,"end":1812,"ĠegymÃ¡s":1813,"kÃ©ben":1814,"ĠkÃ©pes":1815,"ĠvÃ¡sÃ¡r":1816,"ĠtevÃ©keny":1817,"Ġmel":1818,"Ġere":1819,"tÃ©ben":1820,"Ã³s":1821,"Ġeb":1822,"Ġszerep":1823,"lfog":1824,"Ġenged":1825,"ĠlakÃ":1826,"kÃ¶zÃ":1827,"¶vet":1828,"Ã©d":1829,"gt":1830,"ĠtÃ©":1831,"dÃ©k":1832,"lÅĳs":1833,"ford":1834,"Ġfen":1835,"jÃ¡nak":1836,"heti":1837,"llÃ¡t":1838,"ĠhÃŃr":1839,"ĠkÃ¼lÃ¶nbÃ¶":1840,"olgÃ¡r":1841,"Ġmit":1842,"ĠOr":1843,"mennyi":1844,"asÃ¡gi":1845,"Ġnyom":1846,"ĠinkÃ¡bb":1847,"Ġap":1848,"Ã©sre":1849,"atja":1850,"ĠnÃ¶":1851,"ĠsegÃŃtsÃ©g":1852,"Ġing":1853,"¶vÅĳ":1854,"Å±r":1855,"Ġvagyok":1856,"oknak":1857,"fÃ©r":1858,"Åĳr":1859,"©gy":1860,"ĠÃ©rde":1861,"mus":1862,"atÃ¡si":1863,"nal":1864,"megy":1865,"Ġu":1866,"Ġvala":1867,"eknek":1868,"ĠtÃ¡v":1869,"19":1870,"tik":1871,"Ġlak":1872,"mo":1873,"ĠelmÃ":1874,"Egy":1875,"jai":1876,"AT":1877,"lott":1878,"ĠSzer":1879,"ennek":1880,"bet":1881,"ĠhiÃ":1882,"Ez":1883,"mely":1884,"dt":1885,"ĠFe":1886,"apot":1887,"ĠhÃº":1888,"rÃ©":1889,"ĠgyÃ³gyszer":1890,"ĠkÃ©pvis":1891,"ĠÅĳket":1892,"sÃ©":1893,"ettÃ©k":1894,"ĠÃļ":1895,"ĠlehetÅĳsÃ©g":1896,"szÃŃ":1897,"ĠEgye":1898,"Ġforint":1899,"Ġezzel":1900,"EL":1901,"ĠkÃ¶nyv":1902,"atkoz":1903,"rÃ¡g":1904,"atÃ©k":1905,"ĠkerÃ¼lt":1906,"zolg":1907,"orÃº":1908,"Ã¡p":1909,"ĠszÃ¼ksÃ©g":1910,"ĠbeszÃ©l":1911,"elet":1912,"Ġcik":1913,"talan":1914,"Ġiz":1915,"Ġvele":1916,"ris":1917,"eli":1918,"elfog":1919,"ĠfÃ©ny":1920,"nkormÃ¡ny":1921,"Ã¼lÃ©s":1922,"ige":1923,"Ãľ":1924,"emut":1925,"kezelÃ©s":1926,"lÅĳdÃ©s":1927,"ĠtalÃ¡lhatÃ³":1928,"ĠÃ©rdekÃ©ben":1929,"Ġahogy":1930,"ĠÃ¡llÃŃt":1931,"atÃŃv":1932,"ĠkÃ¶t":1933,"ĠkÃ¶vetkezÅĳ":1934,"ellÃ¡t":1935,"akat":1936,"hÃ©r":1937,"Ġ:":1938,"rit":1939,"Ġhiv":1940,"ĠKÃ¶":1941,"Ġtelep":1942,"ĠnyilvÃ¡n":1943,"Ġfizet":1944,"etÃ©s":1945,"jelent":1946,"ĠszÃ³lÃ³":1947,"ljÃ¡r":1948,"ĠtovÃ¡bbi":1949,"fon":1950,"ĠfÃ©rfi":1951,"ÃŃp":1952,"Ġtapasztal":1953,"pl":1954,"Ġelfog":1955,"©lÅĳ":1956,"Å±jt":1957,"dÃ¶tt":1958,"Ġismert":1959,"Ġalak":1960,"ĠÂ":1961,"©vÅĳ":1962,"Ġkics":1963,"Ġhit":1964,"ĠlÃ©tre":1965,"acs":1966,"emes":1967,"atosan":1968,"eljÃ¡r":1969,"ĠÃīs":1970,"Ġkelle":1971,"ĠtÃ¶lt":1972,"Ġegyes":1973,"hatja":1974,"Ġigen":1975,"ĠnÃ©z":1976,"vÃ¡lt":1977,"alÃ¡bb":1978,"Ġteljesen":1979,"mÃ¡l":1980,"lh":1981,"ĠTe":1982,"ĠszerzÅĳdÃ©s":1983,"okon":1984,"ĠarrÃ³l":1985,"ĠÃºjra":1986,"Ġhon":1987,"Ġlel":1988,"ĠBe":1989,"Ġir":1990,"Ġkit":1991,"Mi":1992,"ĠÃ©ve":1993,"ru":1994,"Ġegyszer":1995,"Ġpolit":1996,"Ġegyed":1997,"ĠkÃ¼lÃ¶nbÃ¶zÅĳ":1998,"ĠkÃ¶rnyezet":1999,"elnÃ":2000,"Ã©rÅĳl":2001,"ĠtÃ¡jÃ©kozt":2002,"nagyobb":2003,"ĠvizsgÃ¡l":2004,"ĠkÃŃvÃ¡n":2005,"ĠgÃ©p":2006,"Ġperc":2007,"Ġennek":2008,"hetetlen":2009,"kÃ¶zi":2010,"sÃºly":2011,"rÃ³bÃ¡l":2012,"zÃ©se":2013,"lni":2014,"ĠszÃ¡zalÃ©k":2015,"Ġje":2016,"Ġolvas":2017,"jabb":2018,"mat":2019,"zlet":2020,"Ġbek":2021,"zott":2022,"Ã¡sÃ¡ra":2023,"Ġviss":2024,"ista":2025,"da":2026,"ĠLe":2027,"szor":2028,"Ġtervez":2029,"Ġmivel":2030,"Ġegyre":2031,"ĠeljÃ¡r":2032,"ĠEr":2033,"Ġmegy":2034,"lett":2035,"mu":2036,"Ġinter":2037,"ĠkÃ¶szÃ¶n":2038,"Ġkere":2039,"³ra":2040,"¡v":2041,"Ġneki":2042,"Ġdol":2043,"lo":2044,"Ã¡laszt":2045,"aki":2046,"fizet":2047,"ĠÃ©rtÃ©k":2048,"Ã¼lÃ":2049,"ekre":2050,"ozik":2051,"false":2052,"almi":2053,"ĠkÃŃvÃ¼l":2054,"10":2055,"si":2056,"ĠAd":2057,"par":2058,"ĠÃĸn":2059,"Ã¡val":2060,"mÃ©nye":2061,"ĠÃ©rkez":2062,"kÃ³":2063,"mÃ¡t":2064,"Ġfal":2065,"Ġfiatal":2066,"ĠâĢľ":2067,"elen":2068,"zÃŃt":2069,"ĠkÃ¶zÃ¼l":2070,"ĠhosszÃº":2071,"ĠkeresztÃ¼l":2072,"ĠzÃ¡r":2073,"rendszer":2074,"ĠbiztonsÃ¡g":2075,"Ġpl":2076,"rel":2077,"enek":2078,"ĠelnÃ":2079,"andÃ³":2080,"Ġfok":2081,"jÃº":2082,"Ġemberek":2083,"ĠKÃ¶z":2084,"ĠvonatkozÃ³":2085,"Ġfigyel":2086,"Ġmindenki":2087,"ĠtÃ¡rg":2088,"ÃŃtÃ©s":2089,"Ġfogyaszt":2090,"sÃ©gÃ©t":2091,"erÅĳ":2092,"delem":2093,"Ġeze":2094,"ĠhasonlÃ³":2095,"bi":2096,"ca":2097,"alma":2098,"Ġmer":2099,"Ġtanul":2100,"Ã¡ssal":2101,"ĠnÃ©gy":2102,"kult":2103,"Ġalkot":2104,"hÃ©z":2105,"Ġpontos":2106,"ĠmÃ³don":2107,"Ġ12":2108,"assz":2109,"Ġjav":2110,"ĠSze":2111,"ozÃ¡sÃ":2112,"Ġannyi":2113,"ĠtÃ¶rtÃ©nÅĳ":2114,"ĠfelhasznÃ¡lÃ³":2115,"ĠmÃ¡sodik":2116,"nkormÃ¡nyzat":2117,"000":2118,"kÃ©szÃŃt":2119,"ertÅĳ":2120,"Ġmegb":2121,"Ġbor":2122,"Ġjel":2123,"Ġfilm":2124,"ĠfÃ¡jd":2125,"ĠÃ³ta":2126,"nÃ©k":2127,"sÃ¡gi":2128,"okra":2129,"Ġze":2130,"ĠlÃ¡tog":2131,"Ġezen":2132,"ozni":2133,"Ġhelyi":2134,"Ġszerepe":2135,"dÃŃj":2136,"adott":2137,"ĠcÃŃm":2138,"ĠellÃ¡t":2139,"mot":2140,"sÃ¡got":2141,"Ġerre":2142,"tett":2143,"Ġpro":2144,"Ġorvos":2145,"ĠlegalÃ¡bb":2146,"Ġbemut":2147,"isb":2148,"ĠsÃº":2149,"©lÃ":2150,"Ġcsoport":2151,"kl":2152,"gatÃ³":2153,"Ã¡sra":2154,"ĠveszÃ":2155,"Ã³ra":2156,"Ġeddig":2157,"©ret":2158,"hol":2159,"Ã©lÅĳ":2160,"energ":2161,"Ġazzal":2162,"veg":2163,"Ġweboldal":2164,"vÃ©delmi":2165,"ĠtÃ¡rsad":2166,"ĠegÃ©szsÃ©g":2167,"ĠhiÃ¡ny":2168,"ĠÃ©le":2169,"ĠÃ©rtÃ©ke":2170,"inÃ¡l":2171,"ĠÃį":2172,"Ġtechn":2173,"Ġti":2174,"mon":2175,"fÃ¶ld":2176,"ciÃ¡lis":2177,"kÃ©r":2178,"Ġcsat":2179,"elh":2180,"ĠautÃ³":2181,"Ġbenne":2182,"rende":2183,"Ġkellett":2184,"atÃ©kony":2185,"ya":2186,"Ġvoltak":2187,"amar":2188,"cia":2189,"elte":2190,"sÃ©r":2191,"Ġutol":2192,"ĠmÃ©rt":2193,"Ġdi":2194,"lete":2195,"Nem":2196,"fÅĳ":2197,"ĠtehÃ¡t":2198,"Ã¡nt":2199,"ĠfÃ¶ld":2200,"Ġvesz":2201,"ĠmilliÃ³":2202,"ĠkÃ©ny":2203,"lek":2204,"Ġtartalmaz":2205,"jÃ¡bÃ³l":2206,"Ġlegnagyobb":2207,"Ġhaj":2208,"ndÃ":2209,"ĠbarÃ¡t":2210,"Ġnyelv":2211,"Ġmondta":2212,"ĠRe":2213,"ĠÃ¡llapot":2214,"mod":2215,"uÃ¡lis":2216,"ettem":2217,"ĠkÃ¶zt":2218,"Ã³lag":2219,"har":2220,"dolg":2221,"ĠÃ©ppen":2222,"ĠkÃ¶zvet":2223,"hÃŃv":2224,"ĠkÃ©z":2225,"ĠNe":2226,"szi":2227,"Ġ0":2228,"ck":2229,"gÃ³":2230,"vÃ¡ros":2231,"dÃ©":2232,"rak":2233,"ĠmegÃ¡ll":2234,"hatnak":2235,"szÃ³":2236,"Ġugyanis":2237,"mester":2238,"ET":2239,"Ġtulajdon":2240,"ĠtÅĳ":2241,"ĠbÃ":2242,"ĠszÃŃ":2243,"--":2244,"zÃ¼k":2245,"ettek":2246,"eked":2247,"ĠrÃ¶v":2248,"ĠmagÃ¡t":2249,"part":2250,"Ġkifej":2251,"ziÃ³":2252,"Ġ30":2253,"omag":2254,"ĠkÃ©sÅĳbb":2255,"ĠÃŃrt":2256,"Ġrossz":2257,"ĠzÃ":2258,"arab":2259,"Ġokoz":2260,"Ġegyen":2261,"ĠjÃ¶vÅĳ":2262,"bbi":2263,"Ġebben":2264,"Ġszemben":2265,"Ġszervez":2266,"ĠalÃ":2267,"esÃŃt":2268,"ex":2269,"Ġtudja":2270,"Ã¼lÅĳ":2271,"iac":2272,"lj":2273,"ĠX":2274,"adÃ©k":2275,"ĠtÃ¶rtÃ©net":2276,"ER":2277,"ĠalÃ¡":2278,"ĠsÃºly":2279,"erenc":2280,"gazd":2281,"ĠÃ¡llam":2282,"Ġezer":2283,"ĠÃ©lÅĳ":2284,"alÃ¡n":2285,"felÃ":2286,"Ġotthon":2287,"Ġjellem":2288,"ĠÃ©rdemes":2289,"kÃ©sz":2290,"Ġsport":2291,"ĠcsÃ¶kkent":2292,"ĠmÅ±kÃ¶dÃ©s":2293,"mes":2294,"omÃ¡nyos":2295,"aton":2296,"ĠfelelÅĳs":2297,"ĠszÃ¼let":2298,"Ġenerg":2299,"bor":2300,"ĠemlÃ©k":2301,"©j":2302,"Ġhol":2303,"ĠnehÃ©z":2304,"mÃ¡k":2305,"sÃ¼l":2306,"Ġlap":2307,"ĠvÃ©le":2308,"elm":2309,"kozt":2310,"ĠkÃ¶zÃ©p":2311,"Ġsokkal":2312,"rÃ¡k":2313,"rÃ¡ciÃ³":2314,"Ġop":2315,"ĠcÃŃmÅ±":2316,"%-":2317,"nÅĳr":2318,"ĠdÃŃj":2319,"Ġemberi":2320,"ali":2321,"Ġmaga":2322,"men":2323,"sa":2324,"ĠtÃ¡rgy":2325,"Ġabban":2326,"Ã¡v":2327,".âĢĿ":2328,"jed":2329,"ĠvÃ¡lasz":2330,"lÃ¡m":2331,"Ġpart":2332,"per":2333,"sÃ©k":2334,"lÃ¡":2335,"Ġmegs":2336,"Ã¼r":2337,"olja":2338,"ĠkÃ©szÃ¼lt":2339,"ev":2340,"lenÃ¼l":2341,"Ġest":2342,"azit":2343,"ast":2344,"Ġon":2345,"ndÅĳ":2346,"zÃ¼let":2347,"ĠfelÃ©":2348,"sÃ¡ga":2349,"ft":2350,"Ġlegt":2351,"Ġszempont":2352,"alÃ¡ban":2353,"ndÃ©g":2354,"fÃ©l":2355,"Ġkult":2356,"Ġfin":2357,"ĠutolsÃ³":2358,"Ã¡g":2359,"jÃ¡ra":2360,"Ġmozg":2361,"ĠmÃ©gis":2362,"Ġmo":2363,"nik":2364,"Ġvit":2365,"ĠÃ¼zlet":2366,"ĠlÃ©ny":2367,"tan":2368,"zint":2369,"!!":2370,"ĠkÃ¼lÃ¶nÃ¶s":2371,"ĠmÃ³dszer":2372,"Ġrendez":2373,"âĢŀ":2374,"sebb":2375,"nia":2376,"ottak":2377,"ĠlÃ©vÅĳ":2378,"ĠÃ©vi":2379,"Ġlegf":2380,"vÃ¡":2381,"jekt":2382,"kÃ©ppen":2383,"man":2384,"ĠkÃ¶zel":2385,"lÃ©t":2386,"Ġ14":2387,"ĠkevÃ©s":2388,"ĠKi":2389,"Ã¼gyi":2390,"Ġelh":2391,"lÃ¡r":2392,"atÃ¡t":2393,"ron":2394,"Ġelek":2395,"get":2396,"©be":2397,"ĠkÃ¶vetÅĳen":2398,"ank":2399,"ÃŃrt":2400,"oh":2401,"ĠNemzet":2402,"atÃ³k":2403,"ĠtÃ¡mogatÃ¡s":2404,"Ġkezd":2405,"ĠkizÃ¡r":2406,"ĠtalÃ¡n":2407,"ĠRÃ":2408,"Ã¼n":2409,"beli":2410,"Ġalkalma":2411,"Ġiga":2412,"Ġmen":2413,"ĠÃ¶r":2414,"kÃ¶r":2415,"deti":2416,"ĠszolgÃ¡l":2417,"Ġjelentkez":2418,"Ġ16":2419,"adi":2420,"ĠmiÃ©rt":2421,"ss":2422,"Ġjegy":2423,"ĠMar":2424,"Ġtet":2425,"Ġelektr":2426,"hetnek":2427,"Ġ11":2428,"mÃ¡n":2429,"Ã¶k":2430,"Ġjavas":2431,"sÃŃ":2432,"kÅĳ":2433,"Ġbet":2434,"Ã©szÃŃt":2435,"ĠÃ©rvÃ©ny":2436,"ĠelÅĳre":2437,"Ġkicsit":2438,"ĠmegÃ¡llap":2439,"olÃ³giai":2440,"attal":2441,"Ã¡rd":2442,"ĠjÃº":2443,"ĠkÃ¶zben":2444,"vonal":2445,"hagy":2446,"rÃ¡t":2447,"ĠesetÃ©ben":2448,"©ket":2449,"Ġszo":2450,"Ġszakmai":2451,"sÃ¡r":2452,"Ġjelenleg":2453,"szabÃ¡ly":2454,"Ġcsapat":2455,"nÃ¶":2456,"ĠerÅĳs":2457,"Ġkomoly":2458,"ĠmÃŃg":2459,"Ãºj":2460,"ĠrÃ©szlet":2461,"Ġharmad":2462,"ĠNy":2463,"vÃ©n":2464,"der":2465,"ral":2466,"nye":2467,"hajt":2468,"jÃ¶n":2469,"ĠhÃŃv":2470,"ĠgyÃ¡rt":2471,"valÃ³":2472,"ĠismÃ©t":2473,"Ġoda":2474,"mÃ©nyt":2475,"Ġkisebb":2476,"Ã©lt":2477,"Ġ,":2478,"ĠTer":2479,"mÃ³d":2480,"ĠaztÃ¡n":2481,"yelem":2482,"ox":2483,"vezetÅĳ":2484,"ĠutÃ":2485,"atta":2486,"ozta":2487,"ĠbÅĳr":2488,"eres":2489,"akt":2490,"Ġfut":2491,"keze":2492,"ĠÃ©pÃ¼let":2493,"nyomÃ¡s":2494,"ĠpÃ¡lyÃ¡z":2495,"mÃ¡r":2496,"Ġtudom":2497,"lÃ¡n":2498,"ĠmÅ±v":2499,"ĠszÃ³l":2500,"ukat":2501,"log":2502,"ĠtÃŃp":2503,"ĠhatÃ³":2504,"kÃ¡t":2505,"ĠvÃ©gre":2506,"ff":2507,"izmus":2508,"Ã¡sban":2509,"ĠsegÃŃtsÃ©gÃ©vel":2510,"ns":2511,"ĠMÃ¡r":2512,"Ġ/":2513,"alÃ¡l":2514,"Ġ13":2515,"ĠvendÃ©g":2516,"ĠelÃ©rhetÅĳ":2517,"ĠbetegsÃ©g":2518,"hetÅĳe":2519,"dor":2520,"hetÅĳen":2521,"szolg":2522,"ezdÃ©s":2523,"ĠIste":2524,"Ġkl":2525,"Ã©ssel":2526,"kedÅĳ":2527,"kÃ¶zben":2528,"Ġkapcsolatos":2529,"kezelÅĳ":2530,"Ã¡ros":2531,"mÃ¡lis":2532,"Ġnyit":2533,"Ġakt":2534,"Ġhonlap":2535,"EN":2536,"ĠfÃ¼gg":2537,"ĠAzt":2538,"etÅĳ":2539,"ĠidÅĳszak":2540,"ĠszÃ¡mos":2541,"gek":2542,"ĠkÃ©pviselÅĳ":2543,"kÃ¶vet":2544,"ĠMinden":2545,"ĠtÃ¡p":2546,"isbrand":2547,"hÃ¡":2548,"szÃŃnÅ±":2549,"ĠÃ¶sszes":2550,"vilÃ¡g":2551,"ĠhozzÃ¡jÃ¡r":2552,"jen":2553,"kola":2554,"Ġmot":2555,"³ber":2556,"Ġbiztos":2557,"ulÃ¡sÃ":2558,"unkat":2559,"szÃ¡l":2560,"Ġdo":2561,"ÃŃtani":2562,"Ġstr":2563,"vÃ©te":2564,"ĠÃ¼zem":2565,"Ġkeze":2566,"Ġjobban":2567,"sÃ©gÅ±":2568,"Ġdolog":2569,"hes":2570,"ĠÃ¼nne":2571,"ĠÃ¡llÃ³":2572,"Ġparazit":2573,"ĠszÃ¡llÃŃt":2574,"vÃ©tel":2575,"elÅĳtt":2576,"Ġ17":2577,"ĠÃ©vek":2578,"line":2579,"kÃŃvÃ¼l":2580,"ĠhatÃ©kony":2581,"ĠfertÅĳ":2582,"keres":2583,"lÃ©p":2584,"ĠAl":2585,"ĠrÃ¶g":2586,"Ã¡ri":2587,"Ġhallg":2588,"ĠengedÃ©ly":2589,"ĠrÃ¶vid":2590,"ĠdÃŃ":2591,"Ġvalaki":2592,"ĠjÃ¡ts":2593,"ĠnemzetkÃ¶zi":2594,"ĠcÃ©lja":2595,"nete":2596,"ettel":2597,"ell":2598,"Ãµ":2599,"200":2600,"vÃ¡laszt":2601,"Ã¡bbi":2602,"Ġ199":2603,"ĠmunkÃ¡":2604,"ttel":2605,"igaz":2606,"Ġfeladat":2607,"Ã¼nte":2608,"Ġpap":2609,"ĠellenÅĳr":2610,"Ġim":2611,"zed":2612,"kÃ©let":2613,"akran":2614,"ĠelmÃºlt":2615,"Ġpan":2616,"Ġnevez":2617,"Ġfot":2618,"Ġso":2619,"ĠEzt":2620,"ĠbekezdÃ©s":2621,"¶rtÃ©n":2622,"ong":2623,"vek":2624,"ntart":2625,"Ã¡lÃ³":2626,"mennyiben":2627,"ĠlÃ©g":2628,"iget":2629,"zÃ©si":2630,"kÃ¼":2631,"Ġszen":2632,"ookie":2633,"Ġtit":2634,"ajnos":2635,"szint":2636,"Ġnekem":2637,"Ġpersze":2638,"ĠtÃ¶bbi":2639,"30":2640,"Ġmegny":2641,"Ġmegjelen":2642,"Ġkapcsolatban":2643,"szabb":2644,"idÅĳ":2645,"Ã¡rÃ³l":2646,"¶rt":2647,"ĠÃ©rintett":2648,"ĠkÃ¶ltsÃ©g":2649,"Ġ[":2650,"Ġjogos":2651,"ĠSt":2652,"ottsÃ¡g":2653,"Ġ25":2654,"kÃ¶dÃ©s":2655,"Ġhazai":2656,"³v":2657,"ĠmÃ©ret":2658,"ĠfehÃ©r":2659,"Ġsp":2660,"akar":2661,"Ġneve":2662,"Ġszav":2663,"lÃ¡l":2664,"rÃ©t":2665,"ĠHogy":2666,"mele":2667,"ĠlÃ¡b":2668,"Ġfunk":2669,"Ġstb":2670,"Ġkir":2671,"lÅĳk":2672,"ĠgyÃ":2673,"Ġszor":2674,"ĠjÃ¶n":2675,"Ġraj":2676,"ĠkorÃ¡bban":2677,"ww":2678,"Ã¶rtÃ©n":2679,"ottÃ¡k":2680,"zÃ©st":2681,"hatatlan":2682,"ĠÃ©vben":2683,"Ã¡sÃ¡val":2684,"ĠveszÃ©ly":2685,"ĠmÃ¡j":2686,"ĠIsten":2687,"ajnok":2688,"Ã¶ng":2689,"jel":2690,"Ã©j":2691,"eurÃ³pai":2692,"//":2693,"nikÃ":2694,"ĠkezdÅĳ":2695,"ĠadatkezelÃ©s":2696,"Ġpill":2697,"Ġza":2698,"ĠnÃ¶v":2699,"ĠtanÃ¡cs":2700,"ulat":2701,"Ġmindent":2702,"merikai":2703,"Ġdok":2704,"ĠmÃ³dosÃŃt":2705,"21":2706,"Ġmai":2707,"kik":2708,"Ġdarab":2709,"ler":2710,"Ġharmadik":2711,"atikus":2712,"tni":2713,"sorban":2714,"atÃ¡sa":2715,"ĠajÃ¡nl":2716,"ĠlakÃ¡s":2717,"ĠmegelÅĳ":2718,"ĠNÃ":2719,"GY":2720,"ozza":2721,"ttp":2722,"Ġmelyek":2723,"beteg":2724,"ilis":2725,"kÃ¡n":2726,"Ġbal":2727,"yÅ±":2728,"okÃ¡s":2729,"Ġazokat":2730,"Ġkol":2731,"vÃ¡lÃ³":2732,"ĠutÃ³":2733,"ĠmÃº":2734,"ern":2735,"Ġelem":2736,"Ġegyetlen":2737,"lmond":2738,"ĠszÃ¡n":2739,"ĠalÃ¡bbi":2740,"ĠsikerÃ¼lt":2741,"mÃº":2742,"bbet":2743,"Ġfigyelem":2744,"Ã©szeti":2745,"¼gy":2746,"Ġuta":2747,"Ġab":2748,"ĠÂ§":2749,"ĠÃ³ra":2750,"ow":2751,"://":2752,"ttal":2753,"hatunk":2754,"\\\\\\\\\\\\\\\\":2755,"Ġcsomag":2756,"kam":2757,"Ġaut":2758,"alap":2759,"Ġamelyet":2760,"ulladÃ¡s":2761,"esek":2762,"ckÃ":2763,"ĠszÃ¶v":2764,"Ġvagyunk":2765,"ĠlÃ¡tt":2766,"iÃ¡ban":2767,"ĠÃ¡ltalÃ¡ban":2768,"ĠfÅ±":2769,"fÃ¼gg":2770,"ĠMind":2771,"sÃ©ggel":2772,"ĠÃįg":2773,"ĠEzek":2774,"ĠeszkÃ¶zÃ":2775,"hhez":2776,"ĠjÃ¶tt":2777,"Ġelfogad":2778,"Ã¡llÃ³":2779,"ĠÃºjabb":2780,"ĠbÅ±":2781,"Ã¡szlÃ³":2782,"ĠdohÃ¡ny":2783,"Ġmegle":2784,"iÃ¡":2785,"Ġmod":2786,"zte":2787,"Ġtem":2788,"Ġpi":2789,"ĠtermÃ©szetes":2790,"Ã³ber":2791,"Ġkedvez":2792,"Ġill":2793,"Ġviszony":2794,"ĠÅĲ":2795,"Ġmikor":2796,"ĠIstvÃ¡n":2797,"ue":2798,"Ġtelefon":2799,"ĠÃ©sz":2800,"ĠEnnek":2801,"ĠsÃ¼tik":2802,"ĠhasznÃ¡lt":2803,"Ġfris":2804,"nÅĳtt":2805,"ÃŃtÃ¡sa":2806,"Ġkapott":2807,"Ġlenni":2808,"ĠbÃ¡rmi":2809,"Ã¡sokat":2810,"ĠkapcsolÃ³":2811,"ÃŃl":2812,"ĠÃįgy":2813,"jÃ³":2814,"akkor":2815,"zÃ¡k":2816,"ĠszintÃ©n":2817,"Ġteszi":2818,"ĠkialakÃŃt":2819,"ĠlÃ¡ny":2820,"Ã¡sÃ¡nak":2821,"ĠbelsÅĳ":2822,"ty":2823,"¶gÃ":2824,"zÃ¡t":2825,"Ġminiszt":2826,"lte":2827,"hang":2828,"ĠdÃ©l":2829,"ory":2830,"Ġgyakorlat":2831,"ĠmegkÃ¶":2832,"ĠvÃ¡ltozÃ¡s":2833,"Ġahhoz":2834,"kan":2835,"sÃ¡k":2836,"ÃŃtja":2837,"Ġhir":2838,"ĠtÃ¶kÃ©let":2839,"ĠSZ":2840,"ĠtalÃ¡lt":2841,"Meg":2842,"anu":2843,"ĠFel":2844,"pt":2845,"ĠLÃ¡szlÃ³":2846,"cse":2847,"mos":2848,"ĠbeÃ¡llÃŃt":2849,"ĠprÃ³bÃ¡l":2850,"Ġkezde":2851,"ĠgyÅ±jt":2852,"Ġhivatal":2853,"nge":2854,"ĠzÃ¶ld":2855,"ĠkÃ¶ny":2856,"Ã³v":2857,"Ġhor":2858,"Ġpiac":2859,"Ġalkalom":2860,"elj":2861,"ide":2862,"ĠhÅĳ":2863,"ĠpolgÃ¡r":2864,"Ġhelyen":2865,"Ġta":2866,"ĠkÃ¼":2867,"Ã¡ba":2868,"Ġmagam":2869,"ĠtÃ¡vol":2870,"ĠgyÅĳ":2871,"Ġmegsz":2872,"iÃ¡rd":2873,"ezik":2874,"kÃ¼nk":2875,"ĠintÃ©zmÃ©ny":2876,"ike":2877,"ĠkÃ©sz":2878,"lÃ©g":2879,"ĠSzent":2880,"Ġkialak":2881,"utt":2882,"ĠÃ©j":2883,"Ã¼nket":2884,"ĠkÃ¶zle":2885,"yek":2886,"Ã¶m":2887,"Ġdob":2888,"kb":2889,"ĠmegvalÃ³":2890,"ĠrÃ©gi":2891,"Ã©sÃ©vel":2892,"ĠosztÃ¡ly":2893,"ĠÃľ":2894,"ĠlegtÃ¶bb":2895,"zÃ¡sÃ":2896,"ÃŃtvÃ¡ny":2897,"ĠkorlÃ¡t":2898,"hatjuk":2899,"ĠÃ¼nnep":2900,"nevez":2901,"ĠigazÃ¡n":2902,"Ġang":2903,"Ġcikk":2904,"ĠszÃ©le":2905,"ĠlÃ¡thatÃ³":2906,"ĠvÃ©gÃ©n":2907,"ĠnÃ¶vÃ©ny":2908,"ĠelÅĳszÃ¶r":2909,"ĠFt":2910,"ĠÃ¡tlag":2911,"Ã©nk":2912,"fa":2913,"Ġnapon":2914,"ard":2915,"Ġbizonyos":2916,"Ġgyakran":2917,"ĠhÃŃ":2918,"egÃ©szÃŃt":2919,"36":2920,"osabb":2921,"ĠIn":2922,"Ã¡nk":2923,"son":2924,"Ġamerikai":2925,"uc":2926,"Ġadatokat":2927,"Ġhelyett":2928,"Ġpillan":2929,"ontosabb":2930,"ocsÃ":2931,"ĠjellemzÅĳ":2932,"12":2933,"ĠtevÃ©kenysÃ©g":2934,"ĠAnd":2935,"Ġforg":2936,"ÃŃtÅĳ":2937,"Ã©szen":2938,"ĠjelentÅĳ":2939,"ĠjelentÅĳs":2940,"lme":2941,"akban":2942,"ĠgazdasÃ¡gi":2943,"©bÅĳl":2944,"Ġtudjuk":2945,"ĠpÃ©nz":2946,"nÃ¡":2947,"50":2948,"Ã©sÃ©nek":2949,"ĠcsinÃ¡l":2950,"elmond":2951,"ote":2952,"esztÅĳ":2953,"Ġeredeti":2954,"Ġazaz":2955,"eszer":2956,"zÃ¶tt":2957,"ĠmegfelelÅĳe":2958,"ĠmegfelelÅĳen":2959,"oldog":2960,"ĠszÃ¡ma":2961,"sp":2962,"itÃ¡s":2963,"fig":2964,"egyed":2965,"Ġisko":2966,"ĠEgyesÃ":2967,"junk":2968,"ĠkÃ¶zpont":2969,"ĠMe":2970,"jÃ¡val":2971,"nan":2972,"ĠtÃ¶rtÃ©nt":2973,"folyam":2974,"Ġarc":2975,"ĠÃ©g":2976,"kori":2977,"nti":2978,"Ġfenntart":2979,"endÅĳ":2980,"ptem":2981,"ĠÃ¶sszet":2982,"Ġelmond":2983,"ĠmeghatÃ¡rozott":2984,"Ġeme":2985,"Ġtett":2986,"Ġvide":2987,"Ġex":2988,"kin":2989,"ument":2990,"ĠkÃŃnÃ¡l":2991,"lÃ©se":2992,"ĠÃ¡m":2993,"....":2994,"ĠarÃ¡ny":2995,"lÃ¡sa":2996,"ĠjÃ¶":2997,"detÃ©s":2998,"ĠAk":2999,"ĠvÃ¡llalkozÃ¡s":3000,"ĠrÃ³l":3001,"ĠÃ¡ltalÃ¡nos":3002,"Ġnapi":3003,"Ġrep":3004,"Ġjelleg":3005,"Ġazonnal":3006,"ari":3007,"ĠvÃ©rnyomÃ¡s":3008,"18":3009,"ptember":3010,"ĠkÃ³r":3011,"zÃ©ke":3012,"Ġhid":3013,"©ni":3014,".,":3015,"Ġtor":3016,"hi":3017,"gyan":3018,"©zet":3019,"KÃ":3020,"ĠkizÃ¡rÃ³lag":3021,"Ġkapcsolat":3022,"ĠnÃ¡l":3023,"kÃ¶nyv":3024,"ĠInt":3025,"ĠtÃ¶rtÃ©nik":3026,"jÃ¡s":3027,"fÃ¶ldi":3028,"vÃ©telÃ":3029,"ĠemlÃŃt":3030,"Ġsokat":3031,"Ġszenve":3032,"dÃ¡sÃ":3033,"zÃ¼nk":3034,"ĠEurÃ³p":3035,"ĠMagyarorszÃ¡gon":3036,"¡borÃº":3037,"ukor":3038,"meleg":3039,"Ġva":3040,"acsony":3041,"Ã¼ket":3042,"ĠmegtalÃ¡l":3043,"vagy":3044,"ĠbÃŃrÃ³":3045,"ĠkiÃ¡llÃŃt":3046,"ĠHe":3047,"Ġcsup":3048,"Ġegyetem":3049,"rÃ¶k":3050,"ĠNÃ©":3051,"ĠfÃ¼g":3052,"olc":3053,"kÃ©rt":3054,"ĠÃŃzÃ¼let":3055,"Ġcookie":3056,"Ġesetleg":3057,"ĠhatÃ¡sÃ":3058,"ĠszakÃ":3059,"eny":3060,"ĠfÃ¡jdalom":3061,"tÃ©t":3062,"vÃ¡sÃ¡r":3063,"zÃ©r":3064,"ay":3065,"11":3066,"ĠtovÃ¡bbÃ":3067,"Ġezeket":3068,"ĠtovÃ¡bbÃ¡":3069,"kos":3070,"ĠEurÃ³pai":3071,"ĠgyÃ¼":3072,"ĠoktÃ³ber":3073,"ĠkirÃ¡ly":3074,"rÃ©szt":3075,"null":3076,"apcs":3077,"mezÅĳ":3078,"Ġtenni":3079,"ĠlÃ©nyeg":3080,"ĠÃ¶rÃ¶k":3081,"ĠKft":3082,"ĠkÃ¶szÃ¶nhetÅĳen":3083,"iÃ¡t":3084,"tunk":3085,"ĠfeltÃ©tele":3086,"ĠkÃ¼lÃ¶nÃ¶se":3087,"¶kÃ¶":3088,"ĠeurÃ³pai":3089,"olÃŃt":3090,"Ġszob":3091,"mail":3092,"anuÃ¡r":3093,"ĠKor":3094,"Ġkik":3095,"ssz":3096,"all":3097,"ĠkÃ¼lÃ¶nÃ¶sen":3098,"getlen":3099,"00000000":3100,"ĠellenÃ©re":3101,"ĠSzab":3102,"tit":3103,"ĠfelnÅĳtt":3104,"Ġ100":3105,"ĠeltÃ©r":3106,"Ġleve":3107,"Ã©ter":3108,"ĠAlap":3109,"Ġfolyamatosan":3110,"¡zt":3111,"nki":3112,"ĠkezelÃ©se":3113,"Ġgar":3114,"ga":3115,"³ri":3116,"Ġkam":3117,"Ġkal":3118,"Ġrek":3119,"ĠÃ¶sszeg":3120,"olta":3121,"ainak":3122,"ĠpÃ¡rt":3123,"Ã©zet":3124,"eget":3125,"Ġfordul":3126,"egyen":3127,"ĠfunkciÃ³":3128,"Ġszakember":3129,"mÃ¡":3130,"ĠmegszÃ":3131,"ĠkorÃ¡bbi":3132,"pÃ¡r":3133,"ĠtanulmÃ¡ny":3134,"ĠhÃ¡lÃ³":3135,"Ġalkalmas":3136,"Ġnemcsak":3137,"ĠvÃ©gig":3138,"ĠÃ³r":3139,"ÃŃtett":3140,"ºt":3141,"ĠNemzeti":3142,"almat":3143,"ÃģS":3144,"¶nkormÃ¡nyzat":3145,"bizt":3146,"Ġutc":3147,"ĠidÃ©n":3148,"ĠsÅĳt":3149,"ilag":3150,"Ã¶nkormÃ¡nyzat":3151,"lÃ¡k":3152,"nok":3153,"ĠcsÃº":3154,"ĠkÃ¶nnye":3155,"Ġkomp":3156,"ĠkÃŃsÃ©r":3157,"Ġaddig":3158,"ĠmÃºlt":3159,"ĠmÃ©ly":3160,"©nek":3161,"Ã©rte":3162,"ĠJÃ¡nos":3163,"rÃ©sz":3164,"oc":3165,"Ġkb":3166,"15":3167,"Ġolva":3168,"sÃ©gben":3169,"ĠgyÃ¶":3170,"Ġannyira":3171,"ĠPr":3172,"cius":3173,"ĠkÃ¶zÃ¶tti":3174,"erek":3175,"Ġlegfontosabb":3176,"¡ciÃ³s":3177,"ĠkockÃ":3178,"ĠÃ¶nkormÃ¡nyzat":3179,"¡nc":3180,"ĠrendkÃŃvÃ¼l":3181,"ozÃ¡sa":3182,"Ġhib":3183,"Ġtehet":3184,"Ġag":3185,"usok":3186,"Ġkelet":3187,"nÃ©nk":3188,"Ã¡gy":3189,"ĠAdat":3190,"atÃ¡st":3191,"odÃ¡s":3192,"AL":3193,"hasznÃ¡l":3194,"mas":3195,"Ġszerinti":3196,"ĠnÃ©met":3197,"âĢĿ,":3198,"tÃ©se":3199,"vÃ¡t":3200,"ĠmÃ©rtÃ©k":3201,"adni":3202,"ĠfejlÅĳdÃ©s":3203,"ĠszÃ¶veg":3204,"lkez":3205,"Ġvisszat":3206,"ĠsÃ©r":3207,"Ġamelynek":3208,"Ġmegrende":3209,"okt":3210,"Ġru":3211,".\"":3212,"ĠjelÃ":3213,"ĠigÃ©nybe":3214,"adÃ¡ly":3215,"ĠnyÃŃ":3216,"Ġmutat":3217,"lkÃ©p":3218,"ĠSzolg":3219,"ĠrendezvÃ©ny":3220,"ĠalkalmazÃ¡s":3221,"lmi":3222,"Ġprojekt":3223,"pal":3224,"kÃ¡l":3225,"adÃ¡sul":3226,"her":3227,"Ġfiz":3228,"Ġfest":3229,"ĠkÃ¶telezett":3230,"Ġbejelent":3231,"Ġ50":3232,"Ã©sÃ©hez":3233,"vÃŃz":3234,"ĠmilliÃ¡rd":3235,"zÃ©k":3236,"kul":3237,"Ġjelenti":3238,"EK":3239,"ĠvÃ¡ltoz":3240,"szÃ¡z":3241,"mÃŃg":3242,"vÃ©l":3243,"kont":3244,"ĠÃ©rdeke":3245,"pÃ©n":3246,"Ġamik":3247,"attint":3248,"Ġmeghal":3249,"ovember":3250,"Ġkett":3251,"sÃ¼":3252,"Ġhelyez":3253,"©m":3254,"cember":3255,"ĠY":3256,"iszer":3257,"nes":3258,"uz":3259,"Ġ24":3260,"Ã¶rt":3261,"Ġszeg":3262,"csoport":3263,"Ġonline":3264,"ĠfÃ©rgek":3265,"ĠfelsÅĳ":3266,"zÃ©sek":3267,"ĠjogszabÃ¡ly":3268,"ĠbelÅĳ":3269,"ĠfelÃ¼let":3270,"Ġkellene":3271,"Ã¡bor":3272,"ĠtÃ©nyleg":3273,"ĠÃ©rez":3274,"ĠIs":3275,"__":3276,"Ġnor":3277,"Ġpolitikai":3278,"ĠÃ³v":3279,"emel":3280,"red":3281,"ĠKr":3282,"Ġcser":3283,"jelÃ":3284,"lÃ¡si":3285,"¼gyi":3286,"sÃ¡gÃ¡t":3287,"Ã©lÃ":3288,"Le":3289,"OS":3290,"Ġforr":3291,"ĠbÃº":3292,"ĠÃģll":3293,"ĠDr":3294,"sÃ¶":3295,"fejleszt":3296,"ĠCsak":3297,"kÃ¡k":3298,"Ġrit":3299,"ĠÃīn":3300,"Ġterem":3301,"sÃ¼k":3302,"Ġjogosult":3303,"ĠnÃ©v":3304,"ĠElÅĳ":3305,"Ã³ri":3306,"ĠterÃ¼lete":3307,"ĠvalÃ³szÃŃnÅ±":3308,"Ġhisz":3309,"ale":3310,"Ã©ni":3311,"napi":3312,"ĠTan":3313,"umi":3314,"Ã¡kat":3315,"Ġto":3316,"ĠkivÃ¡lÃ³":3317,"ĠszokÃ¡s":3318,"ust":3319,"Ġkateg":3320,"ĠidÅĳpont":3321,"ĠkÃ¶nnyen":3322,"Ã¡ltatÃ³":3323,"ĠegÃ©szen":3324,"zni":3325,"ĠvÃ©gzett":3326,"Nagy":3327,"nÃ¼nk":3328,"ĠPÃ©ter":3329,"Ġakart":3330,"bÃ©":3331,"¶lcs":3332,"kezet":3333,"ĠmegvÃ¡lt":3334,"esÃ":3335,"ĠhÅ±":3336,"Ġigazi":3337,"ĠpÃ©nzÃ":3338,"ĠcsupÃ¡n":3339,"dal":3340,"Ã¡rsasÃ¡g":3341,"ĠFerenc":3342,"pÃ":3343,"cion":3344,"ĠkÃ¼lsÅĳ":3345,"sÃ¡t":3346,"ĠbÃ©r":3347,"ismert":3348,"Ġszeptember":3349,"ĠvÃ¡gy":3350,"ĠjanuÃ¡r":3351,"Ġspe":3352,"-,":3353,"Ġgyorsan":3354,"ĠvÃ©del":3355,"hetjÃ¼k":3356,"AR":3357,"orvos":3358,"vÃ©r":3359,"ĠmellÃ©k":3360,"igy":3361,"ĠmÃ¶gÃ":3362,"Ġdokument":3363,"ĠÃ¶nmag":3364,"OR":3365,"Ã¶rg":3366,"ark":3367,"Ġregiszt":3368,"onikus":3369,"Ã©rium":3370,"gyÅ±":3371,"ĠTud":3372,"kÃ©":3373,"rancia":3374,"attÃ³l":3375,"faj":3376,"elkez":3377,"Ġfoglalkoz":3378,"ĠkÃ¼lÃ¶nleges":3379,"ĠelsÅĳsorban":3380,"Ġindul":3381,"Ġszeren":3382,"ĠazonosÃŃt":3383,"Ġhamar":3384,"Ġemel":3385,"Ġalapvet":3386,"ĠfÃ¼ggetlen":3387,"ĠvÃ©gÃ¼l":3388,"Ġlet":3389,"Ãºra":3390,"raj":3391,"ĠÃ¼l":3392,"ĠvelÃ":3393,"âĢĿ.":3394,"ĠBi":3395,"eri":3396,"Ã¡ndor":3397,"urÃ¡lis":3398,"bÃ¡n":3399,"lex":3400,"netek":3401,"mÅ±v":3402,"jÃ¶tt":3403,"Ġnyert":3404,"Ã¡lni":3405,"munikÃ":3406,"gaz":3407,"ĠirÃ¡n":3408,"ĠhÃ¡tt":3409,"oznak":3410,"olÃ¡sÃ":3411,"ĠlehetsÃ©ges":3412,"atokat":3413,"ĠFÅĳ":3414,"ls":3415,"Ã³d":3416,"hÃº":3417,"ĠkeretÃ©ben":3418,"Ġvenni":3419,"Ġteszt":3420,"Szer":3421,"Ġelkez":3422,"ĠMik":3423,"ĠutÃ³bbi":3424,"Ġdr":3425,"ĠelnÃ¶":3426,"prilis":3427,"ĠÃ©d":3428,"Ġsenki":3429,"Ġingatlan":3430,"geteg":3431,"ĠrÃ©szÃ©re":3432,"ekete":3433,"Ġvett":3434,"ĠkockÃ¡z":3435,"Ġfelett":3436,"Ġsajt":3437,"Ġfigye":3438,"Ġtagja":3439,"³i":3440,"AN":3441,"egen":3442,"Ġrendelkezik":3443,"Ã¡sÃ¡r":3444,"szabad":3445,"ĠkiegÃ©szÃŃt":3446,"Ġseb":3447,"Ã¶ngÃ©sz":3448,"vÃ©tele":3449,"Ġmintha":3450,"elkÃ©p":3451,"Ġvissz":3452,"OL":3453,"Ġzavar":3454,"Ã¡sÃ¡hoz":3455,"Ġbaj":3456,"ĠvÃ©d":3457,"ĠMost":3458,"ĠkÃ¶rÃ":3459,"amin":3460,"Ġtr":3461,"dek":3462,"Ġalacsony":3463,"zetes":3464,"ĠZs":3465,"ĠkÃ©szÃ¼l":3466,"Ġvagyis":3467,"Ġrendelet":3468,"Ġboldog":3469,"Ġszelle":3470,"Min":3471,"Ġegyedi":3472,"ED":3473,"sh":3474,"Ġhatalmas":3475,"ĠfÃ¶l":3476,"mentes":3477,"lkÃ©szÃŃt":3478,"Ġhet":3479,"ĠmÃ¡jus":3480,"ĠvÃ©ge":3481,"ĠÃ¡llÃ¡s":3482,"Ġtaval":3483,"ĠegyÃ¼ttmÅ±":3484,"Ġcsatlak":3485,"Ġagy":3486,"Ġmax":3487,"ĠBal":3488,"ĠkÃ©szÃ¼lÃ":3489,"ĠegyÃ©bkÃ©nt":3490,"ĠtermÃ©szetesen":3491,"ĠkÃ©pest":3492,"lyel":3493,"agÃ³g":3494,"fekt":3495,"iss":3496,"Ġfogad":3497,"Ġingyen":3498,"dte":3499,"ĠÃ¡llt":3500,"mit":3501,"zati":3502,"Ġnemzeti":3503,"ĠÃ©pp":3504,"ĠÅĳk":3505,"ĠÃīr":3506,"ĠrÃ¶gzÃŃt":3507,"ĠvÃ¡g":3508,"Ġszok":3509,"Ã©ri":3510,"ĠhatÃ¡ly":3511,"ĠszÃ¡zad":3512,"ĠJÃ³z":3513,"jeszt":3514,"ĠigÃ©nye":3515,"nÃ¶k":3516,"ĠtÃ¶bbet":3517,"usÃº":3518,"ĠkÃ¼z":3519,"ung":3520,"ĠvalÃ³ban":3521,"dni":3522,"ĠhalÃ¡l":3523,"ĠlehetÅĳvÃ©":3524,"kÃ¼lÃ¶n":3525,"Ġpor":3526,"lcsÃ":3527,"lÃ©si":3528,"ĠelkÃ©p":3529,"Ġamin":3530,"kes":3531,"Ġtudni":3532,"Åĳi":3533,"Ġbefoly":3534,"ĠzsÃŃ":3535,"ivÃ¡l":3536,"Ã¡zs":3537,"hetÃ¼nk":3538,"gÃ©p":3539,"ÃīS":3540,"ĠidÅĳben":3541,"Ã¼rdÅĳ":3542,"ĠkÃ©pe":3543,"tatÃ³":3544,"ĠegyszerÅ±e":3545,"ĠegyszerÅ±en":3546,"ES":3547,"ĠBÃ¡r":3548,"Ġalkalommal":3549,"Ä±":3550,"Ġek":3551,"Ġnyer":3552,"ĠnÅĳk":3553,"Sz":3554,"hett":3555,"Ġzene":3556,"fed":3557,"heze":3558,"ĠdohÃ¡nyzÃ¡s":3559,"Ġgomb":3560,"ĠkÃ¶teles":3561,"ĠszÃ©les":3562,"ĠÃ©lmÃ©ny":3563,"ion":3564,"Ġdecember":3565,"ĠrendÅĳ":3566,"Ġur":3567,"zÅĳdÃ©s":3568,"ĠszÃ©k":3569,"Ã©sben":3570,"Ãºt":3571,"dÃ¡k":3572,"Ġoldalon":3573,"Ã©kony":3574,"ĠkÃ¡":3575,"ĠhÃºs":3576,"Ġtur":3577,"ĠFÃ":3578,"ezette":3579,"Ġismere":3580,"ON":3581,"Ã¡ltalÃ¡n":3582,"Ġnyilatkoz":3583,"Ġfinom":3584,"Ġmeleg":3585,"vÃ³":3586,"abban":3587,"bar":3588,"okbÃ³l":3589,"ÃŃrÃ¡s":3590,"Ġkont":3591,"ĠBiz":3592,"uta":3593,"Ġrengeteg":3594,"ĠkivÃ¡laszt":3595,"kattint":3596,"lhely":3597,"Ġtartott":3598,"Ġ21":3599,"ĠkÃ¶zÃ©":3600,"ĠbÃ¶ngÃ©sz":3601,"sef":3602,"inkÃ¡bb":3603,"Ġnovember":3604,"ĠmagÃ¡n":3605,"ĠszÃ¶vet":3606,"aszÃ":3607,"igit":3608,"nyal":3609,"sÃ¡":3610,"ĠstÃŃl":3611,"ĠnÃ¶vel":3612,"ĠmÃ©t":3613,"lmÅ±":3614,"Ġnegyed":3615,"Ġbank":3616,"ĠtÃŃz":3617,"Ġmunkat":3618,"osok":3619,"ĠelÅĳford":3620,"ĠminÃ©l":3621,"plom":3622,"Ġvar":3623,"ĠdiÃ¡k":3624,"nius":3625,"ozit":3626,"ĠÃ¡llami":3627,"ÃŃtotta":3628,"vett":3629,"Ġangol":3630,"orszÃ¡gi":3631,"lvÃ©g":3632,"ĠnÃ¶veked":3633,"inc":3634,"illag":3635,"dex":3636,"vÃ©ben":3637,"ĠelnÃ¶k":3638,"Ġlehetett":3639,"Ġjogi":3640,"atkozÃ¡s":3641,"Ġsoha":3642,"Ã³gÃ©p":3643,"omÃ¡n":3644,"ina":3645,"Ġber":3646,"Ġ:)":3647,"Ġpontosan":3648,"ĠAr":3649,"hÃ¡zi":3650,"Ġnev":3651,"ĠtÃ¶meg":3652,"kony":3653,"mÃ©ly":3654,"sem":3655,"ĠPer":3656,"ĠÃ¡ld":3657,"¶rÃ¶s":3658,"sÃ©rt":3659,"dez":3660,"Ġ&":3661,"Ġprof":3662,"ĠÃ©lete":3663,"uh":3664,"ĠmÃ¡rcius":3665,"ĠkÃ¶telezÅĳ":3666,"assa":3667,"ala":3668,"Ġirod":3669,"ĠpÃ©nzt":3670,"Ġkider":3671,"Hogy":3672,"ancs":3673,"ĠÃ©vvel":3674,"Ġamennyi":3675,"ivatal":3676,"ĠVi":3677,"Ġzen":3678,"Ã¡tor":3679,"sÃ©gei":3680,"Ġideje":3681,"ĠTa":3682,"Ġgazdag":3683,"ĠNagyon":3684,"Ġmegszer":3685,"ĠmegvalÃ³sÃŃt":3686,"Ġgyerekek":3687,"ocsÃ¡t":3688,"ĠtÃ¡rsadalmi":3689,"ĠvÃ©lemÃ©ny":3690,"ennyi":3691,"³n":3692,"Ġelleni":3693,"szel":3694,"Ġmegismer":3695,"Ġkattint":3696,"elhely":3697,"ÃģN":3698,"ĠEgyetem":3699,"atjuk":3700,"ĠtÃ¼net":3701,"vg":3702,"Ġharc":3703,"¡lÃ¡sÃ":3704,"Cs":3705,"jÃ¡tÃ©k":3706,"De":3707,"ulni":3708,"Ġtekinte":3709,"Ġmotor":3710,"ĠtermÃ©kek":3711,"http":3712,"ĠMÃ©g":3713,"tud":3714,"Ġegyet":3715,"Ġkedven":3716,"edagÃ³g":3717,"ĠcsalÃ¡di":3718,"ĠegyÃ©ni":3719,"Ġmelynek":3720,"kÃ¡s":3721,"TI":3722,"ĠÃ¶sszefÃ¼gg":3723,"ĠtalÃ¡lkoz":3724,"bban":3725,"ĠItt":3726,"ĠhasznÃ¡lat":3727,"abil":3728,"Ġpe":3729,"ĠlehetÅĳsÃ©get":3730,"¡prilis":3731,"Ã¡prilis":3732,"ĠUni":3733,"ĠfÃ¶":3734,"Ġsokszor":3735,"tra":3736,"Ġvise":3737,"szich":3738,"jÃ©nek":3739,"ĠbÃŃr":3740,"ĠszemÃ©lyi":3741,"tuk":3742,"Ġelhely":3743,"felÃ©":3744,"Ġtette":3745,"zÃ©":3746,"adÃ¡sa":3747,"ĠEl":3748,"ĠtanulÃ³":3749,"elvÃ©g":3750,"Gy":3751,"janak":3752,"kodÃ¡s":3753,"ail":3754,"16":3755,"Ġlab":3756,"ekciÃ³":3757,"olÃ³gia":3758,"hÃ¶z":3759,"elkÃ©szÃŃt":3760,"ĠeljÃ¡rÃ¡s":3761,"nkinek":3762,"ĠmÅ±ve":3763,"Ġfigyelembe":3764,"azon":3765,"EM":3766,"Ã©rtelmÅ±":3767,"14":3768,"ĠmÅ±kÃ¶dik":3769,"ĠelÅĳadÃ¡s":3770,"Ġsza":3771,"ĠMa":3772,"Ã©be":3773,"32":3774,"nie":3775,"ĠelvÃ©g":3776,"lyenkor":3777,"ĠterÃ¼letÃ©n":3778,"usztus":3779,"Ã¡tt":3780,"ĠaprÃ³":3781,"Ġalig":3782,"Ġutal":3783,"ĠVan":3784,"ĠinformÃ¡ciÃ³k":3785,"Ġszex":3786,"ĠJÃ³zsef":3787,"ĠAmennyiben":3788,"Ġsokan":3789,"Ġaszt":3790,"res":3791,"Ġterme":3792,"ula":3793,"Ġ22":3794,"ĠOrszÃ¡g":3795,"ĠrÃ³la":3796,"kre":3797,"ĠbÃ¡rmely":3798,"nel":3799,"ĠSok":3800,"ĠUgyan":3801,"rom":3802,"ĠamÃŃg":3803,"Ġsorozat":3804,"nÃ©m":3805,"Ġzaj":3806,"ĠszereplÅĳ":3807,"Ġkul":3808,"Ġkin":3809,"ÃģL":3810,"oft":3811,"rÃ³bÃ¡lt":3812,"Ġat":3813,"ĠGo":3814,"akra":3815,"emet":3816,"ĠÃ©des":3817,"Ã¡ja":3818,"tÃ©r":3819,"Ġmelyet":3820,"van":3821,"Ġvegy":3822,"ĠAn":3823,"ĠmezÅĳ":3824,"olva":3825,"ĠgyÃ¼mÃ":3826,"17":3827,"ĠelkÃ©szÃŃt":3828,"zÃ©t":3829,"ĠÃ¡prilis":3830,"ĠvÃ¡ltozt":3831,"Ġteng":3832,"ĠBar":3833,"esztivÃ¡l":3834,"Ġmode":3835,"ĠÃ©rdekes":3836,"Ġder":3837,"jÃ©ben":3838,"zeg":3839,"ĠvÃ©gez":3840,"mob":3841,"ĠMag":3842,"hetik":3843,"ulhat":3844,"Ġipar":3845,"ĠproblÃ©ma":3846,"Ġeny":3847,"beszÃ":3848,"ĠtÃ¡rsasÃ¡g":3849,"zÃ³ta":3850,"oltam":3851,"Ġ2018":3852,"vizsg":3853,"Ġigyek":3854,"hatÃ³k":3855,"Ġfaj":3856,"lok":3857,"osztÃ¡ly":3858,"kodÃ³":3859,"Ġkonf":3860,"ĠMÅ±":3861,"ĠNap":3862,"ĠkÃŃn":3863,"Ġinternet":3864,"Ġszom":3865,"ĠegyÃ¡ltalÃ¡n":3866,"ĠÃºton":3867,"¶lg":3868,"ĠeredmÃ©nye":3869,"ÃŃrus":3870,"ĠdolgozÃ³":3871,"Ġbab":3872,"fogy":3873,"ĠâĢĶ":3874,"ĠjÃ¡tsz":3875,"Ã¡ciÃ³s":3876,"ĠhangsÃºly":3877,"hasznÃ¡lÃ³":3878,"nen":3879,"krit":3880,"vÃ¡llal":3881,"Ġizg":3882,"ÃģR":3883,"Ġfa":3884,"zÃ¡nk":3885,"ĠalakÃŃt":3886,"ĠEzÃ©rt":3887,"©mi":3888,"ĠfÃ¼":3889,"ĠkategÃ³r":3890,"Ġrag":3891,"enge":3892,"ĠmellÃ©":3893,"ĠmegoldÃ¡s":3894,"vÃ¡g":3895,"Ġcsod":3896,"ĠkutatÃ¡s":3897,"mage":3898,"ĠmÃ¶gÃ¶tt":3899,"sd":3900,"vÃ©d":3901,"ĠparazitÃ¡k":3902,"ĠÃ¡llandÃ³":3903,"Ã¡lat":3904,"ros":3905,"Ġmik":3906,"ĠKar":3907,"2019":3908,"Ã©seket":3909,"Ã¡bÃ³l":3910,"©ig":3911,"ĠÃŃrÃ¡s":3912,"ogle":3913,"Ġlelki":3914,"Ġ40":3915,"ĠelÅĳzÅĳ":3916,"oni":3917,"lÃŃ":3918,"ĠszakÃ©rt":3919,"Ġmegg":3920,"okrÃ³l":3921,"ĠrendelkezÅĳ":3922,"Ġeste":3923,"szÃ¼k":3924,"ĠproblÃ©mÃ¡k":3925,"nÃ©z":3926,"Ġideig":3927,"ozitÃŃv":3928,"onban":3929,"jog":3930,"ĠkÃ¶zÃ¶ssÃ©gi":3931,"Ġautom":3932,"set":3933,"Ġminket":3934,"ĠvirÃ¡g":3935,"Ġarany":3936,"ĠpÃ":3937,"ĠTovÃ¡bb":3938,"Ġmos":3939,"cent":3940,"Ġszerv":3941,"co":3942,"ebook":3943,"ĠÅĳr":3944,"ÃŃg":3945,"test":3946,"Ġuni":3947,"ĠnÃ©pszerÅ±":3948,"hvg":3949,"ĠÃ©szre":3950,"ehhez":3951,"tter":3952,"Ġkel":3953,"chan":3954,"Ġelektronikus":3955,"Ġszent":3956,"csÃº":3957,"Ã¡sÃ¡ban":3958,"ĠÃŃrÃ³":3959,"Ġsajnos":3960,"lius":3961,"ku":3962,"Ġtav":3963,".-":3964,"cert":3965,"ĠszÃ©t":3966,"ĠajÃ¡ndÃ©k":3967,"ĠmÃ©":3968,"mÃ¡d":3969,"ĠintÃ©zkedÃ©s":3970,"ĠszÃ¡rma":3971,"Ġgyermekek":3972,"ĠelejÃ©n":3973,"Ã¼s":3974,"Ġindult":3975,"asztÃ":3976,"dnek":3977,"80":3978,"uth":3979,"ĠJÃ":3980,"les":3981,"kÃ©pp":3982,"ikat":3983,"letek":3984,"ĠkommunikÃ":3985,"ĠszÃ¼letett":3986,"55":3987,"ĠeszkÃ¶zÃ¶k":3988,"cont":3989,"eren":3990,"ĠÃ¡llat":3991,"ĠÃ©vekben":3992,"ĠeszkÃ¶z":3993,"ĠbelÅĳle":3994,"Ġehhez":3995,"ĠesemÃ©ny":3996,"Ġhelyre":3997,"ugusztus":3998,"ĠÃĸnkormÃ¡nyzat":3999,"ĠEU":4000,"Ġkuty":4001,"Ġvoltam":4002,"ĠtÃ¡rsadalom":4003,"Ġlass":4004,"ezÃ":4005,"Ġmindegy":4006,"Ġakinek":4007,"ĠegyÃ©rtelmÅ±":4008,"40":4009,"hatjÃ¡k":4010,"IN":4011,"ĠvÃ¡lik":4012,"Ġrak":4013,"Ġszerintem":4014,"imp":4015,"ĠÅĳt":4016,"ĠsÃºlyos":4017,"ama":4018,"Ġo":4019,"kÃŃ":4020,"ĠII":4021,"Ġbenn":4022,"ĠfelÃ¼l":4023,"ĠformÃ¡":4024,"lÃ³s":4025,"tekint":4026,"ruÃ¡r":4027,"Ã¡csony":4028,"Ġleveg":4029,"partner":4030,"ĠigazgatÃ³":4031,"Ġgyakorl":4032,"Ġkiem":4033,"Ġinf":4034,"ĠÃģlt":4035,"szem":4036,"ĠszÃ¡mÃŃtÃ³gÃ©p":4037,"Ġ2016":4038,"ĠtovÃ¡bbra":4039,"Ġmagad":4040,"ĠattÃ³l":4041,"Ġkaton":4042,"Ġmaguk":4043,"onta":4044,"ĠidÅĳt":4045,"ĠhelyszÃŃ":4046,"Ġrajta":4047,"image":4048,"lve":4049,"ĠmÃ©d":4050,"eset":4051,"Ġmaradt":4052,"omra":4053,";&":4054,"arÃ¡nt":4055,"ld":4056,"nÃ©nek":4057,"sÃ¡s":4058,"kÃ¶ze":4059,"csap":4060,"ĠleginkÃ¡bb":4061,"Ġrom":4062,"pÅĳ":4063,"kedik":4064,"ĠhagyomÃ¡nyos":4065,"sÃŃtÃ©s":4066,"Ġkeret":4067,"----":4068,"ulÃ¡sa":4069,"lnek":4070,"content":4071,"ĠtÅ±z":4072,"ĠÃ©vti":4073,"ºj":4074,"25":4075,"ĠmikÃ¶zben":4076,"iÃ¡s":4077,"nyÃºjt":4078,"ĠSzolgÃ¡ltatÃ³":4079,"Ġmob":4080,"zo":4081,"Ġenergia":4082,"asztÃ³":4083,"maz":4084,"atai":4085,"Ġpanasz":4086,"ezÃ©se":4087,"Ġ2014":4088,"©lek":4089,"Ġzs":4090,"tÃ¡l":4091,"Ġneheze":4092,"ĠelÅĳny":4093,"csÃ³":4094,"ĠEzen":4095,"yÅĳ":4096,"ĠbÅĳv":4097,"Ġhad":4098,"ĠtudjÃ¡k":4099,"Ġport":4100,"ĠnekÃ¼nk":4101,"Ġmegp":4102,"sÃ©gÃ©nek":4103,"ĠegyarÃ¡nt":4104,"acebook":4105,"ĠhatÃ³sÃ¡g":4106,"ulnak":4107,"ajon":4108,"ĠbefolyÃ¡s":4109,"zeum":4110,"ĠkÃ¶zÃ¶lt":4111,"eti":4112,"nyit":4113,"rÃ©g":4114,"szÃ¡mÃ":4115,"ĠAmikor":4116,"ĠmegÃ©r":4117,"kedelmi":4118,"Ġdal":4119,"ĠÃ©rzÃ©ke":4120,"Ġ2015":4121,"Ġmondja":4122,"Ġindok":4123,"ĠÃ©rtÃ":4124,"ĠbÃ¡rmilyen":4125,"ĠgazdasÃ¡g":4126,"Ã©szsÃ©g":4127,"ĠrÃ©sztve":4128,"Ġhajt":4129,"Ġmegjelent":4130,"ĠMivel":4131,"rÃ©m":4132,"Ġhaza":4133,"fil":4134,"ĠVagy":4135,"Ġmintegy":4136,"ĠkÃ¼lÃ¶nb":4137,"ĠmegÃ©rt":4138,"erend":4139,"imÃ¡lis":4140,"jenek":4141,"ĠÃļj":4142,"Ġ2013":4143,"ukt":4144,"Ã¡ns":4145,"ĠpozitÃŃv":4146,"Ġkevesebb":4147,"urg":4148,"csÅĳ":4149,"Ġszerk":4150,"ĠmunkatÃ¡rs":4151,"13":4152,"ĠesÃ":4153,"Ġorosz":4154,"ĠjÃºnius":4155,"ĠegÃ©szsÃ©ges":4156,"Ġszerete":4157,"pÃ¡ly":4158,"ĠkÃ¶nnyÅ±":4159,"km":4160,"ilvÃ¡n":4161,"tÃ¡rs":4162,"ĠGÃ¡bor":4163,"ĠÃ¼ze":4164,"tag":4165,"des":4166,"alÃ¡nos":4167,"adÃ¡st":4168,"lind":4169,"alak":4170,"Ġli":4171,"ĠSzere":4172,"Ã©pÃŃt":4173,"uper":4174,"Ġjutott":4175,"Ġvalamely":4176,"uma":4177,"ĠtÃ¶kÃ©letes":4178,"szaki":4179,"kÃŃt":4180,"Ġun":4181,"ĠtartÃ":4182,"ĠvÃ¡rhatÃ³":4183,"ĠgyulladÃ¡s":4184,"viselÅĳ":4185,"lÃ¡st":4186,"ĠKÃ©p":4187,"Ġterhe":4188,"Ġhasznos":4189,"ĠlÃ¡tvÃ¡ny":4190,"Ġtartalma":4191,"szert":4192,"ĠkezdemÃ©ny":4193,"zÅĳk":4194,"story":4195,"Å±rÅ±":4196,"Ġof":4197,"Ġfogja":4198,"ĠtartÃ³":4199,"Ġennyi":4200,"ĠtÅ±nik":4201,"unkban":4202,"ĠTi":4203,"Ãºl":4204,"uhÃ¡z":4205,"Ġellent":4206,"cc":4207,"ĠszÃ©l":4208,"isbrandcontent":4209,"Ã¶tÃ©t":4210,"ĠKÃ¡r":4211,"Ġfeb":4212,"ekrÅĳl":4213,"Ġkedves":4214,"ĠvÃ©grehajt":4215,"ĠkÃ¶zÃ¶n":4216,"Ġoka":4217,"Ã©zus":4218,"iket":4219,"Ġ.":4220,"Ġtartozik":4221,"ebbÅĳl":4222,"ĠrÃ©szÃ©t":4223,"ĠvÃ¡log":4224,"jebb":4225,"ektÅĳl":4226,"nyÃ¶r":4227,"Ġszed":4228,"lmiszer":4229,"ĠKis":4230,"ĠerrÅĳl":4231,"Ã¡lÃ¡s":4232,"kerÃ¼l":4233,"ezi":4234,"ĠÃŃz":4235,"Ġsejt":4236,"kolÃ³":4237,"Ġ...":4238,"Ġtemplom":4239,"Ġmunkav":4240,"rÃ¶":4241,"lÅĳdÅĳ":4242,"Ġlen":4243,"Ġvisel":4244,"Ġlist":4245,"Ġmester":4246,"ĠtartozÃ³":4247,"jegyzÃ©s":4248,"âĢĻ":4249,"jak":4250,"Ġlegg":4251,"lva":4252,"KÃ¶":4253,"Ã©bÅĳl":4254,"Ġnekik":4255,"atÃ©g":4256,"ĠMert":4257,"Ġkrit":4258,"ĠezÃ":4259,"ĠegÃ©szsÃ©gÃ¼gyi":4260,"ĠkÃ¶vetÅĳ":4261,"ĠutÃ¡na":4262,"ĠEm":4263,"ila":4264,"imum":4265,"eged":4266,"ondol":4267,"ĠkÃ¼lfÃ¶ldi":4268,"pet":4269,"ĠpÃ©nzÃ¼gyi":4270,"Ġkony":4271,"mÃ©ter":4272,"OK":4273,"dÃ¶n":4274,"Ġmodern":4275,"ĠelnÃ¶ke":4276,"ĠmÃ©lt":4277,"kezett":4278,"Ġfenn":4279,"ĠtÃ©t":4280,"ĠaktÃŃv":4281,"Ġ23":4282,"idesz":4283,"Ġdokumentum":4284,"©rÅĳl":4285,"Ã¶rgy":4286,"Ġrem":4287,"ĠdÃ¶ntÃ©s":4288,"ĠlakossÃ¡g":4289,"ĠerÅĳsÃŃt":4290,"ĠtÃ¡b":4291,"ĠfolyÃ":4292,"Ġpihe":4293,"Ġ+":4294,"ĠÃ¼zleti":4295,"almak":4296,"jÃ¼nk":4297,"Ġfoglalkozt":4298,"ĠteljesÃŃtmÃ©ny":4299,"Ġfolyamat":4300,"igitÃ¡lis":4301,"Ġist":4302,"ukciÃ³":4303,"rol":4304,"Ġ2017":4305,"ĠLeg":4306,"aink":4307,"Ġolaj":4308,"Ki":4309,"Ġkever":4310,"Ġnapja":4311,"ĠfÃ©rfiak":4312,"ĠfÅĳleg":4313,"Ġszal":4314,"Ã³i":4315,"©vÃ©n":4316,"ĠkapcsolÃ³dÃ³":4317,"ĠvalÃ³sÃ¡g":4318,"Ġsi":4319,"kop":4320,"Ġugyanakkor":4321,"lament":4322,"Ġszinten":4323,"ĠegyÃ¼ttmÅ±kÃ¶dÃ©s":4324,"ain":4325,"Ġrejt":4326,"kezÃ©s":4327,"ack":4328,"ĠVÃ¡ros":4329,"SA":4330,"szerÅ±e":4331,"¡jÃ©kozt":4332,"szerÅ±en":4333,"Ġ2011":4334,"ĠkÃ¶vete":4335,"amos":4336,"SzÃ":4337,"ĠhÃ¡ny":4338,"Ġkedvenc":4339,"rÃ¡lt":4340,"Ġcse":4341,"Ã¡jÃ©kozt":4342,"attÃ¡k":4343,"Ġfeldolg":4344,"Ġmon":4345,"ens":4346,"ĠmÃ©rtÃ©kben":4347,"unkra":4348,"Ġfenti":4349,"Ã¼gy":4350,"ĠszÅ±":4351,"Ã©sÅ±":4352,"lcsÃ¶n":4353,"Ġfizikai":4354,"Ġlesznek":4355,"Ġtu":4356,"Ġterm":4357,"ĠKriszt":4358,"Ġtab":4359,"ĠebbÅĳl":4360,"ĠutazÃ¡s":4361,"Ġmagasabb":4362,"ĠakciÃ³":4363,"lhetÅĳ":4364,"22":4365,"ĠbÃ©l":4366,"ĠlÃ¡tni":4367,"Ġbefekt":4368,"ĠZolt":4369,"essz":4370,"ĠhagyomÃ¡ny":4371,"Ġvill":4372,"ĠegyedÃ¼l":4373,"Ã¡sÃº":4374,"cz":4375,"ĠigazsÃ¡g":4376,"com":4377,"mÃ¡val":4378,"ĠfolyÃ³":4379,"Ġvalamit":4380,"ĠvÃŃ":4381,"Ġvet":4382,"Ġmegh":4383,"ĠjÃºlius":4384,"ĠszÃ¡mÃº":4385,"Ġterjed":4386,"letet":4387,"Ġfekete":4388,"Ġreggel":4389,"ĠvÃ©let":4390,"getÃ©s":4391,"ĠÃ©rtelm":4392,"Ġszeretet":4393,"ĠkÃ©rt":4394,"60":4395,"Ãºr":4396,"Minden":4397,"ĠvisszatÃ©r":4398,"cep":4399,"Ġhas":4400,"Ġtudunk":4401,"eztÃ©k":4402,"mÃ©rsÃ©k":4403,"Ã¼lÃ¶n":4404,"ĠforrÃ¡s":4405,"Ġmennyire":4406,"Ġnye":4407,"ĠÃ¼gyfÃ©l":4408,"Ãºg":4409,"73":4410,"izÃ¡l":4411,"Ġkoncert":4412,"ĠlakÃ³":4413,"af":4414,"ĠfotÃ":4415,"ĠÃ©rzÃ©s":4416,"Ġleggy":4417,"ĠsÃ¶tÃ©t":4418,"evÅĳ":4419,"Ġiskola":4420,"Ġnyolc":4421,"ĠmÃ¡sod":4422,"zÃ³d":4423,"ĠSÃ¡ndor":4424,"ĠszÃ¡mÃŃtott":4425,"szere":4426,"ĠÃ¶nÃ¡llÃ³":4427,"omos":4428,"Ġkip":4429,"Ġhegy":4430,"nnÃ©l":4431,"Ġblog":4432,"aival":4433,"biz":4434,"ĠfebruÃ¡r":4435,"nunk":4436,"atÃ¡val":4437,"atÃ¡ban":4438,"oljÃ¡k":4439,"ĠGoogle":4440,"lÃ©st":4441,"Åĳje":4442,"Ġhall":4443,"jÃ¡rÃ³l":4444,"elind":4445,"csÃ¡n":4446,"ezetten":4447,"krÃ©t":4448,"ĠÃ©lt":4449,"Ġdem":4450,"miniszt":4451,"atiszt":4452,"Ġekkor":4453,"orszÃ¡gban":4454,"ĠnÃ©lkÃ¼li":4455,"uhÃ¡":4456,"Ġtilt":4457,"ÃŃteni":4458,"Ġpszich":4459,"Ġfigyelmet":4460,"Ġtakar":4461,"ĠmÃ¡sok":4462,"ĠformÃ¡ban":4463,"ĠszÃ¼lÅĳ":4464,"ĠsÃ":4465,"ĠkÃ¶tÃ¶tt":4466,"III":4467,"Ġhelyet":4468,"Ġaugusztus":4469,"Ġmegadott":4470,"els":4471,"rÃ¡l":4472,"ĠZoltÃ¡n":4473,"ĠmegbÃŃz":4474,"Ġszomb":4475,"Ġvalamilyen":4476,"Ġamennyiben":4477,"ĠEbben":4478,"Ġgener":4479,"Ġmegter":4480,"cÃŃ":4481,"ĠtÃŃpusÃº":4482,"Ġelind":4483,"ĠTamÃ¡s":4484,"Ã©sÃ©ben":4485,"ĠnÃ©ha":4486,"ĠcsÃ¶kken":4487,"olÃ¡sa":4488,"Ġnevel":4489,"mez":4490,"ĠkÃ¶ltsÃ©gvet":4491,"nyel":4492,"ĠezelÅĳtt":4493,"gazdasÃ¡gi":4494,"lin":4495,"sÃ¡rnap":4496,"ĠAtt":4497,"Ġkib":4498,"mm":4499,"ite":4500,"ĠKÃ¶zpont":4501,"atart":4502,"ĠsÃ¡r":4503,"Ã©szek":4504,"kolai":4505,"ĠJÃ©zus":4506,"keting":4507,"ĠkevÃ©sbÃ©":4508,"Ġ2012":4509,"vÃ¡rosi":4510,"ĠmÅ±kÃ¶dÅĳ":4511,"udvar":4512,"Ġev":4513,"osÃ":4514,"pad":4515,"Ġutca":4516,"dÃ©ly":4517,"\\\\\\\\\\\\\\\\\\\\\\\\\\\\\\\\":4518,"ĠCh":4519,"ugÃ¡r":4520,"ĠrÃ¡adÃ¡sul":4521,"ĠrÃ©szben":4522,"ĠtÃ¡nc":4523,"ĠmunkÃ¡t":4524,"akter":4525,"ĠÃ¡b":4526,"Ġcm":4527,"Ġbajnok":4528,"ĠtÃ¡jÃ©koztatÃ³":4529,"ĠtanÃ¡r":4530,"ĠtÅĳle":4531,"ĠrÃ©t":4532,"Ġhosszabb":4533,"ĠkÃ©pzÃ©s":4534,"ĠÃ¡tt":4535,"ĠÃļg":4536,"¡diÃ³":4537,"ĠeltÃ¡v":4538,"rÃ¡z":4539,"ĠÃļgy":4540,"ĠhasznÃ¡lata":4541,"ĠnÅĳi":4542,"ĠEurÃ³pa":4543,"ozz":4544,"emben":4545,"ĠlÃ¡togatÃ³":4546,"ĠfotÃ³":4547,"ovÃ¡":4548,"Ġmas":4549,"edves":4550,"sok":4551,"Ġgyakori":4552,"ĠfÃ©le":4553,"ĠZrt":4554,"ĠÃ¶tlet":4555,"ĠGyÃ¶rgy":4556,"AK":4557,"che":4558,"Ġjelenlegi":4559,"\",":4560,"¡Ã©rt":4561,"ĠhÃ¡borÃº":4562,"hats":4563,"dÃ¶s":4564,"24":4565,"ĠtÃ¶bbek":4566,"Ġbeszer":4567,"Ġpuszt":4568,"Ã¼lete":4569,"Ġkm":4570,"reg":4571,"ĠÅĳs":4572,".:":4573,"Ġproszt":4574,"ĠtÃ¶ltÃ¶tt":4575,"Ġsikeres":4576,"dÃ¶nt":4577,"Ã©sen":4578,"ĠkÃ©szÃ¼lÃ©k":4579,"iÃ¡val":4580,"Ġpir":4581,"Ġlehetne":4582,"Ã¡sÃ¡rÃ³l":4583,"rat":4584,"Ġbiztosan":4585,"ĠÃ©lvez":4586,"tat":4587,"ĠPar":4588,"ĠtelepÃ¼lÃ©s":4589,"Ġgyerm":4590,"ĠÃ¡gy":4591,"ĠvizsgÃ¡lat":4592,"ĠjÃ¡tÃ©kos":4593,"rum":4594,"Ġmire":4595,"Ġegyben":4596,"ĠbÃ¼nte":4597,"yÃ³gy":4598,"ĠhasznÃ¡lni":4599,"Ġhord":4600,"Ġ60":4601,"okhoz":4602,"Ġ27":4603,"ĠfelhÃŃv":4604,"ĠszÅĳ":4605,"ĠorszÃ¡gos":4606,"ĠTÃ¶bb":4607,"Ġberend":4608,"ozÃ¡si":4609,"inket":4610,"Ġszerepet":4611,"Ġhideg":4612,"ĠspeciÃ¡lis":4613,"Ġcukor":4614,"EG":4615,"Ġtavaly":4616,"ĠfeltÃ©telek":4617,"polit":4618,"hatÃ³sÃ¡g":4619,"Ġfolyamatos":4620,"akon":4621,"Ãīs":4622,"zÃ¡ltal":4623,"ĠRÃ¡":4624,"mÃ©szetesen":4625,"ĠÃĵ":4626,"ĠbelÃ©p":4627,"Ġtudnak":4628,"ĠmegerÅĳ":4629,"¡ig":4630,"ĠKÃ¶zÃ":4631,"ĠjÃ¡rÃ":4632,"ĠidÃ":4633,"hatsz":4634,"ĠjÃ¡rÃ³":4635,"Ġneked":4636,"ultak":4637,"lyan":4638,"ĠgyÃ¶nyÃ¶r":4639,"©kÃ":4640,"jÅ±":4641,"szÃ¶":4642,"ĠkÃ¡ros":4643,"AP":4644,"marad":4645,"kodik":4646,"ĠtÃ¼netek":4647,"ĠHogyan":4648,"ĠkÃ¶vetel":4649,"adja":4650,"cen":4651,"\".":4652,"ĠhozzÃ¡fÃ©r":4653,"ĠszÃ©pe":4654,"Ġadni":4655,"ĠkÃ¶zvetlen":4656,"ĠPersze":4657,"ĠszociÃ¡lis":4658,"mill":4659,"Ġfegy":4660,"ĠmÅ±sor":4661,"suk":4662,"Ġkezdet":4663,"ou":4664,"Ġidei":4665,"mÃ¡ban":4666,"inÃ¡lt":4667,"enni":4668,"lÃ¡ny":4669,"ebben":4670,"ĠvÃ©t":4671,"ĠmunkÃ¡l":4672,"ĠtudomÃ¡nyos":4673,"Ġmelyik":4674,"Be":4675,"ĠpÃ³t":4676,"elme":4677,"ĠkollÃ©g":4678,"ĠvalÃ³s":4679,"nyt":4680,"Ġegyszerre":4681,"Ġ26":4682,"¶lcsÃ":4683,"hatod":4684,"45":4685,"szÃŃr":4686,"ivel":4687,"lnÃ¶k":4688,"nÃ¡k":4689,"Ġmondani":4690,"ĠÃ¡g":4691,"Ġadja":4692,"Ġ2010":4693,"Ġmindaz":4694,"Ġhite":4695,"ĠvezÃ©r":4696,"Ġhivatalos":4697,"Ãºs":4698,"ĠlehetÅĳsÃ©ge":4699,"szÃ¡r":4700,"Ġzsi":4701,"ĠtulajdonsÃ¡g":4702,"ĠkulturÃ¡lis":4703,"eit":4704,"ĠnyÃ¡r":4705,"ĠÃ©lelmiszer":4706,"Ġlehetnek":4707,"ĠKÃ©r":4708,"anÃ":4709,"ĠJÃ³":4710,"ĠazÃ³ta":4711,"eszÃŃt":4712,"Ġveszt":4713,"ĠidÅĳtart":4714,"ova":4715,"lebb":4716,"ĠÃ¶szt":4717,"ona":4718,"mÃ©k":4719,"ĠÃ³ri":4720,"Ġadatai":4721,"ĠkÃ¶zÃ¶ssÃ©g":4722,"ĠEgyesÃ¼let":4723,"Ġsincs":4724,"ŃciÃ³":4725,"ivil":4726,"Ġkert":4727,"Ġterv":4728,"tÃ¶rt":4729,"ĠakadÃ¡ly":4730,"szeg":4731,"Ġazonos":4732,"Ġkivit":4733,"ĠjellegÅ±":4734,"ĠFor":4735,"VI":4736,"ezer":4737,"ĠvÃ¶rÃ¶s":4738,"Ġidegen":4739,"ÃŃti":4740,"Ġhom":4741,"ĠmozgÃ¡s":4742,"ĠÃ¼veg":4743,"ĠannÃ¡l":4744,"itt":4745,"szÃŃv":4746,"Ġ28":4747,"Ġfriss":4748,"kÃ¶lt":4749,"Ġgondos":4750,"tÃ¶tt":4751,"tion":4752,"ĠÃ©vtized":4753,"ĠrendÅĳr":4754,"ĠnyugdÃŃj":4755,"ĠfelÃºj":4756,"Ġmat":4757,"szolgÃ¡lt":4758,"Ġaminek":4759,"Ġfrancia":4760,"ĠszÃ³rak":4761,"Ġbirt":4762,"Ġakit":4763,"lÃ¡z":4764,"ĠNÃ©met":4765,"nged":4766,"ĠvideÃ":4767,"Ġtudtam":4768,"ĠhatÃ¡ridÅĳ":4769,"ork":4770,"Ġhull":4771,"ation":4772,"Magyar":4773,"pa":4774,"Ġsemmit":4775,"Ġlassan":4776,"ĠreklÃ¡m":4777,"ikÃ¡":4778,"ĠtÃ¡rgyal":4779,"ĠtÃ©ma":4780,"omi":4781,"ned":4782,"Ġcsillag":4783,"ĠÃģllam":4784,"ĠSzak":4785,"ĠkÃ¶lcsÃ¶n":4786,"ĠEzzel":4787,"jelÃ¶lt":4788,"ĠsÃ©t":4789,"foglal":4790,"ĠkÃ¶zvetlenÃ¼l":4791,"ĠcsÃŃ":4792,"okr":4793,"ĠtÃ¶bbszÃ¶r":4794,"kedett":4795,"Ġtudok":4796,"szo":4797,"ĠkÃ¼ld":4798,"oltak":4799,"Ġszakasz":4800,"ĠAndrÃ¡s":4801,"ĠelÃ©":4802,"ĠalapvetÅĳ":4803,"ĠemlÃŃtett":4804,"Ġkifejezetten":4805,"ajÃ¡n":4806,"Ġablak":4807,"ĠfÃ¼rdÅĳ":4808,"ĠnyilvÃ¡ntart":4809,"ĠFelhasznÃ¡lÃ³":4810,"sÃŃtett":4811,"Ã¡llalÃ³":4812,"yÃ":4813,"Ġamivel":4814,"Ġlog":4815,"csÃ¶kke":4816,"lismer":4817,"Ġ198":4818,"rÃ©n":4819,"70":4820,"eles":4821,"ĠhatÃ¡sa":4822,"Ġleb":4823,"ĠmegszÅ±":4824,"¡jÃ¡t":4825,"ĠszabadsÃ¡g":4826,"ermek":4827,"Ã¡j":4828,"haszn":4829,"ĠrendelkezÃ©sre":4830,"magas":4831,"Ġmutatja":4832,"Ġkiad":4833,"Ġsziget":4834,"ĠtÃŃpus":4835,"Ġge":4836,"ĠkerÃ¼let":4837,"ÃŃtÃ¡si":4838,"ĠmegÅĳr":4839,"Ġhelyes":4840,"Ġtartja":4841,"ozÃŃciÃ³":4842,"Ġszerepel":4843,"ĠszÃ©pen":4844,"ĠadatkezelÅĳ":4845,"Ġkre":4846,"iszony":4847,"ky":4848,"ĠkÃ¶te":4849,"Ġviz":4850,"ĠsegÃŃtsÃ©get":4851,"ĠfiÃº":4852,"ĠdigitÃ¡lis":4853,"osszabb":4854,"asszikus":4855,"Ġfelfed":4856,"ĠmÃ©ter":4857,"ĠMÃ¡s":4858,"pel":4859,"ereg":4860,"kÃ¶zpont":4861,"Ġ2019":4862,"Ġseg":4863,"udapesti":4864,"ĠszerencsÃ":4865,"oli":4866,"ĠÃģltalÃ¡nos":4867,"elismer":4868,"hass":4869,"ĠIgaz":4870,"ĠbÃŃrÃ³sÃ¡g":4871,"Ġmegtart":4872,"ĠkerÃ©k":4873,"una":4874,"ĠbeszÃ¡m":4875,"ore":4876,"Ġembert":4877,"Ġamelyben":4878,"ĠjÃ¶ve":4879,"Ġfelismer":4880,"oztak":4881,"sÃ¡gÃº":4882,"Ã©ig":4883,"Ġtulajdonos":4884,"ĠÃ©nek":4885,"ĠMint":4886,"org":4887,"Ġakti":4888,"dÃ¡m":4889,"sÃŃtÅĳ":4890,"Ġamelyeket":4891,"Ġszig":4892,"ĠidejÃ©n":4893,"iaci":4894,"olhatÃ³":4895,"ĠÃºjsÃ¡g":4896,"ĠesÃ©ly":4897,"ĠpapÃŃr":4898,"ĠbÅ±n":4899,"ĠstratÃ©g":4900,"Ġnyel":4901,"ĠlevegÅĳ":4902,"ĠkÃ¶rÃ¼lmÃ©nyek":4903,"Ġkiemel":4904,"Ġels":4905,"Ġille":4906,"Ġrajt":4907,"ĠÃ¶rÃ¶m":4908,"ĠhÃ©tvÃ©g":4909,"Ġold":4910,"ĠszolgÃ¡ltatÃ¡sok":4911,"izsgÃ":4912,"ĠÃ©rzel":4913,"Ġmegfog":4914,"jÃ¡ba":4915,"ĠerdÅĳ":4916,"ĠÃ¶nt":4917,"Ãºgy":4918,"ĠhÃ¡zi":4919,"Ġmed":4920,"ĠkÃ¶zlekedÃ©s":4921,"Ġtip":4922,"**":4923,"ĠszeretnÃ©k":4924,"fjÃº":4925,"ĠhÃ©te":4926,"Ġpartner":4927,"Ġeszt":4928,"ĠhÃ©ten":4929,"ĠbeszÃ©lt":4930,"Ġmegkez":4931,"ĠFacebook":4932,"avar":4933,"ĠkÃ©nyelm":4934,"Ġkulcs":4935,"ĠtÃ¶rÃ":4936,"Ġelismer":4937,"Ġassz":4938,"olÃ³gus":4939,"eznek":4940,"ozÃ³d":4941,"ĠleÃŃr":4942,"lb":4943,"ĠkemÃ©ny":4944,"ĠkÃ©szÃŃtett":4945,"ĠjÃ¡rmÅ±":4946,"Ġfeladatok":4947,"ĠhasznÃ¡lhatÃ³":4948,"ĠtojÃ¡s":4949,"ĠvideÃ³":4950,"gyÅ±lÃ©s":4951,"netet":4952,"ĠajÃ¡nlat":4953,"uhÃ¡zÃ¡s":4954,"ĠvÃ¡sÃ¡rlÃ³":4955,"ĠBizottsÃ¡g":4956,"ĠelÅĳbb":4957,"ĠpedagÃ³g":4958,"ĠtelepÃ¼l":4959,"ora":4960,"db":4961,"Ġszeretne":4962,"jait":4963,"ĠszÃ¡ndÃ©k":4964,"kt":4965,"ĠhÃ¡zas":4966,"ĠkapcsÃ¡n":4967,"alan":4968,"deni":4969,"ĠolvasÃ³":4970,"Ġmec":4971,"ĠVÃ©g":4972,"ĠOrszÃ¡gos":4973,"ĠszeretnÃ©nk":4974,"Ã¶z":4975,"odott":4976,"ĠvezetÅĳje":4977,"nekar":4978,"zete":4979,"ĠegyhÃ¡z":4980,"leti":4981,"Ġismeret":4982,"ura":4983,"ĠimÃ¡d":4984,"ttÃ":4985,"ĠeltÃ¡volÃŃt":4986,"ĠtÃ©l":4987,"ĠkarÃ¡csony":4988,"rtelen":4989,"kg":4990,"Ġszavaz":4991,"sÃ¼nk":4992,"ĠÃŃzÃ¼leti":4993,"ajos":4994,"ulÃ¡sÃ¡t":4995,"ht":4996,"ĠajÃ¡nlott":4997,"segÃŃt":4998,"mÃ©n":4999,"yal":5000,"Ã¡lja":5001,"ĠbetegsÃ©gek":5002,"ĠkÃ©pessÃ©g":5003,"olikus":5004,"jÃ©re":5005,"Ne":5006,"ĠhÃ¼":5007,"ĠjÃ³t":5008,"Ġfigyelm":5009,"Ġsemmilyen":5010,"ĠnevÅ±":5011,"emÃ©ny":5012,"ux":5013,"ĠÃ©rkezett":5014,"atjÃ¡k":5015,"Ġfek":5016,"ĠÃŃrja":5017,"knak":5018,"ĠÃ¼gyfele":5019,"okba":5020,"Ġideg":5021,"Ġhelye":5022,"90":5023,"Ġtartalmazza":5024,"Ã©tÅĳl":5025,"Ġprod":5026,"ĠtartÃ³s":5027,"istÃ¡k":5028,"Ġkiter":5029,"ĠPe":5030,"ĠhirdetÃ©s":5031,"Hogyan":5032,"lmint":5033,"rÃ¡sÃ":5034,"Ġkop":5035,"ĠrÃ©vÃ©n":5036,"Ã©sei":5037,"kkor":5038,"vÃ©teli":5039,"Ġtenger":5040,"ĠterÃ¼leten":5041,"ise":5042,"ocs":5043,"Ġmindenkinek":5044,"ĠBudapeste":5045,"Ġajt":5046,"Ġmobil":5047,"Ġvalamennyi":5048,"Ġelj":5049,"mÃºg":5050,"ry":5051,"mÃºgy":5052,"ĠÃ©szak":5053,"otÃ":5054,"lmet":5055,"Ġtartani":5056,"¡zÃ³":5057,"zÃ¡ciÃ³":5058,"kur":5059,"EZ":5060,"ĠÃ¶lt":5061,"Ã¡tÃ³l":5062,"ĠOrbÃ¡n":5063,"heted":5064,"ĠÃ¡ram":5065,"helyi":5066,"kamp":5067,"jÃ¡tok":5068,"ĠtermÃ©ke":5069,"erg":5070,"Ġfr":5071,"ĠmiutÃ¡n":5072,"oljuk":5073,"Ġanti":5074,"ĠszÃŃvesen":5075,"hetÅĳk":5076,"pp":5077,"bajnok":5078,"Ġvad":5079,"rÃ³n":5080,"aik":5081,"ĠtÃ¡plÃ¡l":5082,"ĠzsÃŃr":5083,"zÃ¡szÃ³":5084,"ĠmindkÃ©t":5085,"olaj":5086,"ĠÃ¶sszesen":5087,"ÃŃtÃ©se":5088,"land":5089,"almazott":5090,"ĠcsÃ¼":5091,"ĠbenyÃºjt":5092,"iÃ¡n":5093,"akkal":5094,"Ġszellemi":5095,"ĠvÃ¡lasztÃ¡s":5096,"isko":5097,"ĠdÃ¶ntÃ¶tt":5098,"olÃ³d":5099,"kÃ¶ny":5100,"verseny":5101,"ĠzsidÃ³":5102,"ĠdÃ©lutÃ¡n":5103,"cske":5104,"ĠjavÃŃt":5105,"nom":5106,"Ġtej":5107,"ĠszÃ¡ll":5108,"Ã¡zis":5109,"23":5110,"Ġmegkap":5111,"Ġteme":5112,"ĠminÅĳsÃ©gi":5113,"vÃ©s":5114,"âĢľ":5115,"Ġolt":5116,"Ġ31":5117,"egatÃŃv":5118,"ĠszÃ¡rmazÃ³":5119,"ĠfÃ¶lÃ":5120,"ĠbiztonsÃ¡gi":5121,"ĠEgyesÃ¼lt":5122,"ĠfÃ¡r":5123,"Ġugyanaz":5124,"nyÅĳ":5125,"Ġsar":5126,"Ġtagjai":5127,"ĠcsodÃ¡l":5128,"cel":5129,"ĠmÃ©rkÅĳ":5130,"Ã©ren":5131,"Ġamire":5132,"Ãºjabb":5133,"nnyit":5134,"ĠSzÃ¶vet":5135,"Ġmegoszt":5136,"Ġtiszta":5137,"ĠtÃ¡bor":5138,"¶ket":5139,"erc":5140,"uli":5141,"lom":5142,"ĠutÃ¡ni":5143,"sÃ¡ggal":5144,"ĠkÃ¶nyvtÃ¡r":5145,"Ġnyugod":5146,"ĠÃ³rakor":5147,"Ġtechnikai":5148,"ĠfÃ©reg":5149,"Ġbudapesti":5150,"nyom":5151,"Ã¡hoz":5152,"ĠÃ©lÃ":5153,"usÃ":5154,"ĠmagyarÃ¡z":5155,"leve":5156,"ottam":5157,"Ġrendszeresen":5158,"Ġtartal":5159,"ĠszempontbÃ³l":5160,"Ġadag":5161,"ĠAkkor":5162,"ĠnyÃŃlt":5163,"ĠÃ¶sztÃ¶n":5164,"mÃ¶r":5165,"Ġï¿½":5166,"Ġabba":5167,"zatok":5168,"ĠkeresztÃ©ny":5169,"cept":5170,"©Ã©rt":5171,"ĠÃ¶rÃ¶":5172,"ĠgyÃ³gyszerek":5173,"ĠdrÃ¡g":5174,"alt":5175,"Ġman":5176,"sÃ¼lt":5177,"szÃ©k":5178,"Ġdiag":5179,"??":5180,"IS":5181,"ĠszolgÃ¡ltatÃ³":5182,"form":5183,"ĠrÃ¡n":5184,"ĠÃ¶nkÃ©nt":5185,"cial":5186,"Ġmegf":5187,"Ġsos":5188,"atÃ¡sÃ¡t":5189,"26":5190,"ĠdollÃ¡r":5191,"ĠegymÃ¡st":5192,"ĠaktuÃ¡lis":5193,"elÅĳre":5194,"Ġmene":5195,"ĠMegy":5196,"ĠvalÃ³szÃŃnÅ±leg":5197,"kÃ¶tele":5198,"ĠelvÃ¡r":5199,"Ġcivil":5200,"ĠfelmÃ©r":5201,"ĠkonkrÃ©t":5202,"ĠkÃ©pesek":5203,"ĠHar":5204,"Ġtran":5205,"Ġmegint":5206,"ĠSe":5207,"ĠvalÃ³di":5208,"ĠalsÃ³":5209,"ennÃ©l":5210,"ĠstÃŃlus":5211,"ĠhatÃ¡roz":5212,"irat":5213,"vÃ¡ri":5214,"ĠIm":5215,"NY":5216,"48":5217,"ĠBudapesten":5218,"mÃ¡nak":5219,"ĠEd":5220,"Ġmes":5221,"ĠÃľg":5222,"ode":5223,"Ġmodell":5224,"ĠvÃ©dÅĳ":5225,"Ġuj":5226,"nÃ¡nk":5227,"ĠrepÃ¼lÅĳ":5228,"vÃ©delem":5229,"ĠkerÃ¼lnek":5230,"ĠregÃ©ny":5231,"ĠmegkÃ©r":5232,"Ġdolgoz":5233,"ĠgÃ¡z":5234,"bert":5235,"sÃ¡gban":5236,"Ġhangul":5237,"feljebb":5238,"Ġkan":5239,"lkerÃ¼l":5240,"ĠfertÅĳzÃ©s":5241,"astag":5242,"cri":5243,"Ġhalad":5244,"Ġalkalmazott":5245,"ĠkÃ¶zponti":5246,"oltÃ¡k":5247,"Ġvas":5248,"MÃ¡r":5249,"ĠhÃ¡ttÃ©r":5250,"zelÃŃt":5251,"ĠhozzÃ¡t":5252,"Ġklasszikus":5253,"Ġszim":5254,"Ġcsator":5255,"Ġveszi":5256,"ĠkihÃŃv":5257,"fajta":5258,"lel":5259,"Azt":5260,"elkerÃ¼l":5261,"ĠmunkavÃ¡llalÃ³":5262,"Ã¶rvÃ©ny":5263,"Ġingyenes":5264,"Ġhozott":5265,"ĠfelhasznÃ¡lÃ¡s":5266,"Ġolasz":5267,"ken":5268,"Ã¡d":5269,"iÃ¡ba":5270,"kezÅĳ":5271,"ĠszÃ¡raz":5272,"ĠminÅĳsÃ©gÅ±":5273,"Ã©ldÃ¡ul":5274,"Te":5275,"Ġposzt":5276,"Ġalatti":5277,"ĠmagyarorszÃ¡gi":5278,"ĠjÃ³val":5279,"https":5280,"ate":5281,"Ġbel":5282,"qu":5283,"ĠinformÃ¡ciÃ³kat":5284,"ĠfelhasznÃ¡lÃ³i":5285,"ĠvasÃ¡rnap":5286,"Ġkelt":5287,"ĠennÃ©l":5288,"velt":5289,"Ġ)":5290,"jut":5291,"Ġbefej":5292,"Ġazoknak":5293,"orb":5294,"ĠFÃ¶ld":5295,"ĠvÃ¡d":5296,"ekhez":5297,"ĠAdatkezelÅĳ":5298,"Ġkorr":5299,"Ġten":5300,"omÃ³":5301,"aba":5302,"ĠelkerÃ¼l":5303,"Ġremek":5304,"ĠberuhÃ¡zÃ¡s":5305,"eknÃ©l":5306,"sÃ©t":5307,"Ã¡sai":5308,"Ġilyenkor":5309,"Ġorvosi":5310,"ĠszÃ©n":5311,"atait":5312,"ĠÃ¼d":5313,"ĠhallgatÃ³":5314,"cser":5315,"Ġbevezet":5316,"Ġnapig":5317,"ĠlÃ³":5318,"jet":5319,"Ġtervezett":5320,"Ġoper":5321,"Ġforgalom":5322,"ĠregisztrÃ¡ciÃ³":5323,"ĠolcsÃ³":5324,"Ġ2020":5325,"lÃ¡ciÃ³":5326,"app":5327,"nkÃ©nt":5328,"elÃ©g":5329,"ĠmÃºlva":5330,"OM":5331,"ĠkÃ¶tet":5332,"ĠpolgÃ¡rmester":5333,"ĠtudÃ¡s":5334,"ĠeltÃ©rÅĳ":5335,"nevezett":5336,"ĠThe":5337,"ĠgyÃ¶nyÃ¶rÅ±":5338,"okÃº":5339,"Ġelmondta":5340,"Ġmegyei":5341,"ĠÃ©rdeklÅĳdÃ©s":5342,"ĠjÃ¡rt":5343,"ĠVik":5344,"szÃ¶vet":5345,"Ã¶rÃ¶g":5346,"cik":5347,"¡llÃ³":5348,"fin":5349,"Ġtudod":5350,"ĠtartÃ³z":5351,"Ġbr":5352,"ĠnegatÃŃv":5353,"ĠfelkÃ©szÃ":5354,"kkal":5355,"ĠPÃ¡l":5356,"Ġmegmut":5357,"ĠmegszÃ¼":5358,"ĠfelÃ©p":5359,"ĠpÃ¡lyÃ¡zat":5360,"iben":5361,"Ġmondjuk":5362,"kÃ¶n":5363,"Ġszava":5364,"Ìģ":5365,"dÃ¶":5366,"bÃ©r":5367,"ullÃ¡m":5368,"Ġminisztere":5369,"ĠlÃ©":5370,"zob":5371,"Ġgl":5372,"Ġtablett":5373,"ĠtechnolÃ³g":5374,"szÃ©d":5375,"Ġforgal":5376,"ĠhÅĳmÃ©rsÃ©k":5377,"Ad":5378,"©kÃ©n":5379,"ĠSzÃ¡m":5380,"Ġmagukat":5381,"ct":5382,"ĠVer":5383,"Ġves":5384,"ĠuniÃ³s":5385,"ĠgÃ":5386,"emÅ±":5387,"Ġteszik":5388,"Ġszez":5389,"Ġjutt":5390,"Ġvonal":5391,"ĠmegÃºj":5392,"Ã¡jÃ©koztatÃ³":5393,"kapcs":5394,"Ã©li":5395,"dob":5396,"velÅĳ":5397,"ĠÃ¡llnak":5398,"ĠAttila":5399,"alakÃŃt":5400,"Ġstatiszt":5401,"ĠszempontjÃ¡bÃ³l":5402,"Ġjavaslat":5403,"alkot":5404,"fehÃ©r":5405,"olnak":5406,"ĠUniÃ":5407,"ĠÃ¡rt":5408,"ĠBr":5409,"Ġmarketing":5410,"Ġtes":5411,"eve":5412,"ĠmegrendelÃ©s":5413,"ĠAki":5414,"Ġdiv":5415,"akciÃ³":5416,"levÃ©l":5417,"ĠÃ©vig":5418,"ĠtovÃ¡bbiakban":5419,"kampÃ¡ny":5420,"eurÃ³":5421,"Ã©kes":5422,"¶lgy":5423,"ĠMit":5424,"ĠhasonlÃ³an":5425,"ĠvalÃ³jÃ¡ban":5426,"Fe":5427,"ĠkÃ©rjÃ¼k":5428,"vÃº":5429,"Ġtartalom":5430,"Ġfelh":5431,"ĠnyÃ¡ri":5432,"ĠlÃ¡tszik":5433,"ĠjÃ¡tszott":5434,"Ġhiba":5435,"ĠkÃ©pet":5436,"ÃŃciÃ³":5437,"Ġmet":5438,"ĠbÃ¡rmikor":5439,"sÃ©geket":5440,"lÃ¼nk":5441,"anszÃŃr":5442,"ĠlegÃºjabb":5443,"Ġcig":5444,"ĠellentÃ©t":5445,"forr":5446,"Amennyiben":5447,"ĠtekintetÃ©ben":5448,"cÃ©l":5449,"ĠnÃ©mi":5450,"ĠvelÃ¼k":5451,"szerÅ±bb":5452,"ĠhatÃ¡ssal":5453,"ĠpÃ©nisz":5454,"vÃ©telÃ©vel":5455,"ĠnÃ¡lunk":5456,"ĠidÅĳszakban":5457,"ĠÃŃt":5458,"ew":5459,"sÃ¼let":5460,"³rÃ¡t":5461,"ozÃ¡st":5462,"ĠkÃ¶zÃ¶nsÃ©g":5463,"inte":5464,"elb":5465,"ĠeurÃ³":5466,"ĠszÃ¡momra":5467,"vÅĳk":5468,"ĠnevÃ©t":5469,"gÃ¡s":5470,"TE":5471,"dÃ¶ssze":5472,"Ġbale":5473,"Ġfed":5474,"fÃ©reg":5475,"str":5476,"Ġgyan":5477,"Ġasztal":5478,"ĠfordÃŃt":5479,"ĠÃīS":5480,"Ġopti":5481,"intem":5482,"kodni":5483,"tÃ©k":5484,"Ġbolt":5485,"omÃ¡nyi":5486,"ded":5487,"Ġannyit":5488,"ĠjelÃ¶lt":5489,"ÃģG":5490,"hetett":5491,"asis":5492,"ĠSzÃŃn":5493,"Ġmegfig":5494,"ĠAztÃ¡n":5495,"Ġvastag":5496,"lenc":5497,"oktÃ³l":5498,"ĠhÃ©tfÅĳ":5499,"Ã¼nkben":5500,"atnak":5501,"ĠÃ©jszak":5502,"ĠlÃ¡ttam":5503,"Ġszoft":5504,"Ter":5505,"ity":5506,"olyan":5507,"Ġ29":5508,"ĠHivatal":5509,"ĠelmÃ©let":5510,"alog":5511,"ĠemlÃ©":5512,"ĠEL":5513,"ĠtÃ¶rtÃ©nete":5514,"ĠBalaton":5515,"iszont":5516,"¡ci":5517,"ĠÃ©letmÃ³d":5518,"ĠÃľgy":5519,"pÃ³t":5520,"ĠfÃ©nykÃ©p":5521,"Ã³rÃ¡t":5522,"zÃ©sÃ©t":5523,"metlen":5524,"ĠKe":5525,"ĠkÃ¶rÃ©ben":5526,"Ġep":5527,"ĠszÃ¼ksÃ©ge":5528,"ĠelÅĳtti":5529,"ĠAmi":5530,"zÃ³val":5531,"ĠhajÃ³":5532,"ĠbizonyÃŃt":5533,"hy":5534,"©tter":5535,"ĠkÃ¶zÃ¶lte":5536,"ĠmegelÅĳzÅĳ":5537,"Ġvagyon":5538,"ĠoktatÃ¡s":5539,"gyÃ³gy":5540,"Ġparlament":5541,"ĠkezelÃ©sÃ©re":5542,"ĠkÃ©sÅĳbbi":5543,"44":5544,"Ġhitel":5545,"Ġrug":5546,"ĠHol":5547,"nÃ¡z":5548,"eszi":5549,"ĠesÅĳ":5550,"ĠorszÃ¡gban":5551,"ste":5552,"fÅ±":5553,"vÃ¡l":5554,"Ġ80":5555,"Ġcsont":5556,"hÃ¡borÃº":5557,"osÃŃtÃ":5558,"ĠcsÃ¼tÃ¶rt":5559,"ozÃ¡sÃ¡t":5560,"Ġzenekar":5561,"27":5562,"ĠfellÃ©p":5563,"Ġrendszeres":5564,"otÃ³":5565,"ĠMegyei":5566,"szal":5567,"Ġtudta":5568,"ĠUniÃ³":5569,"ettÅĳl":5570,"Ġautomatikus":5571,"AI":5572,"adÃ³k":5573,"ĠkÃ¶vetkeztÃ©ben":5574,"Ã¡lta":5575,"ĠkettÅĳ":5576,"Ġkoron":5577,"kozik":5578,"ĠkutatÃ³":5579,"hid":5580,"Ġmegrend":5581,"vert":5582,"www":5583,"Ġalakul":5584,"ĠÃ©rvÃ©nyesÃŃt":5585,"ĠKÃ©t":5586,"Ġcsend":5587,"ĠlevÃ©l":5588,"28":5589,"ĠÃŃrta":5590,"Ġnevet":5591,"sÃ©gre":5592,"ĠhÃ¡lÃ³zat":5593,"Ġmunkan":5594,"ĠlÃ©tezik":5595,"Ġelm":5596,"tok":5597,"olvas":5598,"ire":5599,"ĠkÅĳ":5600,"Ġhirtelen":5601,"Ġtudott":5602,"program":5603,"Ġkilo":5604,"Ġmegtekint":5605,"©ven":5606,"lerg":5607,"omp":5608,"szervezet":5609,"Ġural":5610,"bel":5611,"©kÃ©t":5612,"ĠcsÃºcs":5613,"Ġban":5614,"osÃŃtÃ³":5615,"Ġrajz":5616,"ib":5617,"elefon":5618,"cionÃ¡lis":5619,"ĠtermÃ©ket":5620,"ĠvevÅĳ":5621,"ĠbÃ¡n":5622,"airÃ³l":5623,"Ã¶kÃ¶":5624,"Ġanyagi":5625,"Ġstabil":5626,"ĠhasznÃ¡lja":5627,"annyi":5628,"Ġdb":5629,"anyol":5630,"Ġenyh":5631,"ĠHor":5632,"Ġlegfeljebb":5633,"ºttal":5634,"Ġkarakter":5635,"Ġszerzett":5636,"kÃ¡ig":5637,"ĠelÃ©ge":5638,"szerep":5639,"tÃ©st":5640,"ĠrÃ©giÃ³":5641,"Ġnyar":5642,"szÃ¶nt":5643,"Ġelb":5644,"ĠtÃ¶rtÃ©nelmi":5645,"ĠjelentÅĳsen":5646,"Ġmad":5647,"lkÃ¶vet":5648,"jek":5649,"alÃ¡z":5650,"ĠFidesz":5651,"tÃ¡n":5652,"ĠÃ©rtesÃŃt":5653,"ĠirÃ¡nt":5654,"elkÃ¶vet":5655,"ĠmenÃ¼":5656,"Ġeddigi":5657,"Ġizgalmas":5658,"Ġkoncent":5659,"ĠszegÃ©ny":5660,"umot":5661,"ĠlÃ©pÃ©s":5662,"Ġmagunk":5663,"ĠszÃ¼l":5664,"Ġzse":5665,"ĠszolgÃ¡lÃ³":5666,"ĠmÅ±szaki":5667,"ĠkÃ©nyszer":5668,"ukra":5669,"iter":5670,"ĠKÃ¼lÃ¶n":5671,"Ã©ven":5672,"index":5673,"cet":5674,"ĠoldalÃ¡n":5675,"Ġpat":5676,"hegy":5677,"Ã¼sz":5678,"ĠÃºr":5679,"rod":5680,"zÃ¡si":5681,"Ġminiszter":5682,"ElÅĳ":5683,"igazgatÃ³":5684,"ĠsÃŃ":5685,"Ġx":5686,"ĠfÃ¼ggetlenÃ¼l":5687,"ĠGe":5688,"ĠremÃ":5689,"Ġtisztelet":5690,"ÃīG":5691,"Ã¡ris":5692,"ĠelkÃ¶vet":5693,"Ġfelszer":5694,"apÃ¡n":5695,"ĠtudomÃ¡ny":5696,"ĠvÃ¡llalat":5697,"ĠjelenlÃ©t":5698,"ĠLajos":5699,"alÃ¡":5700,"Ġszuper":5701,"ĠelÅĳÃŃr":5702,"ĠNek":5703,"barÃ¡t":5704,"ĠtanÃº":5705,"zÃ©sÃ©re":5706,"ĠgyÃ¡rtÃ":5707,"Ã©rtÃ©k":5708,"Ãīn":5709,"ozÃ³k":5710,"¡llÃŃt":5711,"Ġudvar":5712,"Ġszenny":5713,"ĠBÃ":5714,"Ġelenged":5715,"Ã©sze":5716,"lhu":5717,"ĠabbÃ³l":5718,"ĠÃ¡ra":5719,"tÃ¼nk":5720,"iÃ¡ja":5721,"ĠÃ©rdeklÅĳdÅĳ":5722,"ĠÃ¼lÃ©s":5723,"ĠgyÃ¡rtÃ³":5724,"Ġfant":5725,"ĠmegkÃ¶zelÃŃt":5726,"geli":5727,"ĠbÃŃz":5728,"ĠLehet":5729,"ĠkÃ¶zep":5730,"ĠOlyan":5731,"Ġkiny":5732,"Nagyon":5733,"Ġszembe":5734,"Ġkereskedelmi":5735,"AM":5736,"ĠszÃŃnvonal":5737,"Ġmegtan":5738,"venni":5739,"³rÃ¡n":5740,"Ã¶rtÃ©ne":5741,"lÃ¡sok":5742,"ĠRo":5743,"Ã©tter":5744,"ĠvelÃ¼nk":5745,"ĠÃ¶reg":5746,"utasÃŃt":5747,"lettel":5748,"ĠkÃ³d":5749,"Ġgondolom":5750,"Ġtizen":5751,"ĠIntÃ©zet":5752,"edik":5753,"Ġvette":5754,"Ġpre":5755,"Ã¡ruhÃ¡z":5756,"56":5757,"nÃ¡m":5758,"ĠszÃ¼lÅĳk":5759,"ĠfÃ³r":5760,"CS":5761,"Ġ2009":5762,"kup":5763,"Ġlegye":5764,"ĠszomszÃ©d":5765,"ĠremÃ©ny":5766,"ĠrÃ¡m":5767,"ĠmegvÃ¡ltozt":5768,"49":5769,"ĠbÃ¶ngÃ©szÅĳ":5770,"Ã³rÃ¡n":5771,"atom":5772,"ÃŃtottÃ¡k":5773,"lÃ¡sÃ¡t":5774,"ĠbiztonsÃ¡gos":5775,"Ġger":5776,"ĠmÅ±tÃ©t":5777,"ĠlÃ¡tÃ¡s":5778,"kÃ©pes":5779,"ĠÃ¡ltala":5780,"ĠautÃ":5781,"ĠÃ¡p":5782,"Ã©shez":5783,"zÃ¡st":5784,"jÃ©vel":5785,"ĠkampÃ¡ny":5786,"Ġalakult":5787,"ĠtÃ¼netei":5788,"Ġcselek":5789,"Ġfegyver":5790,"Ġfognak":5791,"ĠÃ¶nkormÃ¡nyzati":5792,"ĠlezÃ¡r":5793,"Ġanyagok":5794,"ĠhulladÃ©k":5795,"helye":5796,"ĠrÃ©teg":5797,"ah":5798,"ĠkÃ³rhÃ¡z":5799,"ori":5800,"fogyaszt":5801,"ÃŃtÃ¡st":5802,"Ġpolitikus":5803,"ĠfordulÃ³":5804,"ztem":5805,"³rÃ¡k":5806,"Ġkicsi":5807,"Ã©Ã©rt":5808,"vÃ©ve":5809,"Ġfalu":5810,"ĠTÃ¡rsasÃ¡g":5811,"fÃ¼":5812,"vÃ©dÅĳ":5813,"elhu":5814,"Ġutaz":5815,"Ġ90":5816,"Ġelektromos":5817,"Ġeredet":5818,"fut":5819,"Ġkezdve":5820,"ĠfeszÃ":5821,"ĠvÃ¡llalkozÃ³":5822,"Ġesetleges":5823,"29":5824,"ĠbemutatÃ³":5825,"ĠsÃ¼tike":5826,"oha":5827,"emmi":5828,"ĠszÃ¡j":5829,"fordulÃ³":5830,"veszt":5831,"ibb":5832,"Ġhttp":5833,"Ġkapcsolatot":5834,"ered":5835,"ĠhÃ¡trÃ¡ny":5836,"ĠalkalmazÃ¡sÃ":5837,"zon":5838,"ĠKÃĸ":5839,"Ġelhu":5840,"Ġakiknek":5841,"ĠrÃ¡k":5842,"ĠpÃ©lda":5843,"©lye":5844,"tartÃ":5845,"ĠÃ©tter":5846,"Ġmozd":5847,"Ġgyermeke":5848,"ĠsÃ¼tiket":5849,"ĠIlyen":5850,"Ã©rtve":5851,"ĠmeglÃ":5852,"Ġhiszem":5853,"Ġpad":5854,"dÃ©se":5855,"ĠsikerÃ¼l":5856,"szav":5857,"ĠKÃŃ":5858,"ĠiskolÃ":5859,"ĠkedvezmÃ©ny":5860,"amb":5861,"Ny":5862,"Ġgyom":5863,"ĠÃ³rÃ¡t":5864,"ĠfesztivÃ¡l":5865,"tartÃ³":5866,"ÃīK":5867,"Ġkivitele":5868,"ĠMÃº":5869,"ĠÃ©rvÃ©nyes":5870,"Ġfokoz":5871,"Ġfar":5872,"ret":5873,"ĠbeszÃ©lgetÃ©s":5874,"Ġkellemes":5875,"aim":5876,"ĠlÃ©tesÃŃt":5877,"Ġ2008":5878,"pon":5879,"kett":5880,"Ġpal":5881,"Ġegykori":5882,"ezÃ¡ltal":5883,"dÃ¡sÃ¡t":5884,"atlanul":5885,"ziget":5886,"biztosÃŃt":5887,"ekbÅĳl":5888,"ĠkÃ¼lÃ¶nfÃ©le":5889,"Mind":5890,"ĠtudÃ³":5891,"Ġtech":5892,"ĠfogyasztÃ":5893,"hets":5894,"lus":5895,"ĠsajtÃ":5896,"ĠelÅĳzetes":5897,"Ġgra":5898,"ĠfogyasztÃ³":5899,"ĠmesÃ":5900,"Ġpiros":5901,"Ġalko":5902,"sÃ©gnek":5903,"¡kat":5904,"lit":5905,"Ġmegszok":5906,"ĠterÃ¡p":5907,"tus":5908,"mellett":5909,"¡i":5910,"Ġroh":5911,"ĠfeltÃ©tlenÃ¼l":5912,"ĠmegoldÃ¡st":5913,"Ã³rÃ¡k":5914,"able":5915,"lÅĳtt":5916,"ĠÃ©ven":5917,"ĠMilyen":5918,"ĠSch":5919,"Ġmenet":5920,"echn":5921,"ĠfelÃ¼gy":5922,"©csi":5923,"):":5924,"ogÃ":5925,"ĠkÃ¶rnyÃ":5926,"Ġinte":5927,"ĠjÃ¶vÅĳben":5928,"Ġka":5929,"hir":5930,"ĠÃ¡llamp":5931,"fÃ¶l":5932,"Ġadta":5933,"Ġfent":5934,"ĠsajtÃ³":5935,"ĠmÅ±vÃ©sz":5936,"Ġrecept":5937,"Ġ70":5938,"Ġ*":5939,"Ġesetekben":5940,"ulÃ¡t":5941,"aszer":5942,"Ġkur":5943,"ĠverziÃ³":5944,"pi":5945,"Ġdip":5946,"Ġpost":5947,"hetsz":5948,"akrabban":5949,"rÃ¡nd":5950,"ĠmeglÃ¡t":5951,"ĠÃ©letÃ©t":5952,"edÃ©s":5953,"ĠmindÃ¶ssze":5954,"atÃ¡sÃ¡ra":5955,"biztonsÃ¡g":5956,"onnan":5957,"ĠhasznÃ¡ljÃ¡k":5958,"Ġmindennap":5959,"ĠezÃ¡ltal":5960,"TA":5961,"szÃ©r":5962,"ĠNa":5963,"ellett":5964,"Ġnehezen":5965,"ebre":5966,"ĠpÃ©ldÃ":5967,"ords":5968,"zÃŃv":5969,"Ġtol":5970,"ĠvÃ¡sÃ¡rlÃ¡s":5971,"szÃ¡s":5972,"tÅĳben":5973,"Ġszerez":5974,"ĠkÃ¡rt":5975,"ĠtartalmazÃ³":5976,"ĠszÃŃnÃ©sz":5977,"Ġzenei":5978,"Ġjelentette":5979,"ezÃ©st":5980,"adÃ©mi":5981,"ĠPÃ":5982,"hÃ¡lÃ³":5983,"llyel":5984,"ĠhatÃ¡sÃ¡ra":5985,"ĠmÃ©ltÃ":5986,"Ġmenni":5987,"csa":5988,"Ġfeladata":5989,"Ġmu":5990,"ĠmindenkÃ©ppen":5991,"Ã¡sokkal":5992,"ĠkÃŃnai":5993,"Ġvizet":5994,"kr":5995,"ĠprÃ³bÃ¡lt":5996,"Ġmegtud":5997,"Ġpillanat":5998,"sav":5999,"Ã¶v":6000,"kÃ¶zt":6001,"ĠMÃ¡t":6002,"ĠlehetÅĳsÃ©gek":6003,"gu":6004,"ana":6005,"Ġszerkezet":6006,"Ġvalak":6007,"elve":6008,"Ġdolgok":6009,"yÅ±jt":6010,"Ġtegy":6011,"ĠnÃ©ven":6012,"ĠszÅ±r":6013,"belÃ":6014,"maradt":6015,"Ġhip":6016,"Ġbeav":6017,"zek":6018,"Ġugye":6019,"ĠkÃ©rd":6020,"ĠÃ¡s":6021,"oros":6022,"Ġengem":6023,"ĠszÃ¡zalÃ©kkal":6024,"ĠÃ³riÃ¡si":6025,"Ġszar":6026,"jÃ¡":6027,"ĠdÃ":6028,"jal":6029,"format":6030,"Ġszervezetek":6031,"BÃ¡r":6032,"ĠÃºgynevezett":6033,"ĠÃ©lni":6034,"ĠnÅĳtt":6035,"ateg":6036,"Ġfelmer":6037,"35":6038,"ĠerÅĳt":6039,"Ġteremt":6040,"Ġgyeng":6041,"oztÃ¡k":6042,"lege":6043,"kÃ©pzÃ©s":6044,"tÃ¶n":6045,"ĠkÃ©tszer":6046,"Sze":6047,"eleti":6048,"Ġizom":6049,"Ġelter":6050,"umok":6051,"ĠelkÃ©pze":6052,"Ġgaran":6053,"ĠBer":6054,"ĠedzÃ©s":6055,"kelt":6056,"ĠMiÃ©rt":6057,"Ġbony":6058,"pap":6059,"Ġesett":6060,"ĠtalÃ¡lkozÃ³":6061,"fÃ¡":6062,"ĠhasznÃ¡latÃ¡t":6063,"ĠmÃ©ltÃ³":6064,"Ġfak":6065,"Ġkiemelt":6066,"Ġinten":6067,"gyÅ±jt":6068,"Ġhete":6069,"Ã¼lÃ¡llÃ³":6070,"ĠkezÃ":6071,"Ġmegak":6072,"embe":6073,"formÃ¡t":6074,"ogrÃ¡":6075,"kban":6076,"ĠtÃ¶rek":6077,"ĠlÃ©lek":6078,"lÃ©sÃ©t":6079,"lÃ¼k":6080,"ĠMiklÃ³s":6081,"ĠBank":6082,"Ġterh":6083,"ĠbiztosÃŃtja":6084,"film":6085,"szob":6086,"kÃº":6087,"ĠnÃ©zÅĳ":6088,"Ġdolgot":6089,"nÃ¡nak":6090,"ĠnapjÃ¡n":6091,"mÃ©nyei":6092,"©cs":6093,"Ġfajt":6094,"Ġâ":6095,"nÃ¶vÃ©ny":6096,"ĠhozzÃ¡szÃ³":6097,"Ġsosem":6098,"ezÃ©sre":6099,"ĠerekciÃ³":6100,"Ġelhagy":6101,"Ġfur":6102,"omat":6103,"ĠNew":6104,"ĠtanulÃ¡s":6105,"Ġkomb":6106,"ĠâĢ¦":6107,"Ġkifizet":6108,"ĠhÃ©tkÃ¶z":6109,"forrÃ¡s":6110,"Ġmajdnem":6111,"fejt":6112,"Ġmm":6113,"ĠtÃ©rd":6114,"sek":6115,"Ġfelb":6116,"key":6117,"olÃ¡si":6118,"ĠNÃ©p":6119,"ĠnyomÃ¡s":6120,"Ġdolgozni":6121,"gendÅĳ":6122,"ĠszemÃ©lyek":6123,"ĠutasÃŃt":6124,"dott":6125,"Ġvak":6126,"46":6127,"pÃ¡t":6128,"____":6129,"Ġdisz":6130,"ĠÃļr":6131,"ĠeskÃ¼":6132,"dÃ©ki":6133,"OP":6134,"nert":6135,"Ġ-,":6136,"vÃ©telt":6137,"ĠpozÃŃciÃ³":6138,"Ġolv":6139,"Ġfolt":6140,"ĠrÃ©sztvevÅĳ":6141,"zus":6142,"au":6143,"sorozat":6144,"ĠQ":6145,"Ġkezdett":6146,"ĠÃ¼zemelte":6147,"eztet":6148,"Ã¡llÃ¡s":6149,"ĠhiÃ¡ba":6150,"mene":6151,"Ã¡mog":6152,"ĠHÃ¡t":6153,"ĠkissÃ©":6154,"³rÃ¡":6155,"Ġhelyzete":6156,"Ġam":6157,"szÃ¡llÃŃt":6158,"Ġnyitott":6159,"gÃ©":6160,"ĠRend":6161,"link":6162,"fÃ©":6163,"csÃ¶kkent":6164,"helyett":6165,"Ã¶ltÃ¶tt":6166,"ĠÅ±r":6167,"ÃīR":6168,"no":6169,"lkÃ¼l":6170,"Ġbrit":6171,"iÃ¡ny":6172,"yÃº":6173,"Ġelhunyt":6174,"ÃŃthatÃ³":6175,"ĠÃ©vre":6176,"ĠÃ©rtÃ©kesÃŃt":6177,"ĠTermÃ©szetesen":6178,"ĠÃ¡llatok":6179,"Ġgarant":6180,"ĠsegÃŃteni":6181,"ĠAlapÃŃtvÃ¡ny":6182,"ĠkÃ©k":6183,"szemÃ©ly":6184,"ĠkiÃ¡llÃŃtÃ¡s":6185,"asp":6186,"ĠÃ©rzÃ©keny":6187,"ĠTehÃ¡t":6188,"our":6189,"hÃ¡ly":6190,"Ġszoftver":6191,"Ġszi":6192,"ĠmegszÃ¼nte":6193,"inni":6194,"Ġcip":6195,"hessen":6196,"ĠKÃ¡roly":6197,"Sok":6198,"ikon":6199,"KÃ©r":6200,"irÃ¡ny":6201,"ĠkiemelkedÅĳ":6202,"kÃ©pe":6203,"Ġmegvan":6204,"talanul":6205,"ĠkultÃº":6206,"ĠkÃ¶tÅĳ":6207,"ĠgyÃ¡sz":6208,"ĠegymÃ¡ssal":6209,"ĠkÃ³":6210,"kÃ¶dÅĳ":6211,"ĠfelhasznÃ¡l":6212,"nÃ©p":6213,"Ġkezelni":6214,"Ã¡llam":6215,"essziÃ³":6216,"ĠÃ©lett":6217,"ĠcÃ©ljÃ¡bÃ³l":6218,"AS":6219,"asi":6220,"ĠIl":6221,"orok":6222,"kora":6223,"ĠelÅĳsegÃŃt":6224,"Ġfiatalok":6225,"¶lni":6226,"ĠAnt":6227,"azin":6228,"ĠlÃ©treh":6229,"Ġforintot":6230,"ĠgyÅ±":6231,"TT":6232,"ĠifjÃº":6233,"ĠszÃ³lt":6234,"ĠszÃ¡rmaz":6235,"kÃ©k":6236,"ĠÃ¶sszefog":6237,"Ġszeme":6238,"helyzet":6239,"zÃ¡sa":6240,"atva":6241,"ĠBud":6242,"arc":6243,"Ġklub":6244,"Ġhallott":6245,"Ġlevele":6246,"©lem":6247,"Ġadatait":6248,"testÃ¼let":6249,"Ġhangulat":6250,"ĠÃ©vente":6251,"view":6252,"gÅĳ":6253,"ĠtÃ¶bben":6254,"Ġkoz":6255,"ĠJelen":6256,"inkat":6257,"iÃ©t":6258,";/":6259,"ĠtÃ¼k":6260,"ovÃ¡cs":6261,"ĠegysÃ©g":6262,"ĠkÃ©n":6263,"ĠHung":6264,"hatott":6265,"asztikus":6266,"are":6267,"belÃ¼l":6268,"Ġgyakorlati":6269,"Ġkijelent":6270,"Ġasszony":6271,"Ã³rÃ¡":6272,"Ġiskolai":6273,"Ġpu":6274,"ĠkÃ¡vÃ©":6275,"Ġtere":6276,"item":6277,"Ã¡shoz":6278,"Ġreag":6279,"ĠmegnÃ©z":6280,"jÃ¡rt":6281,"ĠKÃ¶nyv":6282,"Ġart":6283,"etÃ©si":6284,"ĠrÃ©szletes":6285,"Ġas":6286,"ĠVilÃ¡g":6287,"ĠettÅĳl":6288,"Å±nÅĳ":6289,"szerte":6290,"ĠmÃ©retÅ±":6291,"âĢ¦]":6292,"Ġinn":6293,"ĠelegendÅĳ":6294,"rag":6295,"ĠÃ©rtelem":6296,"ĠdÃ¶ntÅĳ":6297,"ĠrÃ¡diÃ³":6298,"ĠkÃ¶rben":6299,"ĠkiderÃ¼lt":6300,"ĠinformÃ¡ciÃ³t":6301,"ĠKir":6302,"ĠideÃ¡lis":6303,"ĠsÃŃr":6304,"Ġkaland":6305,"Ġvajon":6306,"Ġinteg":6307,"Ġplusz":6308,"ĠvÃŃrus":6309,"ĠtÃ©ve":6310,"Ġviszonylag":6311,"Ġnaponta":6312,"ĠElsÅĳ":6313,"ĠSzi":6314,"Ġdolgokat":6315,"ĠbÃ¡rki":6316,"Ġhelyette":6317,"ĠvarÃ¡zs":6318,"kÃ¶tÅĳ":6319,"Ġcent":6320,"ĠKer":6321,"ĠkÃ¶zzÃ©t":6322,"fok":6323,"Amikor":6324,"ĠErre":6325,"ĠberendezÃ©s":6326,"Ġdolgozik":6327,"ĠgyÃ¼mÃ¶lcsÃ":6328,"Ã¡zt":6329,"Ġ2021":6330,"ĠvÃ¡rja":6331,"feldolg":6332,"ikÃ¡t":6333,"ubli":6334,"ĠÃĸnnek":6335,"Ġprosztat":6336,"fokÃº":6337,"cepciÃ³":6338,"ĠÃ¡tlagos":6339,"elkÃ¼l":6340,"kÃ³d":6341,"milliÃ³":6342,"ĠmegerÅĳsÃŃt":6343,"anyagok":6344,"ĠOtt":6345,"ĠszÃ¡llÃ¡s":6346,"lop":6347,"ĠMiniszt":6348,"telep":6349,"szett":6350,"ĠbizottsÃ¡g":6351,"perc":6352,"Ezt":6353,"ĠkedvezÅĳ":6354,"Ġhavi":6355,"ĠmunkÃ¡s":6356,"ĠTanÃ¡cs":6357,"jukat":6358,"osszÃº":6359,"szent":6360,"ĠtÃ©szt":6361,"ĠrÃ³":6362,"adta":6363,"kedni":6364,"ĠFi":6365,"atÃ¡sok":6366,"OZ":6367,"th":6368,"ĠszÃ¡zalÃ©kos":6369,"kÃ©pessÃ©g":6370,"ozs":6371,"ĠÃ©letet":6372,"dÃ¡t":6373,"ĠvÃ¡ltozat":6374,"megye":6375,"ĠbennÃ¼nket":6376,"gond":6377,"ĠelkÃ¼l":6378,"TÃ¶bb":6379,"zÃµ":6380,"kÃ¡ny":6381,"viz":6382,"ĠszexuÃ¡lis":6383,"ĠelÃ©rt":6384,"Ġhamarosan":6385,"zÃ¡lÃ³":6386,"ðŁ":6387,"XX":6388,"Ġhelyzetben":6389,"athatÃ³":6390,"2018":6391,"orm":6392,"betegsÃ©g":6393,"ĠhelyszÃŃn":6394,"szinte":6395,"ĠlÃ©trehoz":6396,"true":6397,"nyÅ±":6398,"ĠkÃ©rdez":6399,"mÃ³":6400,"lkÃ©szÃ":6401,"Ġcsok":6402,"ĠBizt":6403,"ĠlÃ¡tja":6404,"teken":6405,"ĠhozzÃ¡jÃ¡rul":6406,"Ġeleg":6407,"ĠkivÃ¡lt":6408,"ĠvilÃ¡gban":6409,"ĠvasÃº":6410,"Ġnappal":6411,"ĠkÃ¶zÃ¶se":6412,"ĠBÃ©l":6413,"38":6414,"Ġfeny":6415,"emlÃ©k":6416,"IV":6417,"adat":6418,"ĠszigorÃº":6419,"dÃ¡n":6420,"Ġkellemetlen":6421,"Ġgyakorlatilag":6422,"ĠszabÃ¡lyok":6423,"ikor":6424,"ĠkÃ¶zÃ¶sen":6425,"Ġfejezet":6426,"ption":6427,"Ġtete":6428,"ĠGer":6429,"Ġref":6430,"ezve":6431,"ĠkommunikÃ¡ciÃ³":6432,"Ġallerg":6433,"aknak":6434,"Ġhu":6435,"Ġkamer":6436,"99":6437,"jÃ¡hoz":6438,"ĠnagyjÃ¡bÃ³l":6439,"IK":6440,"ĠÃīp":6441,"img":6442,"ĠhatÃ¡rozat":6443,"Ġprogramok":6444,"nyire":6445,"ĠmeghatÃ¡rozÃ³":6446,"ĠegyelÅĳre":6447,"Ġlemez":6448,"nde":6449,"Ġthe":6450,"ogÃ³":6451,"ºg":6452,"=\"":6453,"Ġbot":6454,"ĠszeretnÃ©":6455,"ĠbÃ¶lcs":6456,"ary":6457,"Ġkutya":6458,"ĠveszÃ©lyes":6459,"ĠViktor":6460,"ĠszolgÃ¡ltatÃ¡st":6461,"Ġbetart":6462,"ĠviselkedÃ©s":6463,"ĠfinanszÃŃr":6464,"ĠmegvÃ¡sÃ¡r":6465,"ĠsokÃ¡ig":6466,"Ġalkat":6467,"!!!":6468,"haj":6469,"Ġitthon":6470,"Ġelme":6471,"viszony":6472,"Ġahogyan":6473,"Ġbevon":6474,"ror":6475,"Ã¡szati":6476,"ĠVal":6477,"Szere":6478,"ĠtÃ©g":6479,"dtek":6480,"ĠNincs":6481,"ĠszintÅ±":6482,"ita":6483,"fejlesztÃ©si":6484,"Ã¡snak":6485,"Ġbefog":6486,"szÃ¼nk":6487,"eztetÃ©s":6488,"iban":6489,"ĠinterjÃº":6490,"szerek":6491,"Ġegyetemi":6492,"ator":6493,"vÃŃziÃ³":6494,"obot":6495,"ĠgÃ¶r":6496,"Ġmessze":6497,"ĠhÃŃres":6498,"attak":6499,"Ġforrad":6500,"imnÃ¡z":6501,"szÃŃt":6502,"ĠzÃ¡rt":6503,"name":6504,"ĠirÃ¡nti":6505,"Ġfagy":6506,"hÃ³":6507,"ĠkÃ¶nnyed":6508,"edi":6509,"itÃ¡ny":6510,"kÃ¡ban":6511,"ĠsÃ³":6512,"ĠÃ³rÃ¡n":6513,"zeti":6514,"unkon":6515,"ĠrendezÅĳ":6516,"Ġkapu":6517,"esszor":6518,"ĠÃ¼t":6519,"Ġ2000":6520,"ĠtÃ©nyezÅĳ":6521,"ĠszÃ¡zalÃ©ka":6522,"iskola":6523,"mÃ©rt":6524,"lment":6525,"ĠmegakadÃ¡ly":6526,"ĠszemlÃ":6527,"ĠdohÃ¡nyzÃ¡srÃ³l":6528,"ĠhibÃ":6529,"Most":6530,"ĠnormÃ¡lis":6531,"Ġand":6532,"ĠrÃ¶gtÃ¶n":6533,"alit":6534,"ĠÃģr":6535,"huz":6536,"ĠKrisztus":6537,".\",\"":6538,"ĠhasonlÃŃt":6539,"mak":6540,"ĠDebre":6541,"jÃ¡tÃ³l":6542,"Ġgal":6543,"dem":6544,"Ġkerek":6545,"ĠegyÃ©rtelmÅ±e":6546,"ĠegyÃ©rtelmÅ±en":6547,"ĠbÃ¼sz":6548,"jelzÅĳ":6549,"nÃ³":6550,"ĠFontos":6551,"Ġpontja":6552,"rog":6553,"ĠegyesÃ¼let":6554,"Ġhab":6555,"ĠmagÃ¡nak":6556,"cking":6557,"vette":6558,"ĠlÃ¡m":6559,"47":6560,"fÃ©ny":6561,"ĠKon":6562,"ĠnyÃºjtott":6563,"ÃįT":6564,"MÃ©g":6565,"Ġkiszolg":6566,"Ġ35":6567,"ĠbeszÃ¡molÃ³":6568,"Ġkezelt":6569,"ĠeltÅ±":6570,"Ã¡jÃ¡t":6571,"ĠAng":6572,"lÃ©ben":6573,"uj":6574,"ĠhazÃ¡nk":6575,"han":6576,"ef":6577,"Ġ|":6578,"ĠHÃ¡z":6579,"Ġgyenge":6580,"ater":6581,"ĠNyug":6582,"Ġnincsenek":6583,"Ġtalaj":6584,"ĠfÃ¼ggÅĳen":6585,"Van":6586,"ĠszÃŃnes":6587,"Ġlegyenek":6588,"jav":6589,"Ġparazita":6590,"zuk":6591,"ĠmegtalÃ¡lhatÃ³":6592,"ĠfejlÅĳ":6593,"Ġmagunkat":6594,"ĠsegÃŃti":6595,"Ġtavasz":6596,"rÃ¡d":6597,"ĠminÅĳsÃ©g":6598,"kÃ¶t":6599,"ĠHat":6600,"!âĢĿ":6601,"atokkal":6602,"ĠnyilvÃ¡nossÃ¡g":6603,"tÃ¡rg":6604,"rid":6605,"asszony":6606,"ĠSport":6607,"ĠTalÃ¡n":6608,"sÃ¶k":6609,"nit":6610,"Ġ500":6611,"nod":6612,"esszi":6613,"sÃ¡gra":6614,"gatÃ¡si":6615,"ĠMÃºzeum":6616,"Ġ[âĢ¦]":6617,"ĠvÃ¡lasztott":6618,"ĠfoglalkozÃ¡s":6619,"ĠkÃ¶telezettsÃ©g":6620,"pedig":6621,"Ġ000":6622,"ĠminiszterelnÃ¶k":6623,"por":6624,"ras":6625,"ĠszÃŃnpad":6626,"AD":6627,"words":6628,"Ġ197":6629,"Ġkedv":6630,"ĠsebessÃ©g":6631,"ĠkiegÃ©szÃŃtÅĳ":6632,"Ġmegnyit":6633,"hallg":6634,"CI":6635,"Ġwww":6636,"senek":6637,"ĠKÃ©pviselÅĳ":6638,"ene":6639,"zÃ©sre":6640,"tern":6641,"io":6642,"ĠfÅĳvÃ¡ros":6643,"ĠkÃ¶ztÃ¼k":6644,"ĠamÃºgy":6645,"kÃ¡ra":6646,"Ġbusz":6647,"Ġkezel":6648,"ekor":6649,"ĠkÃ¼lÃ¶nbsÃ©g":6650,"ĠÃ©rintÅĳ":6651,"ĠelÅĳkÃ©szÃŃt":6652,"Ġtetszik":6653,"forg":6654,"Ġpiaci":6655,"ĠhÃ¡zt":6656,"ĠvÃ©dek":6657,"kely":6658,"ĠbejÃ¡r":6659,"Ġkora":6660,"ĠformÃ¡jÃ¡ban":6661,"ĠÃ¶sszeÃ¡llÃŃt":6662,"ĠvÃ©kony":6663,"ĠhÃ¡r":6664,"ĠfeszÃ¼lt":6665,"ĠproblÃ©mÃ¡t":6666,"ezhetÅĳ":6667,"tten":6668,"apor":6669,"ĠZsolt":6670,"lÃ©r":6671,"uthor":6672,"ĠkÃ¡rty":6673,"Ġgondolkod":6674,"usi":6675,"367":6676,"kÃ¼lt":6677,"ĠfolytatÃ³":6678,"ĠigÃ©nyel":6679,"ciÃ¡t":6680,"ulÃ¡st":6681,"ĠszÃ³val":6682,"ĠÃ©rtelmÃ":6683,"Ġlegh":6684,"ome":6685,"title":6686,"ĠIgen":6687,"ĠAhogy":6688,"eljes":6689,"Ġ2007":6690,"ĠPÃ¡r":6691,"vart":6692,"Ġamiben":6693,"ĠezÃºttal":6694,"ĠfelhasznÃ¡lÃ¡sÃ":6695,"ĠkÃ©rdÃ©se":6696,"und":6697,"©nk":6698,"ĠSajnos":6699,"Ġimmun":6700,"ĠidÃ©":6701,"ĠilletÅĳ":6702,"Ġital":6703,"ĠszÃ¡munkra":6704,"ellenes":6705,"Ġparancs":6706,"ĠnÃ©zve":6707,"elete":6708,"ĠgazdÃ¡l":6709,"ĠszÃ¼le":6710,"ĠcsinÃ¡lt":6711,"ĠsugÃ¡r":6712,"Ġkonz":6713,"Ġkeny":6714,"ers":6715,"ĠkÃ©relem":6716,"ĠelÅĳÃ¡llÃŃt":6717,"otel":6718,"Ġnapos":6719,"Ġanya":6720,"bÃ©l":6721,"abc":6722,"kapcsol":6723,"ĠmielÅĳtt":6724,"cription":6725,"Ġkilenc":6726,"ategory":6727,"ĠmÃ©gsem":6728,"Ġlegjobban":6729,"Ġ196":6730,"Ġkikapcs":6731,"ania":6732,"jaink":6733,"odat":6734,"ezÃ©si":6735,"ĠmegbÃŃ":6736,"632":6737,"Ġisz":6738,"one":6739,"Ġkomplex":6740,"ĠReg":6741,"logo":6742,"Ġnyugati":6743,"Ġamike":6744,"omba":6745,"ĠfelhasznÃ¡lÃ³k":6746,"ĠÃ¡llap":6747,"lp":6748,"Ġhossz":6749,"szen":6750,"33":6751,"Ġokozott":6752,"ailable":6753,"Ġfelsor":6754,"TovÃ¡bb":6755,"Ġfeles":6756,"!)":6757,"Ġbur":6758,"ladÃ³":6759,"jedt":6760,"mult":6761,"{\"":6762,"ulajdon":6763,"Ġrendelt":6764,"ĠKÃ¶szÃ¶n":6765,"REL":6766,"ĠfelelÅĳssÃ©g":6767,"ĠimmÃ¡r":6768,"¡sÃ¡rÃ³l":6769,"channel":6770,"mÃ©nnyel":6771,"elkÃ©szÃ":6772,"ĠbÃ¡t":6773,"ĠegyÃ¼ttes":6774,"olÃ¡st":6775,"ĠIskola":6776,"ĠEhhez":6777,"atÃ¡sÃ¡val":6778,"Ġakarja":6779,"ĠSzabÃ":6780,"Ġgondoltam":6781,"Ġpik":6782,"ĠtÃ¶kÃ©letesen":6783,"eltÃ©t":6784,"Ã©kÃ©s":6785,"Ġrajon":6786,"Ã¡nÃ¡l":6787,"ĠletÃ¶lt":6788,"Ġembereket":6789,"ĠSzabÃ³":6790,"ĠAZ":6791,"omban":6792,"ĠmÃ©dia":6793,"ĠmÅ±anyag":6794,"ĠhullÃ¡m":6795,"ĠvÃ©letlen":6796,"szÃ¼":6797,"ĠesemÃ©nyek":6798,"ĠmeggyÅĳ":6799,"elment":6800,"Ġeleme":6801,"ĠkÃŃvÃ¡nt":6802,"ĠcÃŃmmel":6803,"Code":6804,"ĠViszont":6805,"ĠWeb":6806,"minc":6807,"ĠÃ³rÃ¡":6808,"Ġmened":6809,"mor":6810,"ĠÃ¡talakÃŃt":6811,"ĠÃ©rzem":6812,"available":6813,"Ã¡sait":6814,"aspx":6815,"Ġokozta":6816,"ĠelkÃ©szÃ":6817,"partnert":6818,"ĠnÃ©l":6819,"agan":6820,"Ġmostan":6821,"cÃ":6822,"tilt":6823,"hason":6824,"ĠerÅĳszak":6825,"Ġkidolg":6826,"terÃ¼let":6827,"ach":6828,"ĠidÅĳjÃ¡r":6829,"³ja":6830,"ĠÃ©trend":6831,"description":6832,"Ġmegjegy":6833,"rot":6834,"short":6835,"ettÃ¼nk":6836,"category":6837,"Lead":6838,"ĠGÃ":6839,"ĠJe":6840,"ĠopciÃ³":6841,"Ã¼nkre":6842,"Ġbetegek":6843,"ĠkiderÃ¼l":6844,"Ġakk":6845,"ĠfutÃ³":6846,"ĠintÃ©zmÃ©nyek":6847,"ĠHal":6848,"Ġhirdet":6849,"ĠÃ³rÃ¡k":6850,"randed":6851,"003":6852,"author":6853,"Ã¡szt":6854,"ozzÃ¡k":6855,"Ġmindez":6856,"ĠkÃ¶zepÃ©n":6857,"ĠalÃ³l":6858,"Ġrez":6859,"gazdasÃ¡g":6860,"Ġnapot":6861,"ĠfÃ©lre":6862,"ÃŃtjÃ¡k":6863,"ĠoktatÃ¡si":6864,"Ġelment":6865,"ĠkorÃ¡ban":6866,"ĠedzÅĳ":6867,"ATED":6868,"Ġsors":6869,"tracking":6870,"lub":6871,"ĠprÃ³":6872,"ĠtartjÃ¡k":6873,"guid":6874,"ĠCse":6875,"Ġmacs":6876,"rajz":6877,"ĠdÃŃjat":6878,"atÃ³ri":6879,"ĠcÃ©gek":6880,"Ã¡zÃ³":6881,"5573":6882,"ĠmaximÃ¡lis":6883,"timest":6884,"timestamp":6885,"keywords":6886,"ĠkÃŃsÃ©rlet":6887,"ffdb":6888,"RELATED":6889,"partnertag":6890,"trackingCode":6891,"isbrandchannel":6892,"partnername":6893,"partnerlogo":6894,"shortLead":6895,"isbranded":6896,"ĠÃ¡llampolgÃ¡r":6897,"orbrand":6898,"isbrandstory":6899,"isbrandcontentorbrand":6900,"isbrandcontentorbrandstory":6901,"ĠDuna":6902,"zÃ¡llÃŃt":6903,"Ġtanfolyam":6904,"ĠÃºtjÃ¡n":6905,"\":\"/":6906,"Ġbaleset":6907,"Ġvisszavon":6908,"Ġalkalmazni":6909,"Å±z":6910,"ĠerÅĳsen":6911,"Ġbes":6912,"ĠÃ¡ru":6913,"ĠszerkesztÅĳ":6914,"lfele":6915,"ĠÃ©letben":6916,"Ġinternetes":6917,"Ġmunkahely":6918,"ĠIS":6919,"000000000000":6920,"krÃ©m":6921,"ock":6922,"izt":6923,"lnevez":6924,"dve":6925,"Ġesik":6926,"emp":6927,"ektor":6928,"ĠÃ©te":6929,"ĠMan":6930,"ÃŃtÃ¡sÃ¡ra":6931,"ĠcÃŃme":6932,"Ġokozhat":6933,"Ġla":6934,"Ġmostani":6935,"ĠgyÃ¼mÃ¶lcs":6936,"Ġembernek":6937,"remÅ±":6938,"Ġlov":6939,"oxid":6940,"sÃ¡gok":6941,"Ã¡llt":6942,"ĠlÃ©pett":6943,"ĠfizetÃ©si":6944,"ĠkellÅĳ":6945,"Ġfoglaltak":6946,"aid":6947,"tatÃ¡s":6948,"Ġszakemberek":6949,"rab":6950,"ĠtÃ¡mogatÃ¡st":6951,"ĠtÃ¶rtÃ©nelem":6952,"ĠÃ¡ron":6953,"ĠmegtÃ¶rtÃ©n":6954,"esebben":6955,"lÃ¡tÃ¡s":6956,"sÃ©geit":6957,"oztam":6958,"¡mÃŃt":6959,"ĠIII":6960,"vÃ¶s":6961,"isztelt":6962,"Ġob":6963,"hÃ¡rom":6964,"Ã¡rg":6965,"erencia":6966,"Ġsikert":6967,"ĠelÃ©rni":6968,"mÃ¡ja":6969,"Ġalkohol":6970,"ĠfÃ¶lÃ¶tt":6971,"Ġvelem":6972,"Ġalb":6973,"ĠszÃŃne":6974,"nÃ©v":6975,"Ġkaptam":6976,"ĠgÃ¡t":6977,"Ġteher":6978,"ĠvallÃ¡s":6979,"Ġszalag":6980,"ĠtÃ©li":6981,"lszÃ¡m":6982,"lÃ³t":6983,"Ġdin":6984,"elnevez":6985,"ĠvilÃ¡gon":6986,"ĠtÃ¡jÃ©koztatÃ¡st":6987,"ĠðŁ":6988,"ĠmÃ³dja":6989,"Ġrugalmas":6990,"dar":6991,"irod":6992,"Ġbont":6993,"Ġamiket":6994,"ĠkezelÅĳ":6995,"©vet":6996,"ĠkÃŃvÃ¡ncsi":6997,"³dik":6998,"Ã³n":6999,"ejt":7000,"vÃ¶":7001,"Ġglob":7002,"ĠÃ¼zenet":7003,"ĠÃ©rkezik":7004,"09":7005,"omÃ¡sÃ":7006,"attam":7007,"ĠalkalmazÃ¡sa":7008,"yÃ¡rt":7009,"mÃ©nyeket":7010,"ign":7011,"IT":7012,"szott":7013,"ĠlÃ¡s":7014,"ĠpÃ©ldÃ¡ny":7015,"alÃ¡zs":7016,"Ġhatalom":7017,"Ġmosoly":7018,"ĠjegyzÅĳ":7019,"NÃ":7020,"hiÃ¡ny":7021,"ĠkiadÃ¡s":7022,"Ġhitt":7023,"ĠkezdÅĳdik":7024,"Er":7025,"ĠvilÃ¡gos":7026,"ĠGazd":7027,"Ãīr":7028,"ĠvÃ¡rak":7029,"oknÃ¡l":7030,"mÃ©ben":7031,"Ã©nÃ©l":7032,"vezÅĳ":7033,"menet":7034,"ĠSp":7035,"llen":7036,"ĠtetÅĳ":7037,"ĠVar":7038,"kezik":7039,"Ã³th":7040,"ĠMihÃ¡ly":7041,"igÃ©ny":7042,"ĠÃ¡llapotban":7043,"Ġ45":7044,"ĠvÃ¡ltozatos":7045,"SZT":7046,"Ġnegyedik":7047,"Ġreggeli":7048,"mutatÃ³":7049,"ĠTele":7050,"Ġhig":7051,"ĠismerÅĳ":7052,"ĠbeszÃ©d":7053,"Milyen":7054,"Ġfelejt":7055,"egnap":7056,"Ġvettem":7057,"Ġhelmint":7058,"Ġelnevez":7059,"ĠszÃ¡llÃŃtÃ¡si":7060,"ĠÃ©rdekel":7061,"Ġszezon":7062,"Ġhum":7063,"nyug":7064,"ĠelÅĳfizet":7065,"Ġmereve":7066,"Ġutat":7067,"legesen":7068,"Ġmeglepe":7069,"ĠfÃ³rum":7070,"Csak":7071,"este":7072,"ĠÃ¡ldoz":7073,"ĠPedig":7074,"oten":7075,"tes":7076,"ipari":7077,"ĠkialakulÃ¡sÃ":7078,"ĠcsinÃ¡lni":7079,"zÃ¡sz":7080,"egyÅ±jt":7081,"Ã©snek":7082,"ĠMed":7083,"ezÅĳk":7084,"Ġrendszert":7085,"ĠhÅĳs":7086,"ĠdÃŃs":7087,"ĠlÃ¡z":7088,"Ãºd":7089,"elfele":7090,"Ġser":7091,"hivatal":7092,"ĠkÃ©pek":7093,"ĠKÃ¶r":7094,"ĠellenÅĳriz":7095,"ileg":7096,"ĠPÃ©n":7097,"ĠKol":7098,"Ġ'":7099,"ĠÃºn":7100,"ĠmennyisÃ©gÅ±":7101,"Ġelveszt":7102,"³zis":7103,"hÃ¡zban":7104,"lÃ¶":7105,"ĠkÃ¶nnyebb":7106,"Ġirodalom":7107,"Ġstressz":7108,"Ã©rtÃ©ke":7109,"ĠÃ©rett":7110,"rÃ¡m":7111,"ĠCar":7112,"lalÃ³":7113,"iskol":7114,"rany":7115,"ĠkÃ©ne":7116,"¼gyminiszt":7117,"zan":7118,"Ġmult":7119,"Ġjelenik":7120,"ĠvÃ¡rosi":7121,"Ġterve":7122,"landÃ³":7123,"ĠszÃ³t":7124,"ĠrendelÃ©s":7125,"ĠEx":7126,"ĠegyensÃºly":7127,"Ġtuds":7128,"Mit":7129,"Ġrang":7130,"Ġolimp":7131,"Ã©vet":7132,"ĠjÃ³vÃ¡":7133,"Ġtudsz":7134,"hettek":7135,"Ġtudatos":7136,"ĠtestvÃ©r":7137,"Or":7138,"eszÃ©ly":7139,"ĠnÃ¶vek":7140,"Ġvezetett":7141,"Ġkapta":7142,"ĠfolyadÃ©k":7143,"ĠemÃ©szt":7144,"ĠvadÃ¡s":7145,"ĠvÃ©gsÅĳ":7146,"ĠProgram":7147,"Ġrosszul":7148,"Ġmindennapi":7149,"Ã©te":7150,"Ġ2006":7151,"ĠÃ©lmÃ©nyt":7152,"ĠpÃ¡rhuz":7153,"¡lis":7154,"ĠTÃ":7155,"ĠidÅĳk":7156,"ĠÃ©rtelmÃ©ben":7157,"ĠVÃ¡r":7158,"noszt":7159,"enc":7160,"ĠmÅ±vÃ©szet":7161,"Ã©lni":7162,"esi":7163,"Ġleng":7164,"opp":7165,"Ġmegalap":7166,"ĠâĢĵ,":7167,"ĠbiztosÃŃtÃ":7168,"ĠlÃ¡tott":7169,"tetÃ©s":7170,"kÃ¡rty":7171,"ĠtÃ©v":7172,"ĠImre":7173,"43":7174,"ĠOl":7175,"ĠpÃ¡lyÃ¡zati":7176,"--------":7177,"ĠbiztosÃŃtani":7178,"kincs":7179,"vÃ¡s":7180,"Ġipari":7181,"Ġaltern":7182,"ĠhatÃ¡rozott":7183,"rÃ³nikus":7184,"Ġutas":7185,"oma":7186,"ini":7187,"oln":7188,"sejt":7189,"Ġkorai":7190,"vitamin":7191,"zsÃ©":7192,"avÃŃrus":7193,"ĠadatvÃ©delmi":7194,"ĠmegbÃŃzhatÃ³":7195,"szÃ¶g":7196,"ĠKirÃ¡ly":7197,"ĠelÃ¡l":7198,"ĠbiztosÃŃtott":7199,"mÃ©ret":7200,"ĠnÃ©pi":7201,"klÃŃ":7202,"Ġtiltak":7203,"sÃ¡gos":7204,"ĠvÃ¡logatott":7205,"amÃ¡n":7206,"aira":7207,"Ġbuk":7208,"dok":7209,"ĠbocsÃ¡t":7210,"jÃ¡rmÅ±":7211,"Ġmegszabad":7212,"ĠkÃ©rdÃ©st":7213,"ĠMÃ¡ria":7214,"ĠlÃ¡tom":7215,"ĠÃ©pÃ¼lt":7216,"iker":7217,"ĠEkkor":7218,"ĠproblÃ©mÃ¡":7219,"ĠTV":7220,"Ġtekintettel":7221,"ĠsÃ©rÃ¼l":7222,"zÃ¡bÃ³l":7223,"Ġforintos":7224,"zÃ¡m":7225,"ÃŃtÃ¡sÃ¡t":7226,"Ġkr":7227,"ĠÃ¡llomÃ¡s":7228,"Ã¼sp":7229,"Ġeljut":7230,"dtem":7231,"ĠÃ©letÃ©ben":7232,"obi":7233,"Ġrov":7234,"ozva":7235,"ĠjÃ¡rvÃ¡ny":7236,"ĠszokÃ¡sos":7237,"Ġmegszokott":7238,"-)":7239,"ĠbekezdÃ©se":7240,"ĠmegvalÃ³s":7241,"age":7242,"OG":7243,"vo":7244,"ĠÃ©rkezÅĳ":7245,"ĠÃ©rtem":7246,"ĠmeglÃ©vÅĳ":7247,"ĠcsalÃ³":7248,"ĠÃ¡llamtit":7249,"ĠminÅĳsÃ¼l":7250,"ĠrÃ©szÃ©n":7251,"lÃ¡rd":7252,"ĠkreatÃŃv":7253,"Ġonnan":7254,"br":7255,"Ġlink":7256,"Ã©ves":7257,"fÃ¶ldÃ¶n":7258,"ĠHorvÃ¡t":7259,"helyen":7260,"Ġmell":7261,"JÃ":7262,"nere":7263,"ĠkerÃ¼ltek":7264,"ĠbejegyzÃ©s":7265,"Ġlep":7266,"kok":7267,"dei":7268,"¶lÃ©s":7269,"ĠidÃ©z":7270,"eret":7271,"Ġtil":7272,"ĠmÅ±kÃ¶dÃ©sÃ©t":7273,"Ġheti":7274,"Ãļj":7275,"ĠVe":7276,"Ġelfele":7277,"lny":7278,"Ġfajta":7279,"Ġdoboz":7280,"ĠreakciÃ³":7281,"ĠTovÃ¡bbi":7282,"Ġvize":7283,"ĠSzeged":7284,"ĠSzeret":7285,"ĠBl":7286,"ĠPro":7287,"Ġmagyarok":7288,"Ġemi":7289,"Ġkapnak":7290,"ann":7291,"ĠAzonban":7292,"ĠfelszÃŃ":7293,"ĠÃ©telek":7294,"ĠszeretnÃ©m":7295,"donsÃ¡g":7296,"piac":7297,"zÃ³k":7298,"ĠbÃŃ":7299,"SÃīG":7300,"eld":7301,"lyes":7302,"ltek":7303,"ĠTh":7304,"âĢ¢":7305,"hÅ±":7306,"knek":7307,"ĠvÃ©gÃ©re":7308,"ĠkÃ©tsÃ©g":7309,"ĠszÃ¡zalÃ":7310,"06":7311,"Ġkg":7312,"emi":7313,"ĠelÃ©gedett":7314,"Ezek":7315,"intÃ":7316,"ĠcsodÃ¡latos":7317,"ĠJog":7318,"ĠÃ©tel":7319,"aiban":7320,"ĠsÅ±rÅ±":7321,"ĠÃŃrni":7322,"Ġvers":7323,"ĠvilÃ¡ghÃ¡borÃº":7324,"Ġlemond":7325,"Ġismerte":7326,"ĠolvashatÃ³":7327,"Ã³ja":7328,"ĠfogjÃ¡k":7329,"ĠbiztosÃŃtÃ³":7330,"ĠNo":7331,"ĠÃ©reztem":7332,"zÃ¡lt":7333,"Ġvitamin":7334,"ĠegysÃ©ges":7335,"ĠsÃ©rt":7336,"ĠInd":7337,"Ġsoroz":7338,"ili":7339,"Ġvigy":7340,"ton":7341,"eszÃ©l":7342,"Ġrendben":7343,"Ġlehetetlen":7344,"ĠVI":7345,"akoribb":7346,"ettÃ¼k":7347,"ĠromÃ¡n":7348,"ĠvilÃ¡got":7349,"vizsgÃ¡l":7350,"ĠklÃŃ":7351,"ĠmÃ¡st":7352,"kodÃ¡si":7353,"Ġmegbeteg":7354,"ĠDÃ©l":7355,"05":7356,"szolgÃ¡ltatÃ¡s":7357,"hasonlÃŃt":7358,"Ġszabadon":7359,"Ġkes":7360,"fr":7361,"ae":7362,"ĠegyenlÅĳ":7363,"bÃ¡zis":7364,"artÃ¡s":7365,"Ġemiatt":7366,"ĠBalÃ¡zs":7367,"Ġmegfelel":7368,"Ġlas":7369,"Ġnapra":7370,"ĠÃ©rzi":7371,"ĠbeavatkozÃ¡s":7372,"ĠBÃ©la":7373,"ĠpÃ¡lya":7374,"ĠtÃ¡l":7375,"Ġkup":7376,"aktÃ©rium":7377,"Ġismeretlen":7378,"AB":7379,"fÃ¡j":7380,"neten":7381,"ĠgÃ³l":7382,"03":7383,"Ã¶se":7384,"ĠugyanÃºgy":7385,"imnÃ¡zium":7386,"Ġtanult":7387,"ight":7388,"Ã©szett":7389,"ĠfeltÃ¶lt":7390,"Ġvalahogy":7391,"nket":7392,"ĠMTI":7393,"ĠHoz":7394,"csomag":7395,"elny":7396,"oci":7397,"ĠmegjelenÅĳ":7398,"ĠelÅĳtte":7399,"ĠGyula":7400,"ozÃ¡sÃ¡ban":7401,"anyar":7402,"zelem":7403,"Ġbirtok":7404,"Ġgyalog":7405,"ikusan":7406,"lovÃ":7407,"ĠIz":7408,"ĠBor":7409,"Ġmaximum":7410,"ĠalapvetÅĳen":7411,"ĠÃ©lnek":7412,"Ġkatonai":7413,"fit":7414,"fer":7415,"ĠValÃ³":7416,"Ġfoglalt":7417,"mir":7418,"ĠÃ¡rny":7419,"dÃ¡ja":7420,"ĠfÃ¼l":7421,"Ã©ket":7422,"ĠszÃ¡mtalan":7423,"¡nÃ¡l":7424,"Ġautomatikusan":7425,"kÃ©ly":7426,"ĠszabÃ¡lyzat":7427,"ĠkÃ¶zremÅ±":7428,"ĠszÃ¼r":7429,"ash":7430,"Ġkimut":7431,"ĠdiÃ©t":7432,"fest":7433,"ĠHon":7434,"©kÃ¡t":7435,"ĠwebÃ¡ruhÃ¡z":7436,"Ġszerelem":7437,"ĠpÃ©nteken":7438,"ĠgenerÃ¡ciÃ³":7439,"ĠÃ¶nkÃ©ntes":7440,"lenek":7441,"Ġkiegyen":7442,"ĠszemÃ©lyesen":7443,"ĠhÅĳmÃ©rsÃ©klet":7444,"ÃŃpus":7445,"jei":7446,"DP":7447,"apsÃ¡g":7448,"iga":7449,"Ġrendszerek":7450,"Ġtri":7451,"ĠszÃŃnÅ±":7452,"ĠtÃ¶bbsÃ©g":7453,"ĠbÃºtor":7454,"lutasÃŃt":7455,"rÃ¡c":7456,"ĠâĢĭ":7457,"magasabb":7458,"lla":7459,"\\\\\\\\\\\\\\\\\\\\\\\\\\\\\\\\\\\\\\\\\\\\\\\\\\\\\\\\\\\\\\\\":7460,"okÃ©rt":7461,"Ã¶sen":7462,"ĠtÃ¡jÃ©k":7463,"ĠrÃ©szÃ©rÅĳl":7464,"latok":7465,"Ġfeletti":7466,"},":7467,"szÃ¡zad":7468,"31":7469,"ĠszÃŃnek":7470,"dÃ©n":7471,"Ġham":7472,"ĠLa":7473,"ogatÃ³":7474,"atunk":7475,"ĠkeresÅĳ":7476,"ĠtÅ±nt":7477,"08":7478,"Ġmagatart":7479,"ĠmegprÃ³bÃ¡l":7480,"Ġszerkeszt":7481,"kinek":7482,"ĠvÃ©get":7483,"bbÅĳl":7484,"ĠÃ©b":7485,"ĠNemzetkÃ¶zi":7486,"Ã¶rtÃ©net":7487,"ĠterÃ©n":7488,"nevel":7489,"sÃŃtott":7490,"ĠmagÃ¡ban":7491,"oktatÃ¡si":7492,"kert":7493,"ĠjÃ©g":7494,"lÃ³k":7495,"ĠmellÃ©klet":7496,"apasztal":7497,"pÃ©nz":7498,"Ã©lÃº":7499,"ĠfÃ©lt":7500,"ĠmunkÃ¡ltatÃ³":7501,"Ġkomment":7502,"Ġna":7503,"kÃ¶l":7504,"Kedves":7505,"ĠhelyreÃ¡llÃŃt":7506,"Ġmegegy":7507,"ĠtÃ¡mogatÃ³":7508,"Ġfogva":7509,"Ġpiacon":7510,"Ġteny":7511,"Ã¼lnek":7512,"shop":7513,"ĠkifejezÃ©s":7514,"ĠÃŃrtam":7515,"kab":7516,"ĠfejlesztÃ©se":7517,"Ma":7518,"Ġhivatkoz":7519,"Ġ300":7520,"Ġmegad":7521,"hÅĳ":7522,"ipar":7523,"ĠtÃ¡plÃ¡lkozÃ¡s":7524,"ĠfÃ©m":7525,"odÃ³":7526,"ĠKovÃ¡cs":7527,"ĠRÃ¡adÃ¡sul":7528,"mok":7529,"Ġszert":7530,"ĠidÅĳre":7531,"ĠegÃ©szÃ":7532,"ĠfelkÃ©szÃ¼l":7533,"ĠÂ»":7534,"ĠidÅĳs":7535,"Ġemellett":7536,"worm":7537,"},{\"":7538,"³rÃ":7539,"ĠOrosz":7540,"Ġmig":7541,"isztikai":7542,"ĠtÃ¡j":7543,"sÃ¡gÃ¡nak":7544,"ĠkÃ¶vetkezik":7545,"ĠbekÃ¶vet":7546,"dence":7547,"ĠbetÅ±":7548,"esti":7549,"39":7550,"ĠmeglepÅĳ":7551,"Ġkarban":7552,"Ġdolgozott":7553,"ĠvÃ©gzÅĳ":7554,"gÃ¶":7555,"ĠMajd":7556,"Ġelny":7557,"ĠlÃ¡togatÃ³k":7558,"Ġalapanyag":7559,"ĠkezdÅĳdÃ¶tt":7560,"kit":7561,"Ġ?":7562,"37":7563,"Ġtudatjuk":7564,"ĠkÃ©nyelmes":7565,"ĠÃ©rtek":7566,"Ġpin":7567,"ĠÃ¡svÃ¡ny":7568,"ÃŃtÃ©si":7569,"ria":7570,"bÃ¡r":7571,"Ġszervezett":7572,"US":7573,"Ġ=":7574,"aszkod":7575,"©kel":7576,"szolgÃ¡l":7577,"ĠTibor":7578,"ĠMond":7579,"MiÃ©rt":7580,"2014":7581,"MagyarorszÃ¡g":7582,"nÃ©d":7583,"AGY":7584,"ĠmutatÃ³":7585,"kÃ¼lÃ":7586,"elutasÃŃt":7587,"lay":7588,"fia":7589,"ĠÃ¡brÃ¡z":7590,"lÃ©ny":7591,"ĠUgyanakkor":7592,"¼st":7593,"Ã©bkÃ©nt":7594,"Ġpo":7595,"emmel":7596,"ĠtÃ¶bbsÃ©ge":7597,"ĠlegalÃ¡bbis":7598,"erÃ¼let":7599,"ree":7600,"ĠÃºtvonal":7601,"ĠAmer":7602,"ĠÃīrt":7603,"ĠkÃ¶rÅ±":7604,"Ġnyere":7605,"ica":7606,"ĠkorszerÅ±":7607,"ood":7608,"ÃŃrÃ¡sÃ":7609,"nÃ¡t":7610,"³ban":7611,"iÃ³k":7612,"alÃ¡s":7613,"nÃ¡llÃ³":7614,"minÅĳ":7615,"elg":7616,"Ġalaposan":7617,"ĠfolyamÃ¡n":7618,"demes":7619,"ĠeszkÃ¶ze":7620,"fogÃ":7621,"ĠadomÃ¡ny":7622,"Ġgyerme":7623,"ĠvÃ¡ll":7624,"Ġinnen":7625,"04":7626,"ĠmerevedÃ©s":7627,"ĠkivÃ©ve":7628,"kÃ¶telezett":7629,"Re":7630,"MI":7631,"Ġprogramot":7632,"dÃ¡ban":7633,"kÃ©nek":7634,"Ġgumi":7635,"ĠhozzÃ¡jÃ¡rulÃ¡s":7636,"fogÃ³":7637,"ota":7638,"ĠnyÃ¡ron":7639,"ÃŃvÃ":7640,"ĠÃ©desany":7641,"Ġleggyakoribb":7642,"ĠkÃ¶zeli":7643,"Ġkimond":7644,"ĠkÃ¼ldÃ¶tt":7645,"ĠvÃ©dett":7646,"ĠkorosztÃ¡ly":7647,"ĠbecsÃ":7648,"tÃ¡rgy":7649,"ĠBen":7650,"ĠvÃ©delem":7651,"kÃ¼lÃ¶nbÃ¶":7652,"ĠtÃ¶bbnyire":7653,"seg":7654,"ĠfigyelmÃ©t":7655,"kÃ¡ja":7656,"ĠLi":7657,"elszÃ¡m":7658,"szÅĳ":7659,"ĠelutasÃŃt":7660,"Ã¡i":7661,"mÃ¡ra":7662,"osta":7663,"ows":7664,"NÃ©":7665,"Mint":7666,"eladÃ³":7667,"denc":7668,"ĠkultÃºra":7669,"Ġmondom":7670,"ĠhatÃ¡sÃº":7671,"szÃ³l":7672,"ztÃ©k":7673,"ĠhÃºsz":7674,"ĠkezdemÃ©nyezÃ©s":7675,"ola":7676,"Ġkomolyan":7677,"car":7678,"ĠkÃ¶rÃ¼lbelÃ¼l":7679,"Ġtekintve":7680,"vÃ¡ltÃ¡s":7681,"intÃ©":7682,"ĠnemrÃ©g":7683,"ĠtÃ¼nte":7684,"Ġprofi":7685,"lÃº":7686,"Ġakad":7687,"oldali":7688,"atra":7689,"Ġharminc":7690,"kednek":7691,"izÃ¡":7692,"mand":7693,"ĠfÃ©lÃ":7694,"ĠHu":7695,"ĠInter":7696,"07":7697,"Ġboly":7698,"Ġhozta":7699,"ĠrendkÃŃvÃ¼li":7700,"ĠlÃ¡n":7701,"ĠritkÃ¡n":7702,"199":7703,"ĠsÃ©rÃ¼lÃ©s":7704,"ĠÃ©jsza":7705,"ĠszÃ¡nt":7706,"Ġsaj":7707,"ÃīP":7708,"edd":7709,"ĠfejlesztÃ©s":7710,"ĠleÃŃrt":7711,"ikum":7712,"Itt":7713,"Ġvall":7714,"Ġszerepelt":7715,"ĠÃ¶sszefÃ¼ggÅĳ":7716,"inÃ¡ciÃ³":7717,"cÃŃm":7718,"Ġweboldalon":7719,"Ġszik":7720,"Ġvoltunk":7721,"Ġvonatkozik":7722,"Ġtavalyi":7723,"Ġhajl":7724,"sÃŃti":7725,"ĠJobb":7726,"inÃ":7727,"zetet":7728,"kezÃ©si":7729,"ĠjÃ¡tszik":7730,"ĠfeltÃ¼nte":7731,"Ġmegkeres":7732,"polgÃ¡r":7733,"ĠmikÃ©nt":7734,"ĠhelyszÃŃnen":7735,"div":7736,"Ġosz":7737,"ovi":7738,"ĠhasznÃ¡latÃ¡val":7739,"ĠÃ©vfordulÃ³":7740,"Ã¡zni":7741,"Ġkifog":7742,"ĠmÃ©h":7743,"ozÃ¡sok":7744,"Ġhozza":7745,"Ġfizetni":7746,"Ġrab":7747,"Ġlegmagasabb":7748,"Ã³rÃ":7749,"bÃ³":7750,"ein":7751,"ĠalkotÃ":7752,"oid":7753,"Ġfelel":7754,"Ġamint":7755,"ĠkÃ¶szÃ¶nt":7756,"ĠÃģg":7757,"ĠhozzÃ¡nk":7758,"Ġinformat":7759,"ĠalkotÃ³":7760,"Mivel":7761,"Ġfelir":7762,"Ġspanyol":7763,"Å°":7764,"Ġmegterem":7765,"ĠmunkaerÅĳ":7766,"meneti":7767,"ĠkÃ¶rbe":7768,"takar":7769,"ĠPolgÃ¡r":7770,"kisebb":7771,"elten":7772,"NK":7773,"ĠmunkÃ¡jÃ¡t":7774,"Ã¶kÃ¶n":7775,"lia":7776,"ĠalapÃŃtÃ³":7777,"Ġmunkanap":7778,"dÃ©ke":7779,"Ġpikkely":7780,"ernyÅĳ":7781,"ĠkivÃ¡lasztott":7782,"ger":7783,"ĠtalÃ¡lni":7784,"vebben":7785,"ĠkÃ¶zelebb":7786,"Ġagg":7787,"ĠminimÃ¡lis":7788,"Ġost":7789,"Ġkiv":7790,"ĠÃºjsÃ¡gÃŃrÃ³":7791,"ĠsÃ¼t":7792,"ĠvisszÃ©r":7793,"kkel":7794,"kig":7795,"Ġkatolikus":7796,"ĠtÃ¼dÅĳ":7797,"ĠszeretnÃ©l":7798,"Ġmelyeket":7799,"ĠinformÃ¡ciÃ³s":7800,"Ã©szsÃ©gÃ¼gyi":7801,"ĠrÃ¡juk":7802,"ĠUt":7803,"Ã¼lni":7804,"ĠÃ¡llomÃ¡ny":7805,"csit":7806,"lismert":7807,"ĠfÃ¼ggÅĳ":7808,"ĠszÃŃnhÃ¡z":7809,"agyulladÃ¡s":7810,"szeres":7811,"ilk":7812,"tÃŃv":7813,"Ġadnak":7814,"ĠLÃ¡t":7815,"ÃŃtva":7816,"vÃ¡ndor":7817,"ĠdiÃ¡kok":7818,"Ã»":7819,"ĠfÅĳkÃ©nt":7820,"gyÃ¡rt":7821,"krÃ³nikus":7822,"ĠtÃ¡madÃ¡s":7823,"Ġprot":7824,"ĠmindenfÃ©le":7825,"ĠÃŃrÃ¡sban":7826,"ĠegyedÃ¼lÃ¡llÃ³":7827,"ich":7828,"tartÃ¡s":7829,"ĠalapÃº":7830,"Ġenergi":7831,"Ġkattintva":7832,"almÃ¡t":7833,"ĠigazgatÃ³ja":7834,"ĠkerÃ©kpÃ¡r":7835,"szter":7836,"ĠrÃ³z":7837,"ĠFran":7838,"ĠtÃ©ren":7839,"ĠkitÃ¶lt":7840,"ĠbeÃ©p":7841,"ĠrÃ¡t":7842,"ilt":7843,"ĠszÃ¼letÃ©s":7844,"Ġfolyamatok":7845,"lon":7846,"Ġamellyel":7847,"ĠkÃ¶zelÃ©ben":7848,"Ġcit":7849,"ĠpÃ©ntek":7850,"Ġmegfizet":7851,"ĠtudomÃ¡s":7852,"ĠvÃ¡lsÃ¡g":7853,"ival":7854,"ĠformÃ¡t":7855,"itor":7856,"Ã©seit":7857,"ĠÃ¶nmagÃ¡ban":7858,"ĠAg":7859,"Ġmegcs":7860,"ely":7861,"ĠszemÃ©lyre":7862,"ĠÃ©vet":7863,"ĠelkÃ©pzel":7864,"ĠtÃ¶bbÃ":7865,"ĠKut":7866,"ĠtestÃ¼let":7867,"ĠhajlandÃ³":7868,"Ġcsep":7869,"Budapest":7870,"felÃ¼let":7871,"42":7872,"olult":7873,"ĠmellÃ©khat":7874,"ĠKat":7875,"ĠtÃ¶bbÃ©":7876,"ĠJoh":7877,"Ġmozog":7878,"Tud":7879,"zsÃ©bet":7880,"2013":7881,"41":7882,"Ġjavasolt":7883,"ĠkrÃ³nikus":7884,"ĠSh":7885,"ĠKap":7886,"Ġtekintet":7887,"Ġelemek":7888,"Ġtetszett":7889,"oy":7890,"Ġtar":7891,"ĠmÃ¡sfÃ©l":7892,"ĠtechnolÃ³gia":7893,"illap":7894,"elismert":7895,"ulÃ¡l":7896,"Ġtrans":7897,"ĠkielÃ©g":7898,"ĠszÃ¡mukra":7899,"kak":7900,"Ġfokozott":7901,"ĠelsÅĳd":7902,"ĠkÃ¶rÃ¼li":7903,"Ġdipl":7904,"Ġdes":7905,"letes":7906,"egyetem":7907,"ĠmÃ¡srÃ©szt":7908,"lÃºt":7909,"fertÅĳ":7910,"ĠtermÃ©keket":7911,"ĠEurÃ³pÃ¡ban":7912,"ĠeredmÃ©nyek":7913,"ĠEmellett":7914,"ĠtÃ¡mogatja":7915,"oktatÃ¡s":7916,"ĠDi":7917,"Ġemail":7918,"Ġcuk":7919,"Ġvicc":7920,"vÃ¡z":7921,"Ġsziv":7922,"ossuth":7923,"vÃ©telek":7924,"AZ":7925,"Ġoldalt":7926,"arch":7927,"hen":7928,"elp":7929,"korÃº":7930,"lemÃ©ny":7931,"asd":7932,"¶bben":7933,"ĠÃ¡ttekint":7934,"ĠelszÃ¡m":7935,"beszer":7936,"ĠbaktÃ©rium":7937,"ĠAzÃ©rt":7938,"ĠÃ©vad":7939,"ĠMSZ":7940,"ĠmÃ¡g":7941,"eszÃ¼nk":7942,"ĠÃ©rtelme":7943,"Ġleszok":7944,"ĠkirÃ¡nd":7945,"ĠNekem":7946,"ĠÃºjdonsÃ¡g":7947,"zÃ©ki":7948,"ĠÃģm":7949,"ĠkÃ¶rnyezetben":7950,"ĠkiadvÃ¡ny":7951,"tiszt":7952,"Ġlegy":7953,"fÃ¡jÃ¡s":7954,"Ġkezdte":7955,"zavar":7956,"cselek":7957,"ĠfoglalkozÃ³":7958,"itek":7959,"ĠalapulÃ³":7960,"ĠellenÅĳrzÃ©s":7961,"Ġegyike":7962,"Ġvillamos":7963,"kÃ¡ciÃ³":7964,"ldÃ¶nt":7965,"Ġennyire":7966,"Ġkamat":7967,"jÃ¡rÃ":7968,"ĠszemlÃ©let":7969,"nÃ¶v":7970,"ĠglobÃ¡lis":7971,"ĠcÃŃmet":7972,"¡rÃ³l":7973,"hÃ¡za":7974,"ĠmegÃ¡llapod":7975,"Ġelengedhetetlen":7976,"ĠAt":7977,"ĠindÃŃt":7978,"ĠdÃŃszÃŃt":7979,"ukban":7980,"ĠSÅĳt":7981,"ozÃ¡sÃ¡ra":7982,"ĠkoronavÃŃrus":7983,"ĠSzÃ¶vetsÃ©g":7984,"ĠruhÃ":7985,"Ġgondolat":7986,"ovjet":7987,"ĠvÃ¡rosban":7988,"formÃ¡tus":7989,"ĠfÃ©rg":7990,"ĠkÃ©pzÅĳ":7991,"ĠszakkÃ©p":7992,"mese":7993,"Ġalacsonyabb":7994,"ĠrÃ©sztvevÅĳk":7995,"Ġszeretem":7996,"vezetÃ©s":7997,"Ġeltelt":7998,"ĠlegutÃ³":7999,"intÃ©z":8000,"eldÃ¶nt":8001,"Ġkaptak":8002,"ĠszÃ³rakozt":8003,"ĠÃ¼lt":8004,"ĠtÃ¶rÃ¶k":8005,"alkal":8006,"ĠTart":8007,"ĠlehetÅĳsÃ©geket":8008,"ĠcsÃ¶kkenti":8009,"ĠegyetÃ©rt":8010,"ĠanÃ©lkÃ¼l":8011,"lÃ¡tÃ":8012,"Ġokos":8013,"Ġkonflik":8014,"asszal":8015,"âĢĶ":8016,"lÃ¡b":8017,"ara":8018,"Ġkapcsolatok":8019,"Ġpubli":8020,"szebb":8021,"odra":8022,"itis":8023,"osÃŃtÃ¡s":8024,"Ġelfogadja":8025,"Ġkeresni":8026,"ĠlÃ©trejÃ¶tt":8027,"hetÅĳek":8028,"ĠidÅĳsebb":8029,"ĠindÃŃtott":8030,"beszÃ©l":8031,"ĠvÃ©letlenÃ¼l":8032,"ĠkÃ¶nyve":8033,"ĠezutÃ¡n":8034,"Ġadatot":8035,"ĠeldÃ¶nt":8036,"Ġmeccs":8037,"mp":8038,"mÃ¡bÃ³l":8039,"ĠÃ©letÃ©nek":8040,"ĠfelajÃ¡n":8041,"Ġfoglalkozik":8042,"mÃ©rÅĳ":8043,"ĠBudapesti":8044,"csalÃ¡d":8045,"Ġteste":8046,"ĠCsaba":8047,"lyenek":8048,"ĠkaphatÃ³":8049,"Ġpoten":8050,"zis":8051,"lÃ¡tÃ³":8052,"Ġszabott":8053,"ĠvÃ©ve":8054,"ncsÃ":8055,"Ã¡ltÃ¡k":8056,"Ġmechan":8057,"ĠfÅĳszerep":8058,"bbÃ":8059,"Ġmikr":8060,"Ġch":8061,"ĠmÃºzeum":8062,"Ġvacs":8063,"ĠdrÃ¡ga":8064,"esse":8065,"Ġszek":8066,"telenÃ¼l":8067,"ismere":8068,"ĠHely":8069,"ĠsegÃŃtÅĳ":8070,"Ã¼ltek":8071,"ĠmeghÃŃv":8072,"¡lÃ¡sa":8073,"dÃŃjas":8074,"Ġrendelkeznek":8075,"ĠÃ©letre":8076,"rÃ©mi":8077,"dÃŃ":8078,"ĠtÃ¡g":8079,"out":8080,"terjeszt":8081,"Ġszombaton":8082,"Ġmodelle":8083,"Ġpartnere":8084,"ĠbeszÃ©lni":8085,"ĠÃ¶sszehasonlÃŃt":8086,"ĠelÃµ":8087,"Ġmelyben":8088,"Ãįg":8089,"asznÃ¡l":8090,"ester":8091,"nya":8092,"ĠÃ©rtÃ©kes":8093,"sÃ¶mÃ¶r":8094,"uzs":8095,"Ġno":8096,"ĠszÃ¡lloda":8097,"eink":8098,"Ġelp":8099,"jÃ©tÅĳl":8100,"ĠkoncepciÃ³":8101,"Ġdom":8102,"ĠrÃ³mai":8103,"ĠÃ©szle":8104,"ĠhÃ©":8105,"Ġsorban":8106,"oter":8107,"Ġjelez":8108,"ĠSzÃ³val":8109,"ĠajtÃ":8110,"ĠhalÃ¡":8111,"75":8112,"adik":8113,"enged":8114,"ĠÃ¼r":8115,"¶p":8116,"02":8117,"ĠindulÃ³":8118,"Ġfia":8119,"we":8120,"amer":8121,"isza":8122,"ĠszÃ¡mÃ¡t":8123,"kereszt":8124,"ĠFej":8125,"Ġterjeszt":8126,"hÃŃr":8127,"ĠTÃ¡rs":8128,"ĠszÃ¶r":8129,"avi":8130,"Al":8131,"ĠvÃ¡sÃ¡rol":8132,"ĠkÃ©rdÃ©sek":8133,"KÃ¶szÃ¶n":8134,"avas":8135,"kÃ¶tÃ©s":8136,"kri":8137,"ĠhÃ¡tsÃ³":8138,"Ġ!":8139,"Ġnemi":8140,"ĠiskolÃ¡k":8141,"Ġfontosabb":8142,"ĠnÃ©lkÃ¼lÃ":8143,"kÃŃsÃ©r":8144,"vÃ©nek":8145,"ĠhÃºz":8146,"aza":8147,"ĠkilomÃ©ter":8148,"Ġkorszak":8149,"Ġtesti":8150,"idebb":8151,"Ġmegye":8152,"ĠeladÃ³":8153,"Ġrokon":8154,"Ġszag":8155,"ciÃ³s":8156,"¡f":8157,"ĠmeglepetÃ©s":8158,"uni":8159,"ĠÃ¶ltÃ":8160,"Ġelismert":8161,"ĠvezetÅĳi":8162,"2012":8163,"bolt":8164,"szolÃºt":8165,"dÃ¡s":8166,"oe":8167,"ĠkiadÃ³":8168,"ĠÃ¶ltÃ¶":8169,"ĠforrÃ¡sok":8170,"Ġugy":8171,"2015":8172,"ĠgyÃ¡r":8173,"Ġnapokban":8174,"LET":8175,"alommal":8176,"ĠlegtÃ":8177,"ĠkÃ¡p":8178,"Ġ195":8179,"ĠkÃ©zzel":8180,"vite":8181,"cskemÃ©t":8182,"udit":8183,"Ġkivon":8184,"ille":8185,"ĠbÃºcsÃº":8186,"ĠelÅĳÃŃrt":8187,"Ġpri":8188,"ĠnÃ©gyzet":8189,"ellige":8190,"Ġprog":8191,"zanak":8192,"Ġfran":8193,"ĠfizetÃ©s":8194,"ĠalkalmÃ¡val":8195,"ĠAnna":8196,"Ġiro":8197,"tori":8198,"ĠÃ©jszaka":8199,"Fel":8200,"csere":8201,"ĠvizsgÃ¡latok":8202,"ĠfelÃ¼lete":8203,"Ġbizonytalan":8204,"Ġfogalmaz":8205,"Ġtize":8206,"Ġkialakult":8207,"ĠrendelkezÃ©sÃ©re":8208,"Ġdur":8209,"ĠkrÃ©m":8210,"Ġpercig":8211,"ĠkÃ¶ltÃ":8212,"ĠorszÃ¡gok":8213,"Ġszop":8214,"ĠvilÃ¡gbajnok":8215,"ĠÃ©rtelemben":8216,"ĠKormÃ¡ny":8217,"ĠelÅĳnye":8218,"Ġpihen":8219,"ĠdÃ¡t":8220,"rendel":8221,"ĠbezÃ¡r":8222,"ĠIdÅĳ":8223,"ttÅĳl":8224,"Ã¡lasz":8225,"ĠforrÃ³":8226,"arkas":8227,"rajzi":8228,"Ġnar":8229,"ĠnyelvÅ±":8230,"zin":8231,"astÃ©ly":8232,"ĠirÃ¡nyulÃ³":8233,"Ãįgy":8234,"ĠkÃ¶ltÃ¶":8235,"lÃ¡sÃ¡ra":8236,"lÃµ":8237,"ĠvonatkozÃ³an":8238,"ĠmentÃ©n":8239,"Ġminimum":8240,"Ġ36":8241,"ĠtÃ¶rzs":8242,"ĠÃŃtÃ©let":8243,"ĠÃ¡rak":8244,"Ġalapja":8245,"Leg":8246,"ĠkÃ¶ltsÃ©gvetÃ©si":8247,"Ġmak":8248,"rier":8249,"ĠEur":8250,"Ġszoba":8251,"Ġbu":8252,"irÅĳl":8253,"ĠgÃ¶rÃ¶g":8254,"Ã¡szat":8255,"Ġakike":8256,"autÃ³":8257,"ĠazonosÃŃtÃ":8258,"elÃ©se":8259,"Ġinterneten":8260,"ĠazonosÃŃtÃ³":8261,"alitÃ¡s":8262,"ĠPÃ©ldÃ¡ul":8263,"ĠÃ³rÃ¡s":8264,"ĠnagyszerÅ±":8265,"ĠszakÃ©rtÅĳ":8266,"ĠsÃ¼ti":8267,"Ġkapac":8268,"itu":8269,"pÃ¡rt":8270,"Hoz":8271,"kond":8272,"ĠhÃ¡tra":8273,"inÃ©l":8274,"adtÃ¡k":8275,"TV":8276,"kezelÃ©si":8277,"ĠhelyÃ©t":8278,"ÃŃrÃ³sÃ¡g":8279,"ĠÃ¡tlÃ¡t":8280,"elni":8281,"eltÃ©k":8282,"ĠPh":8283,"ĠKossuth":8284,"ĠterhessÃ©g":8285,"ĠTÃ³th":8286,"ĠmaradÃ©k":8287,"ĠbÃ¶rt":8288,"ĠjapÃ¡n":8289,"Mag":8290,"Ġhorg":8291,"lekedÃ©s":8292,"vely":8293,"ekbe":8294,"ĠrÃ©szvÃ©ny":8295,"ceni":8296,"Ġplat":8297,"ĠFil":8298,"rÃ¡lÃ³":8299,"ĠsÃ¼tÅĳ":8300,"ĠnyilvÃ¡nos":8301,"Ġtrend":8302,"ĠversenyzÅĳ":8303,"ĠÃ¼gye":8304,"ĠhiÃ¡nyÃ¡ban":8305,"ĠkÃ¶nyvet":8306,"ĠvÃ¡ltozÃ³":8307,"Ġhitele":8308,"Ã¡kkal":8309,"idejÅ±":8310,"ĠcsÅĳ":8311,"ellel":8312,"Is":8313,"lakÃ":8314,"adics":8315,"ĠSzÃŃnhÃ¡z":8316,"Ġbonyolult":8317,"ĠelÃ©ggÃ©":8318,"ĠkiszÃ":8319,"ĠbeÃ©r":8320,"ĠIlyenkor":8321,"fÃ¼rdÅĳ":8322,"czi":8323,"ĠAuszt":8324,"Ġklin":8325,"ĠrÃ©ge":8326,"eztek":8327,"Kis":8328,"ĠvÃ¡rt":8329,"vevÅĳ":8330,"olcs":8331,"kv":8332,"mia":8333,"ĠKeres":8334,"ĠhatÃ¡st":8335,"Ġhormon":8336,"ĠmÃ¡ra":8337,"ºton":8338,"ĠkutatÃ³k":8339,"ĠÃ³rÃ":8340,"ĠNor":8341,"ĠgyanÃº":8342,"burg":8343,"ĠÅĳszi":8344,"ĠszÃ¼net":8345,"Ġod":8346,"Ġgyomor":8347,"Ġmor":8348,"eztetett":8349,"Ġutcai":8350,"ĠrÃ©gen":8351,"Ġri":8352,"ĠRÃ©sz":8353,"©vÃ©":8354,"emat":8355,"ĠegyrÃ©szt":8356,"ĠrÃ¡nk":8357,"ĠcÃ©lra":8358,"onal":8359,"Ġkocsi":8360,"Ġnyers":8361,"ÃģNY":8362,"asztrÃ³":8363,"ĠâĢĻ":8364,"ĠhÃ¡":8365,"kegye":8366,"hetÅĳsen":8367,"ĠhibÃ¡t":8368,"ĠvÃ©gÃ©ig":8369,"dtÃ©k":8370,"ĠÃ¶sszetevÅĳ":8371,"ĠrendÅĳrsÃ©g":8372,"zunk":8373,"ĠtanulÃ³k":8374,"fen":8375,"lep":8376,"©vÃ©ben":8377,"Ġorr":8378,"For":8379,"Ġlegkisebb":8380,"alÃ³g":8381,"........":8382,"ĠUSA":8383,"Ã©sekor":8384,"kÃ©ny":8385,"KÃ©t":8386,"ĠellÃ¡tott":8387,"uss":8388,"ĠkislÃ¡ny":8389,"Ã©vÃ©ben":8390,"Ġnyelven":8391,"ĠIg":8392,"Ġprofil":8393,"ezÃ©sÃ©t":8394,"Ġkaps":8395,"jÃ¡rÃ³":8396,"Ġelg":8397,"Ġakiket":8398,"ĠpÃ¡p":8399,"harc":8400,"usÃ¡ban":8401,"ettÃ":8402,"ĠajtÃ³":8403,"bol":8404,"ĠmagÃ¡val":8405,"vitel":8406,"Ġbecs":8407,"Ã¶rÃ¶k":8408,"Ġrosszabb":8409,"Ġkapsz":8410,"Ġmegol":8411,"mÅ±vÃ©szeti":8412,"ĠHÃŃr":8413,"ĠNÃ©hÃ¡ny":8414,"oll":8415,"eztem":8416,"ĠtermÃ©szeti":8417,"ĠtÃ¡jÃ©koztatÃ¡s":8418,"ĠtalÃ¡lkozt":8419,"atkozt":8420,"Ġforgalma":8421,"Ã¡la":8422,"Ġbelv":8423,"lang":8424,"ĠerkÃ¶l":8425,"Ġtransz":8426,"AV":8427,"ĠpolgÃ¡ri":8428,"ĠVis":8429,"ĠSzerintem":8430,"ĠmegoldÃ¡sok":8431,"Ġvalamelyik":8432,"ĠkÃ¶zigaz":8433,"lass":8434,"ĠEzutÃ¡n":8435,"Ġlettek":8436,"ĠbÃ¡tor":8437,"Ġgaz":8438,"JÃ³":8439,"Ġforma":8440,"ure":8441,"ĠfÃ¡z":8442,"aje":8443,"ĠmegkÃ¶nny":8444,"ĠjÃ¶vedelem":8445,"ĠsegÃŃtenek":8446,"ĠÃ¡llÃ¡spont":8447,"ĠErzsÃ©bet":8448,"ĠfelesÃ©g":8449,"kocsi":8450,"bizony":8451,"erenci":8452,"ĠlegfÅĳbb":8453,"atin":8454,"Ġvitt":8455,"ĠjÃ¶nnek":8456,"ĠbiztosÃŃtÃ¡sa":8457,"kli":8458,"ĠalkotmÃ¡ny":8459,"ĠnÃ©zni":8460,"ĠhelyÃ©n":8461,"ĠpÃ¡rhuzam":8462,"ĠgyÃ¶ker":8463,"88":8464,"viteli":8465,"Ġbennem":8466,"Ġritka":8467,"asztott":8468,"Ġ150":8469,"Ġfeje":8470,"ĠÃºgyhogy":8471,"ĠhatÃ³sÃ¡gi":8472,"ssze":8473,"Ġmindenkit":8474,"Ġfeladatokat":8475,"indows":8476,"ĠolvasÃ¡s":8477,"VÃ©g":8478,"berg":8479,"ĠkÃ¶vetkezmÃ©nye":8480,"ĠtechnikÃ":8481,"ĠnyilvÃ¡nvalÃ³":8482,"Ã¶ngy":8483,"ĠtÃ¡plÃ¡":8484,"Ġstrand":8485,"ĠtalÃ¡ltam":8486,"ĠkÃ¶rnyÃ©kÃ©n":8487,"Ġcsele":8488,"UL":8489,"100":8490,"zÃ©ssel":8491,"rump":8492,"Ġlennie":8493,"IX":8494,"ĠkÃ¶nnyedÃ©n":8495,"ĠkÃ©":8496,"ĠalkalmazhatÃ³":8497,"ĠKÃ¶zÃ©p":8498,"Ġgon":8499,"Ã¶l":8500,"sÃŃtÃ©se":8501,"rÃ©ny":8502,"etni":8503,"nÃ¡lÃ³":8504,"Ġfenyege":8505,"ĠeskÃ¼vÅĳ":8506,"ĠosztrÃ¡k":8507,"ĠhasznÃ¡lunk":8508,"oldalÃº":8509,"ĠdÃŃsz":8510,"Ġszervek":8511,"ĠtanÃ©v":8512,"aktÃŃv":8513,"Ġlelkes":8514,"Ġ2005":8515,"ĠtelevÃŃziÃ³":8516,"szÃ¡mÃŃt":8517,"ĠÃ©neke":8518,"ĠKÃĸZ":8519,"ĠfelelÅĳssÃ©get":8520,"ĠÃŃtÃ":8521,"360":8522,"ĠÃ©pÃŃtÅĳ":8523,"Ġtapasztalat":8524,"ĠlÃ¡tta":8525,"ĠMindez":8526,"ÃģM":8527,"mÃ©re":8528,"ÃīSZ":8529,"Ġdiagnoszt":8530,"adÃ¡si":8531,"pali":8532,"veszÃ©ly":8533,"ĠÃ¶k":8534,"RE":8535,"Ġdagan":8536,"eztÃ¼k":8537,"ĠraktÃ¡r":8538,"Ġimp":8539,"Ġbejegy":8540,"2016":8541,"kosz":8542,"ĠerÅĳsebb":8543,"gazdÃ¡l":8544,"Ġbefizet":8545,"Ġamelyik":8546,"¶dik":8547,"mg":8548,"zag":8549,"ĠtÃ¡rsas":8550,"onÃ":8551,"eker":8552,"ĠhatÃ¡sÃ¡t":8553,"ĠRÃ³":8554,"Ġparlamenti":8555,"ĠmenekÃ¼lt":8556,"ĠÃ©rzelmi":8557,"beszÃ©d":8558,"Ġhiteles":8559,"ĠÃ©k":8560,"erceg":8561,"rad":8562,"ĠismertÃ©k":8563,"ĠmÃ©reg":8564,"ĠvÃ©gezni":8565,"ĠidÅĳtartama":8566,"strukciÃ³":8567,"ĠleÃ¡ny":8568,"assÃ¡k":8569,"ĠhÃ©tfÅĳn":8570,"ĠfÃ©rj":8571,"ĠAkadÃ©mi":8572,"vin":8573,"ĠVÃ©gÃ¼l":8574,"©lte":8575,"ĠkÃ©szÃŃteni":8576,"Ġintellige":8577,"zta":8578,"ĠtemetÅĳben":8579,"ÃºdiÃ³":8580,"zÃŃ":8581,"Ġgyull":8582,"ĠÃ¼tem":8583,"volt":8584,"Ġfelesleges":8585,"ĠvÃ©lemÃ©nye":8586,"Ã¼lÃ¶k":8587,"helyek":8588,"ĠeredetÅ±":8589,"hette":8590,"Ġobjekt":8591,"ĠszÅĳlÅĳ":8592,"ĠlegnÃ©p":8593,"Ġlegszebb":8594,"ĠkÃ¶szÃ¶nÃ¶m":8595,"ĠÃ¼res":8596,"ĠcÃ©lt":8597,"prof":8598,"ĠeredmÃ©nyt":8599,"akÃº":8600,"ÃīNY":8601,"Ġjelentkezik":8602,"hit":8603,"ĠÃĸnt":8604,"ĠmÃ¡sodperc":8605,"ĠÃ©vfolyam":8606,"nyezet":8607,"ĠtÃ¡von":8608,"Ġpontot":8609,"Ġbo":8610,"ĠkÃ©rni":8611,"2017":8612,"Ġmegnevez":8613,"Ã©sÃ©rÅĳl":8614,"Ġmondott":8615,"Ġveszte":8616,"ĠfelszÃŃn":8617,"ĠhÃ¡ztart":8618,"Ġmindegyik":8619,"Ġegybe":8620,"ĠokÃ":8621,"67":8622,"ĠtÃ¡blÃ¡z":8623,"Ġelhelyez":8624,"µl":8625,"SÃģG":8626,"Ġba":8627,"ĠdÃ©li":8628,"Ġtrag":8629,"ĠfogyÃ¡s":8630,"ĠgondolkodÃ¡s":8631,"to":8632,"ĠarÃ¡nya":8633,"Ġkedden":8634,"sÃ©gen":8635,"Ġant":8636,"llent":8637,"ĠGu":8638,"Ã©lelÅĳtt":8639,"Ġ2004":8640,"Ã¶dik":8641,"ĠmÃ¡ris":8642,"ĠLu":8643,"ĠÃ©rtÃ©kelÃ©s":8644,"kettÅĳ":8645,"Ġextra":8646,"masz":8647,"valÃ³k":8648,"Ã¶rtÃ©neti":8649,"Ġakartam":8650,"Ã¶rÃ¶s":8651,"gÃ¡t":8652,"ĠfÃ³k":8653,"Ġszocial":8654,"ĠtagÃ¡llam":8655,"erte":8656,"ĠfeltÃ¡r":8657,"ĠelÅĳl":8658,"pÃ¡d":8659,"ĠhatÃ¡lyos":8660,"ĠkockÃ¡zat":8661,"rac":8662,"Ġmenny":8663,"ĠvÃ¡ltozik":8664,"ĠhÅ±tÅĳ":8665,"¼lÅĳ":8666,"Ġtartanak":8667,"ĠhÃ¡tter":8668,"Ġszur":8669,"ĠelkÃ©szÃ¼lt":8670,"ĠtÃ©rkÃ©p":8671,"Szeret":8672,"ĠrendelkezÃ©s":8673,"med":8674,"2010":8675,"ĠezÃ¼st":8676,"MÃ¡s":8677,"Ġilleti":8678,"Ġy":8679,"jam":8680,"Ã¼kben":8681,"ĠÃ¶sszhang":8682,"Ġtop":8683,"ley":8684,"ĠmegkÃ©rd":8685,"ĠYork":8686,"gar":8687,"ĠfertÅĳzÃ¶tt":8688,"ĠkiprÃ³bÃ¡l":8689,"Ġcsaknem":8690,"ml":8691,"ĠgyÃ¼le":8692,"lovÃ¡k":8693,"Ġkapni":8694,"ĠbelÃ¼li":8695,"Ġgombra":8696,"ĠvÃ©n":8697,"nyilvÃ¡n":8698,"korban":8699,"ĠXX":8700,"ĠbÅĳrÃ":8701,"Ġlakos":8702,"politikai":8703,"ĠnormÃ¡l":8704,"85":8705,"ĠkÃ¶zÃ©r":8706,"ĠhajÃ":8707,"Ġporc":8708,"34":8709,"Ġgraf":8710,"ĠsokfÃ©le":8711,"zene":8712,"ĠPa":8713,"ĠÃ©vszÃ¡zad":8714,"Ġzuh":8715,"Ġkeleti":8716,"ĠrÃ©gÃ³ta":8717,"ĠâĢ¢":8718,"ĠmezÅĳgazdasÃ¡gi":8719,"ĠtÃ©mÃ¡k":8720,"ĠszÃŃvvel":8721,"Ã¡ram":8722,"ikÃ¡ban":8723,"ÃŃtÃ©sÃ©t":8724,"ĠregisztrÃ¡lt":8725,"Ġodafig":8726,"ĠoktatÃ³":8727,"ĠhiÃ¡nya":8728,"2020":8729,"ĠlÃ©tszÃ¡m":8730,"Ġfejlett":8731,"Adat":8732,"Ġgerinc":8733,"ulÃ¡si":8734,"zÃ©sen":8735,"ĠazutÃ¡n":8736,"umulÃ¡t":8737,"milyen":8738,"Ġakarnak":8739,"ĠGyermek":8740,"obban":8741,"ĠFogy":8742,"alizmus":8743,"Ġrendezett":8744,"ĠkialakÃŃtÃ¡sa":8745,"ĠegyidejÅ±":8746,"ĠvÃ©telÃ":8747,"Ġmegfigye":8748,"ĠsegÃ©d":8749,"Ġugyanolyan":8750,"))":8751,"ĠszerdÃ¡n":8752,"ĠbÃ¶rtÃ¶n":8753,"hatom":8754,"ĠmeglehetÅĳsen":8755,"Ġnyugodtan":8756,"ĠkÃ¶zlemÃ©ny":8757,"TAT":8758,"ĠprodukciÃ³":8759,"Ġlabor":8760,"Ġrej":8761,"ttÃ³":8762,"ĠKult":8763,"forrÃ¡sok":8764,"ĠszemÃ©lyisÃ©g":8765,"artÃ":8766,"Ġanyagot":8767,"Ã¡llomÃ¡s":8768,"ezzÃ¼k":8769,"EGY":8770,"ĠtevÃ©kenysÃ©get":8771,"ĠfÃ¡radt":8772,"Ġkontrol":8773,"Ġmegte":8774,"ĠpÃ¼sp":8775,"ĠbetÃ¶lt":8776,"ĠhallgatÃ³k":8777,"mÅ±vÃ©sz":8778,"Ġamelyen":8779,"Ġpara":8780,"ĠbeszÃ©lget":8781,"ĠkÃ¶nnyebben":8782,"ĠSzÃ©":8783,"eztetÅĳ":8784,"VIII":8785,"tatott":8786,"ĠkommunikÃ¡ciÃ³s":8787,"ĠFog":8788,"Ġfogok":8789,"ĠkortÃ¡rs":8790,"Ġlegend":8791,"Ġtelt":8792,"ĠgyÅĳzt":8793,"ĠegymÃ¡stÃ³l":8794,"Ġhozni":8795,"cset":8796,"ipt":8797,"unka":8798,"Ġpol":8799,"elent":8800,"IA":8801,"Ġkegye":8802,"Ġteli":8803,"ĠvÃŃzzel":8804,"Ġkisg":8805,"ĠMo":8806,"ĠkÃŃvÃ¼li":8807,"ĠÃ¡ldozat":8808,"ĠIV":8809,"Ġszt":8810,"tÃ¶r":8811,"erÅĳs":8812,"ĠEzeket":8813,"essÃ©gÃ©ben":8814,"Ġrobot":8815,"ĠÃīlet":8816,"aut":8817,"ĠsajtÃ³t":8818,"©bb":8819,"Ġolvasni":8820,"ĠmÅ±vÃ©szeti":8821,"eirÅĳl":8822,"Ġvizsga":8823,"ĠfejlesztÃ©si":8824,"ec":8825,"ĠgyÃ³gynÃ¶vÃ©ny":8826,"ĠAL":8827,"ĠhasznosÃŃt":8828,"ĠKÃ¶zt":8829,"Ġjelzi":8830,"kÃ©sÅĳbb":8831,"Ġjoga":8832,"ĠvizsgÃ":8833,"vÃ¡j":8834,"Ġesete":8835,"ĠfÃ¡jdalommal":8836,"ĠhibÃ¡s":8837,"pat":8838,"Ġismeri":8839,"ĠGal":8840,"ĠArany":8841,"kun":8842,"ĠkÃ©zbe":8843,"ĠÃºti":8844,"ionÃ¡lis":8845,"nebb":8846,"mekkora":8847,"lav":8848,"menÅĳ":8849,"ĠÃ©pÃ¼l":8850,"Ġhihetetlen":8851,"icit":8852,"Ġbaba":8853,"rÃ¡r":8854,"eivel":8855,"ĠIP":8856,"ement":8857,"uszon":8858,"ĠMinde":8859,"Ġblok":8860,"Ġszombat":8861,"Ġdup":8862,"arak":8863,"Ġebbe":8864,"Ezen":8865,"ĠkÃ¶zlekedÃ©si":8866,"Ġpop":8867,"kas":8868,"fÃ¡jd":8869,"ĠÃ©les":8870,"vÃ©re":8871,"kodott":8872,"kamar":8873,"ĠjÃ³tÃ©kony":8874,"Ġtipp":8875,"ĠÃ©ri":8876,"ĠtÃ¶rlÃ©s":8877,"pressziÃ³":8878,"ĠVolt":8879,"Ã©tel":8880,"ĠVÃ":8881,"ĠÃ¡gaz":8882,"sÃ³k":8883,"ĠJa":8884,"Kor":8885,"Ġkisgy":8886,"ĠbizonyÃŃtÃ©k":8887,"ĠelÅĳfordulhat":8888,"ham":8889,"Ġfogalmazott":8890,"mÃ©teres":8891,"Ãļg":8892,"Ġiste":8893,"Ġkocs":8894,"ÃīL":8895,"ĠcsÃ¼tÃ¶rtÃ¶kÃ¶n":8896,"Ġnet":8897,"Ã¡sba":8898,"Ãļgy":8899,"ĠilletÃ©kes":8900,"Ġmini":8901,"kÃ¡val":8902,"Ġszokott":8903,"ĠmÃ©rete":8904,"lad":8905,"Ġszimp":8906,"ĠKÃ¶zÃ¶s":8907,"Ġmegtiszt":8908,"ĠÃŃze":8909,"2011":8910,"sziget":8911,"ĠparkolÃ³":8912,"szerk":8913,"ĠprosztatagyulladÃ¡s":8914,"ĠfelÅĳ":8915,"ĠGyÃ³gy":8916,"Ġszel":8917,"ĠSzabad":8918,"ĠszerzÅĳdÃ©st":8919,"ĠmegÃ¡llapodÃ¡s":8920,"ĠÃ©rtÃ©kÅ±":8921,"95":8922,"ĠfÃ¼st":8923,"Ġakarok":8924,"Ġzajlik":8925,"ĠtÃ³":8926,"ĠlegkÃ¶ze":8927,"ĠkosÃ¡r":8928,"ĠvÃ¡llalkozÃ¡sok":8929,"aidÅĳ":8930,"ĠszÃ¡":8931,"gely":8932,"Ã¡ltam":8933,"ĠHer":8934,"artÃ³":8935,"ller":8936,"kastÃ©ly":8937,"ĠbefolyÃ¡solja":8938,"keresÅĳ":8939,"fÃ©rgek":8940,"Ġfilmet":8941,"ĠtulajdonkÃ©ppen":8942,"Ġlend":8943,"ĠApp":8944,"Dr":8945,"Ġokok":8946,"ĠgyÅĳzel":8947,"ĠTest":8948,"berÃ¡lis":8949,"ĠPl":8950,"ĠÃ¡llÃŃtja":8951,"hÃ©t":8952,"eleket":8953,"Ġamilyen":8954,"Ã©ret":8955,"Ġnyak":8956,"ĠmagÃ¡ra":8957,"ĠjÃ³vÃ¡hagy":8958,"ĠkettÅĳs":8959,"ĠszÃº":8960,"Ġmindezt":8961,"Ġdivat":8962,"Ġvil":8963,"ĠOs":8964,"ĠkÃ¶ltsÃ©gek":8965,"Ġnincse":8966,"ĠellentÃ©tben":8967,"ezd":8968,"ĠCS":8969,"Ġvettek":8970,"ĠpedagÃ³gus":8971,"ĠnevÃ©ben":8972,"vost":8973,"ĠCo":8974,"ĠMikor":8975,"forgal":8976,"ĠpÃ¡ci":8977,"Ġcsapata":8978,"ĠVÃ¡sÃ¡r":8979,"ĠkÃ¶zele":8980,"Ġtervek":8981,"ĠabszolÃºt":8982,"Ġnincsen":8983,"Ġkiterjed":8984,"Ġesti":8985,"Ġpillanatban":8986,"Ġviszket":8987,"ĠÃ¶sszeget":8988,"AG":8989,"ĠEbbÅĳl":8990,"ĠCent":8991,"ĠÃ¡tmeneti":8992,"Ġaj":8993,"ĠAp":8994,"Ġotthoni":8995,"mÃºlt":8996,"Ġmegjelenik":8997,"trukt":8998,"ĠElÅĳszÃ¶r":8999,"Ġkedve":9000,"opron":9001,"Ġcsoda":9002,"ĠzÃ¡rÃ":9003,"Ã¡bban":9004,"Ġegyfajta":9005,"onyolÃŃt":9006,"ĠvendÃ©gek":9007,"ĠkÃ©sÅĳ":9008,"ĠzÃ¡rÃ³":9009,"nyÃ":9010,"ĠszabÃ¡lyozÃ¡s":9011,"Ġfogunk":9012,"Ġmegsemmi":9013,"ĠmÃ©rkÅĳzÃ©s":9014,"ĠtÃ¡vÃº":9015,"ĠFrancia":9016,"mÅ±ves":9017,"ĠðŁĻ":9018,"Ġadatainak":9019,"ÃīT":9020,"ĠtÃ¡mogatott":9021,"Ġvere":9022,"Ġtartom":9023,"ĠellÃ¡tÃ¡s":9024,"Ġjogviszony":9025,"ĠfilozÃ³":9026,"kÃ¶rÃ":9027,"ĠcigÃ¡ny":9028,"zÃ¡ssal":9029,"ĠlegyÅĳ":9030,"kek":9031,"dÃŃjat":9032,"Ġtartoznak":9033,"ĠtisztÃ¡ban":9034,"gyÃ":9035,"git":9036,"ĠkerÃ¼lÅĳ":9037,"ĠkezelhetÅĳ":9038,"vÃ¡ltozÃ¡s":9039,"mÃ©nyen":9040,"ĠalkatrÃ©sz":9041,"ÃģT":9042,"ĠtÃ¡jÃ©kozÃ³d":9043,"ĠkibocsÃ¡t":9044,"ajel":9045,"ĠtrÃ©n":9046,"Ã¶rÃ¶":9047,"ÃŃtÃ¡sra":9048,"ĠkilÃ©p":9049,"Ġ32":9050,"kra":9051,"Ġcsapatok":9052,"if":9053,"ĠÃºtmutatÃ³":9054,"ĠbÅĳven":9055,"ĠIN":9056,"ogat":9057,"ans":9058,"ĠmÅ±kÃ¶dte":9059,"seb":9060,"ĠÅĳsi":9061,"Ġleh":9062,"Ġkli":9063,"ĠmÃ©rg":9064,"ĠMon":9065,"Ġliszt":9066,"Ġsikere":9067,"Ġmese":9068,"ĠelsÅĳdleges":9069,"ĠkÃº":9070,"ltem":9071,"Ġnappali":9072,"IL":9073,"ĠlegnÃ©pszerÅ±bb":9074,"ĠEmber":9075,"feszÃŃt":9076,"szÃ¡mÃº":9077,"sereg":9078,"lab":9079,"Ġtra":9080,"Ġmand":9081,"ĠtartomÃ¡ny":9082,"ĠdiplomÃ":9083,"sport":9084,"Ġvirt":9085,"ĠlevÅĳ":9086,"ĠEgyhÃ¡z":9087,"Ġeredetileg":9088,"Ami":9089,"Ġtudat":9090,"Ġfordult":9091,"Ġstrukt":9092,"hÃŃ":9093,"Ġtitok":9094,"ĠvÃ¡rjÃ¡k":9095,"Ġszeretettel":9096,"ĠVas":9097,"olog":9098,"ĠelÅĳadÃ³":9099,"ĠtÃ¡plÃ¡lÃ©k":9100,"ĠkÃ¶szÃ¶":9101,"Ġesetek":9102,"ĠvidÃ¡m":9103,"Ã©pÃŃtÃ©s":9104,"ĠbeleÃ©rtve":9105,"esÃ©":9106,"ĠÃ©rtÃ©kel":9107,"ĠÃ©nekes":9108,"ĠMSZP":9109,"ĠÃ©rinti":9110,"ĠfÅ±tÃ©s":9111,"ĠsÃ¼r":9112,"ĠhonlapjÃ¡n":9113,"munka":9114,"Ġvalahol":9115,"Ġelfogadott":9116,"Ġdeb":9117,"Ã©srÅĳl":9118,"Ġtelefonon":9119,"ĠpÃ¡lyÃ¡n":9120,"Ġhajn":9121,"dekes":9122,"ĠkarÃ¡csonyi":9123,"Ġton":9124,"ĠAm":9125,"ĠalapÃŃtvÃ¡ny":9126,"¡sÃ¡t":9127,"ĠÃ¶sszek":9128,"ĠenergiÃ¡t":9129,"Ġher":9130,"olhat":9131,"Ġbeker":9132,"86":9133,"ĠhÃŃd":9134,"jÃ©rÅĳl":9135,"ĠhasznÃ¡ljuk":9136,"Ġhonlapon":9137,"ĠszÃ©lsÅĳ":9138,"¶nkormÃ¡ny":9139,"iÃ¡kat":9140,"Ã©tek":9141,"Ġmindenkor":9142,"nter":9143,"olf":9144,"ĠvÃ¡lasztani":9145,"inter":9146,"Ġlengyel":9147,"Ġfekt":9148,"Ã¶nkormÃ¡ny":9149,"ĠKom":9150,"ĠmÅ±kÃ¶dÃ©si":9151,"ĠmesÃ©l":9152,"Ġelfelejt":9153,"Ġmegind":9154,"xt":9155,"ĠszabvÃ¡ny":9156,"ĠmondjÃ¡k":9157,"ĠeszkÃ¶zt":9158,"Ã©dia":9159,"bo":9160,"ĠSzÃ©p":9161,"Ġkincs":9162,"Ġellenk":9163,"lÃ¡ris":9164,"EurÃ³p":9165,"Ġlo":9166,"ness":9167,"Ġismeretek":9168,"harmad":9169,"ĠKÃ¡l":9170,"ĠÃ©rdeklÅĳ":9171,"ĠkutatÃ¡si":9172,"Åĳknek":9173,"ĠszerencsÃ©re":9174,"Szi":9175,"Ġtegnap":9176,"Ġmegnyug":9177,"ane":9178,"Ã©gy":9179,"ezent":9180,"Ġszereti":9181,"mestere":9182,"ĠjelentkezÅĳ":9183,"adnak":9184,"ĠÃ¼gyben":9185,"ĠpÃ³":9186,"szabadsÃ¡g":9187,"vizsgÃ¡lat":9188,"ĠkÃ¶rnyezeti":9189,"Ġeleget":9190,"Ġszapor":9191,"ĠilletÅĳen":9192,"ĠMÅ±v":9193,"Ġ2003":9194,"anna":9195,"ĠhangsÃºlyozta":9196,"atÃ¡hoz":9197,"ĠdÃ¶ntÃ©st":9198,"onc":9199,"becsÃ":9200,"ĠvÃ¡ltozott":9201,"Ġdug":9202,"krÃ©":9203,"lu":9204,"lÃ¡val":9205,"Per":9206,"ĠTelj":9207,"ĠakkumulÃ¡t":9208,"Ġakkori":9209,"ĠnyÃŃlik":9210,"ĠKatal":9211,"ĠÃ¶nkormÃ¡ny":9212,"ĠMad":9213,"EF":9214,"END":9215,"ozzuk":9216,"ĠEs":9217,"Ġkapunk":9218,"ĠnÃ¡lam":9219,"ĠadatbÃ¡zis":9220,"kalÃ³":9221,"Ġfolytatott":9222,"Ġszerelm":9223,"ĠdÃ©lelÅĳtt":9224,"Ġav":9225,"Ġzavart":9226,"rep":9227,"elep":9228,"Ã¡sos":9229,"ĠÃĸnkormÃ¡nyzata":9230,"âĢĿ-":9231,"St":9232,"ĠÃ¡llamtitkÃ¡r":9233,"zky":9234,"ĠfekvÅĳ":9235,"Ġhelyzetet":9236,"ĠkÃ©pze":9237,"terem":9238,"ĠFoly":9239,"izni":9240,"ĠjÃ¡tszani":9241,"ĠemlÃ©ke":9242,"olÃ¡sÃ¡ra":9243,"lnÃ¶":9244,"Ġmagazin":9245,"ĠlÅĳ":9246,"ĠHorvÃ¡th":9247,"okrÃ¡":9248,"Ennek":9249,"Ġfejt":9250,"ĠIr":9251,"nemÅ±":9252,"Ġezeknek":9253,"Ġult":9254,"okratikus":9255,"ĠhÃ©tvÃ©gÃ©n":9256,"89":9257,"fo":9258,"Ã¼t":9259,"ĠremÃ©l":9260,"Ã¡lunk":9261,"udomÃ¡nyi":9262,"Ġnyomon":9263,"essÃ©ggel":9264,"olÃ¡sÃ¡t":9265,"Ġkollek":9266,"ivÃ":9267,"ĠmÃ©rtÃ":9268,"kedelem":9269,"In":9270,"ÃŃtik":9271,"ĠVannak":9272,"Ġox":9273,"ĠkÃ©rdÃ©sre":9274,"ube":9275,"lhatÃ¡r":9276,"Ġpas":9277,"zom":9278,"ĠjelensÃ©g":9279,"ĠszerettÃ©k":9280,"ĠbÅ±ncselek":9281,"ĠinnovÃ":9282,"Ġhis":9283,"einek":9284,"Ġveszik":9285,"ĠgÃ³":9286,");":9287,"Ġpak":9288,"ĠeljÃ¡rÃ¡st":9289,"ball":9290,"ĠcÃŃmre":9291,"ĠjÃ¡tÃ©kok":9292,"ncsÃ©re":9293,"Ġkab":9294,"ĠkÃ¶re":9295,"rastrukt":9296,"Igen":9297,"umban":9298,"ĠszomorÃº":9299,"Ġleggyakrabban":9300,"Ã¡soknak":9301,"ĠpikkelysÃ¶mÃ¶r":9302,"ĠðŁĻĤ":9303,"¡szÃ¡r":9304,"Ġfokozatosan":9305,"szÃ³t":9306,"ĠvÃ¡lasztÃ":9307,"ĠmunkavÃ©g":9308,"ĠkijelzÅĳ":9309,"AC":9310,"rÃ¡ciÃ³s":9311,"list":9312,"ĠutÃ³lag":9313,"usa":9314,"Ġszemmel":9315,"ĠpÃ¡l":9316,"hÃ¡rt":9317,"ĠÃŃrÃ¡sbeli":9318,"ĠnÃ¶veli":9319,"ĠlÃ©nyege":9320,"EU":9321,"ĠhÃ³napban":9322,"ĠamiÃ©rt":9323,"ĠTÃ¶rvÃ©ny":9324,"ĠelemzÃ©s":9325,"ĠelÅĳfordul":9326,"ĠtÃ¼krÃ¶":9327,"ams":9328,"odnak":9329,"Ġkonzult":9330,"ĠkÃ¶rÃ¼lÃ":9331,"Ġaktivit":9332,"mÃ©lyes":9333,"ĠkÃ©relm":9334,"ĠirÃ¡nyba":9335,"ĠsajÃ¡tos":9336,"Ġhelyezett":9337,"iszta":9338,"ĠÃģdÃ¡m":9339,"lolvas":9340,"ĠjelÃ¶l":9341,"ljesÃŃt":9342,"vÃ©telÃ©t":9343,"olv":9344,"ĠkivÃ©telÃ©vel":9345,"Ġkorban":9346,"Ġmegem":9347,"Ġfelfog":9348,"ĠvilÃ¡gszerte":9349,"ztek":9350,"ĠÂ§-":9351,"kanyar":9352,"mentesen":9353,"Ġdolgoznak":9354,"ĠadÃ³s":9355,"esÃ©lye":9356,"ĠsportolÃ³":9357,"ĠSza":9358,"Ġik":9359,"Ġ1000":9360,"ĠFÃ©r":9361,"kÃ¡lt":9362,"ĠgÃ©pjÃ¡rmÅ±":9363,"intÃ©zet":9364,"76":9365,"Ġkihagy":9366,"isztikus":9367,"ĠBM":9368,"ĠvÃ¡rhatÃ³an":9369,"ĠtÃºlzott":9370,"Ġfelek":9371,"telensÃ©g":9372,"jogi":9373,"Ġvalaha":9374,"ĠelveszÃŃt":9375,"¶le":9376,"ĠfÅĳs":9377,"KÃ¶z":9378,"ĠterÃ¼letek":9379,"ĠtÃ©rsÃ©g":9380,"ĠesÃ©lye":9381,"Ġvesznek":9382,"Ġ2001":9383,"ĠeredmÃ©nyeket":9384,"Ġhagyja":9385,"hÃ¶g":9386,"Ġilyes":9387,"pÃ¡lya":9388,"ĠdrÃ¡m":9389,"Ã¡ltak":9390,"abilit":9391,"Ġszil":9392,"ĠMiskol":9393,"ĠilletÃ©k":9394,"Ġokai":9395,"vÃ¡gy":9396,"ĠÃ¼zemeltetÅĳ":9397,"ĠGY":9398,"Ġmindannyi":9399,"Ġmegismert":9400,"Ġnyitva":9401,"ĠfÃ©k":9402,"ĠpÃ©nztÃ¡r":9403,"ogatott":9404,"riai":9405,"ĠszÃ¡mlÃ¡":9406,"fÃ³l":9407,"ĠGergely":9408,"ĠPi":9409,"ĠkalÃ³":9410,"ĠcÃŃmen":9411,"Ġrendszerben":9412,"Ġelfoglal":9413,"ekedett":9414,"gÃ¡":9415,"tovÃ¡bb":9416,"Ã¡lisan":9417,"©lÃ¼nk":9418,"ĠelkÃ©pzelÃ©s":9419,"Ġolvastam":9420,"mÃ©l":9421,"Ġkozmet":9422,"Ġelpuszt":9423,"miszer":9424,"Ġirodalmi":9425,"EV":9426,"ĠmegsÃ©rt":9427,"ĠszÃ¶g":9428,"ĠtÃ¡mogatÃ¡si":9429,"Ġfeled":9430,"angÃ©l":9431,"unknak":9432,"atÃ¡sra":9433,"alis":9434,"Ġpinworm":9435,"ĠhozzÃ¡szÃ³lÃ¡s":9436,"ĠaggÃ":9437,"ĠlÃ¡ng":9438,"ÃīN":9439,"ĠcsÃŃpÅĳ":9440,"ĠegyÃ©n":9441,"ĠEN":9442,"hirdetÃ©s":9443,"ĠtÃ©nyezÅĳk":9444,"assuk":9445,"esnek":9446,"©ki":9447,"ĠkereskedÅĳ":9448,"vissza":9449,"tikus":9450,"emre":9451,"ĠmÃ³dszerek":9452,"ĠbÃ¡tran":9453,"ĠAdatvÃ©delmi":9454,"ĠsimÃ¡n":9455,"nÃ¡ban":9456,"ĠhatÃ³anyag":9457,"ĠnyomÃ¡n":9458,"ĠÃ©rthetÅĳ":9459,"ĠnÃ¶vÃ©nyi":9460,"Ġelve":9461,"elhatÃ¡r":9462,"ĠvÃ¡z":9463,"lÃ¡nc":9464,"ĠszÃ¡zadban":9465,"ÃŃtÃ©st":9466,"ĠvÃ©delme":9467,"hÃ¡zt":9468,"ÃŃgy":9469,"szÃ¡zs":9470,"esett":9471,"Ġszoci":9472,"szava":9473,"Ġfilmek":9474,"Ġminta":9475,"tÃ¡b":9476,"ĠÃ©rhetÅĳ":9477,"terv":9478,"ĠmegjelenÃ©se":9479,"Ã¡son":9480,"OD":9481,"Ġjogot":9482,"ĠlÃ¡nc":9483,"kÃ³p":9484,"Ġfogom":9485,"ĠÃ©vÃ©ben":9486,"ÃģZ":9487,"ezÅĳdÃ©s":9488,"ĠhÃ©tkÃ¶znap":9489,"¼lÃ¶tt":9490,"sÃŃtÃ":9491,"ĠvÃ¡ltozÃ¡sok":9492,"Ugyan":9493,"atÃ¡sÃ¡nak":9494,"ino":9495,"ĠcsomÃ³":9496,"ĠtelefonszÃ¡m":9497,"lÅĳdÃ©si":9498,"lÃ¡ra":9499,"tani":9500,"Ġfelszerelt":9501,"lyal":9502,"ĠbÃ¼ntetÅĳ":9503,"ĠÃ¶rÃ¶mmel":9504,"ĠesztÃ©t":9505,"egener":9506,"ĠsrÃ¡c":9507,"Ġnyilatkozat":9508,"Ġsima":9509,"miszerint":9510,"ĠArt":9511,"ÃŃtÃ©sÃ©re":9512,"Ġmegbeteged":9513,"ĠGi":9514,"Ġtavaszi":9515,"tanÃ¡cs":9516,"Ġokozza":9517,"Ġgyar":9518,"Ġkoord":9519,"ĠAD":9520,"Ġalud":9521,"Ġ400":9522,"Ġbeval":9523,"nnel":9524,"udi":9525,"ĠsÃ¡rga":9526,"¡ly":9527,"ĠveszÃŃt":9528,"96":9529,"ĠlÃ©pcsÅĳ":9530,"Ġkapcsolatba":9531,"Ġtartotta":9532,"TK":9533,"ĠÃ©szaki":9534,"oka":9535,"hÃ©j":9536,"ĠelhatÃ¡r":9537,"Ã¡ciÃ³t":9538,"ĠszÃ¡mla":9539,"!!!!":9540,"zul":9541,"ĠcsÃ¡szÃ¡r":9542,"Ġfurcsa":9543,"Ġdar":9544,"leten":9545,"nyelv":9546,"odni":9547,"lemez":9548,"Ġterror":9549,"ĠvÃ¡lassz":9550,"Ġkiind":9551,"ĠtÃ¡panyag":9552,"ĠkutyÃ¡k":9553,"ĠkÃ¶ltÅĳ":9554,"Ġjogok":9555,"ĠKÃ©rjÃ¼k":9556,"ĠtanÃŃt":9557,"ĠÃ¼gyintÃ©":9558,"Ġszerencs":9559,"Ġmozdul":9560,"ĠDebrecen":9561,"Ġimmunrendszer":9562,"ĠlÃ¡gy":9563,"forma":9564,"mÃ¼":9565,"orit":9566,"Ġszervezete":9567,"ose":9568,"ĠnyÃº":9569,"usÃ¡t":9570,"ĠkÃ©re":9571,"ĠlÃ¡tvÃ¡nyos":9572,"ĠPark":9573,"Ã¡nc":9574,"Ġbekapcs":9575,"ĠfelnÅĳttek":9576,"sÃŃtÃ³":9577,"ĠKatalin":9578,"ĠÃ©pÃŃtÃ©si":9579,"ĠbÅĳrt":9580,"ĠtÅĳke":9581,"ĠszeretnÃ©nek":9582,"ĠtettÃ©k":9583,"ĠÃĸssz":9584,"ÃŃtette":9585,"ĠHiszen":9586,"tikai":9587,"lmÃ©t":9588,"ĠalakÃº":9589,"Ġnapjaink":9590,"ĠOn":9591,"ĠrÃ¡g":9592,"ĠmÅ±faj":9593,"ĠÃģrpÃ¡d":9594,"ĠmegtÃ©r":9595,"gÃ³k":9596,"ĠJelenleg":9597,"Ġkital":9598,"feldolgozÃ³":9599,"Ġkarbantart":9600,"ĠSegÃŃt":9601,"ĠlejÃ¡r":9602,"ĠszÃ¡zadi":9603,"Ġmondtam":9604,"ĠpÃ¡lyÃ¡zÃ³":9605,"ĠellenzÃ©ki":9606,"ĠszÃ¡rny":9607,"ĠÃ¶tven":9608,"ĠmunkÃ¡ja":9609,"dhet":9610,"szÃ³lÃŃt":9611,"osi":9612,"Ġnektek":9613,"ĠhÃ¼vely":9614,"Ġmiszerint":9615,"ĠvÃ¡lasztÃ¡si":9616,"viv":9617,"Ġmekkora":9618,"nÃ³zis":9619,"ÃģLY":9620,"Ġ;":9621,"lÃ¡sÃ¡nak":9622,"ĠhatÃ¡rozza":9623,"ĠÃ¡talak":9624,"ulva":9625,"Ġadtak":9626,"had":9627,"ĠvÃ©gleges":9628,"ĠtÃ¶rÃ¶l":9629,"ĠÃ¡tad":9630,"XII":9631,"top":9632,"Ġpet":9633,"ĠsajtÃ³tÃ¡jÃ©koztatÃ³":9634,"ĠmÃ¡sol":9635,"ozhatÃ³":9636,"ĠkÃ©szen":9637,"ĠminÅĳsÃŃt":9638,"ĠszÅ±k":9639,"szintÃ©n":9640,"Ġhetek":9641,"ikÃ¡k":9642,"ĠsÃ©rÃ¼lt":9643,"ĠhÃ¡zassÃ¡g":9644,"Ġhalott":9645,"ĠgyÅ±jtÃ¶tt":9646,"Ã¡rgy":9647,"ĠtudtÃ¡k":9648,"ĠautÃ³k":9649,"Ġtv":9650,"Ġalk":9651,"ĠkiszÃ¡llÃŃt":9652,"jÃ¶":9653,"ĠtevÃ©kenysÃ©gek":9654,"ĠvÃ¡rjuk":9655,"regÃ©ny":9656,"ettÃ³":9657,"ilkossÃ¡g":9658,"ĠkÃ©zi":9659,"ĠidÅĳvel":9660,"ĠvidÃ©ki":9661,"etett":9662,"ĠPR":9663,"ÃŃva":9664,"aktikus":9665,"ĠbeÃ©pÃŃt":9666,"ĠvÃ¡llalatok":9667,"alÃ¡t":9668,"Ġlehessen":9669,"hozatal":9670,"ilkos":9671,"ĠWindows":9672,"Ġvegye":9673,"ĠszÃ¡mot":9674,"EP":9675,"ĠrÃ©szvÃ©tel":9676,"Ġasz":9677,"nai":9678,"Ġlista":9679,"ĠÃ¶sszegyÅ±jt":9680,"ĠhazÃ¡nkban":9681,"onkÃ©nt":9682,"!\"":9683,"ĠadjÃ¡k":9684,"Ã´":9685,"Ġfigyelni":9686,"ulÃ¡ciÃ³":9687,"ĠtevÃ©kenysÃ©ge":9688,"dÃµ":9689,"letve":9690,"ĠlegkÃ©sÅĳbb":9691,"kÃ¶zÃ¶s":9692,"kint":9693,"ĠjÃ¶vÅĳre":9694,"hattak":9695,"abbak":9696,"Ġrendszere":9697,"Ġ%-":9698,"ĠszÃ¡rmazik":9699,"ĠtalÃ¡lkozÃ¡s":9700,"¡c":9701,"Ġvalakinek":9702,"2009":9703,"ĠprÃ³b":9704,"ĠkÃ¶rÃ©":9705,"Ã¡f":9706,"biztonsÃ¡gi":9707,"Ã©lyes":9708,"vÃ¶z":9709,"Ġhav":9710,"ĠelsajÃ¡t":9711,"eredmÃ©ny":9712,"ĠmÃ©rtÃ©ke":9713,"Ġlabdar":9714,"ĠcsalÃ¡dok":9715,"³val":9716,"ĠtekinthetÅĳ":9717,"tetÅĳ":9718,"ĠÃ¶tÃ¶dik":9719,"imÃ":9720,"asztok":9721,"Ġkritikus":9722,"Ġgit":9723,"iny":9724,"ĠtanÃŃtvÃ¡ny":9725,"ĠMinisztÃ©rium":9726,"Ġmegment":9727,"Ġherceg":9728,"ĠJÃ¡t":9729,"ĠelÃ¡r":9730,"ĠvezetÃ©k":9731,"ozÃ¡sra":9732,"Ġdrog":9733,"Ġfolyik":9734,"ĠkÃ©peket":9735,"osis":9736,"ĠhÃ³napos":9737,"ick":9738,"KÃĸ":9739,"hozzÃ¡":9740,"ĠlebonyolÃŃt":9741,"gia":9742,"cer":9743,"ĠteendÅĳ":9744,"istÃ¡ly":9745,"zerv":9746,"ĠOper":9747,"egyet":9748,"bÅĳ":9749,"ĠcÃŃmÃ©t":9750,"ĠegyhÃ¡zi":9751,"Ar":9752,"szeret":9753,"gatÃ¡s":9754,"Ġfu":9755,"ĠMiutÃ¡n":9756,"Ġmeghallg":9757,"felelÅĳ":9758,"¶meg":9759,"rik":9760,"iÃ¡jÃ¡t":9761,"anda":9762,"ĠpÃ¡ros":9763,"ĠfelÃ¡llÃŃt":9764,"fort":9765,"ĠKo":9766,"ĠajÃ¡nljuk":9767,"ĠfÅ±szer":9768,"Ġnehezebb":9769,"ĠmozgÃ³":9770,"kever":9771,"ĠÃ³vod":9772,"ĠSo":9773,"ĠtÃ¡mogatÃ¡sa":9774,"ĠmÃ¡rka":9775,"ĠÃ©vesen":9776,"Ġalul":9777,"elolvas":9778,"iden":9779,"ĠszervezÅĳ":9780,"ĠhiÃ¡nyzik":9781,"Ġsikeresen":9782,"ĠmutatjÃ¡k":9783,"Ġkif":9784,"ĠrÃ©szÃ©ben":9785,"Ġdik":9786,"yelv":9787,"IZ":9788,"ĠGDP":9789,"ĠkÃ©pernyÅĳ":9790,"Aki":9791,"ĠdolgozÃ³k":9792,"Ġejt":9793,"ĠtÃ©mÃ¡ban":9794,"ĠtechnolÃ³giai":9795,"ebbi":9796,"ĠmanapsÃ¡g":9797,"Ġkiadott":9798,"MP":9799,"ĠmegkÃ¼lÃ¶nbÃ¶":9800,"ĠterÃ¼leteken":9801,"ĠszereplÅĳk":9802,"Ġeleve":9803,"Ġgyereke":9804,"galmas":9805,"ĠÃ¶sszege":9806,"minden":9807,"kozott":9808,"Ġhomok":9809,"ÃŃm":9810,"nÃ¡d":9811,"Ġstatisztikai":9812,"TP":9813,"hor":9814,"ĠlÃ¡tjuk":9815,"ezze":9816,"Ġnegy":9817,"Ġcsavar":9818,"ĠGyÅĳr":9819,"attan":9820,"kai":9821,"lÃ¡sÃ¡val":9822,"Ġpolitika":9823,"ombat":9824,"Ã¼kre":9825,"Ġnyelvi":9826,"ĠebÃ©d":9827,"lkÃ¶telezett":9828,"ÃŃtsa":9829,"lÃ¡sra":9830,"ismeret":9831,"ĠtÃ¶bbfÃ©le":9832,"ezs":9833,"Ġdomb":9834,"Ġszakma":9835,"65":9836,"©je":9837,"Ġolykor":9838,"ĠkÃ©szÃ¼lnek":9839,"dÃ¶g":9840,"iet":9841,"Ġenni":9842,"lÅĳi":9843,"Ġisten":9844,"ozÃ¡sÃ¡nak":9845,"ĠszÃŃve":9846,"ĠÃ¡llandÃ³an":9847,"kegy":9848,"akÃ©nt":9849,"ĠlehetÅĳsÃ©gÃ©t":9850,"ÃīSI":9851,"Ġemelkedett":9852,"kÃ³z":9853,"ĠgÃ©pe":9854,"ĠÃģt":9855,"chenyi":9856,"Ġjellegzetes":9857,"ĠkÃ©szÃŃtmÃ©ny":9858,"ĠlÃ©nyeges":9859,"ĠMindig":9860,"ĠÃīszak":9861,"osztÃ¡s":9862,"ĠszÃ©psÃ©g":9863,"Ġszerette":9864,"Ġpark":9865,"Ġvezette":9866,"ndre":9867,"ĠbeÃ¡llÃŃtÃ¡sok":9868,"Ġmoder":9869,"Ġfeladatot":9870,"papÃŃr":9871,"Ġnevezett":9872,"kÃ¶zÃ©p":9873,"ĠszemÃ¼":9874,"Ġkinek":9875,"ĠoptimÃ¡lis":9876,"ĠjÃ¡tÃ©kot":9877,"ĠkezelÃ©st":9878,"Ġtok":9879,"mÃ¡rÃ³l":9880,"Ġtudtak":9881,"Ġkerest":9882,"zÃ©keny":9883,"Ġkifejt":9884,"mÃŃ":9885,"utal":9886,"Ġelolvas":9887,"ucc":9888,"ĠCor":9889,"Ã¡zott":9890,"fÃ¼ggeszt":9891,"Ã¡stÃ³l":9892,"almakat":9893,"IR":9894,"ĠiskolÃ¡ban":9895,"ĠbÃ¡nt":9896,"Ġillat":9897,"ĠsztÃ¡r":9898,".),":9899,"ĠkÃ¼zdelem":9900,"Ġalapul":9901,"inÃ¡ris":9902,"©kely":9903,"ĠvÃ©gzi":9904,"Ġmegvizsg":9905,"tÃ¶bb":9906,"esed":9907,"ĠFehÃ©r":9908,"itel":9909,"ĠkÃ©pen":9910,"Ġlefoly":9911,"ĠkÃ©ri":9912,"Ġazonnali":9913,"hont":9914,"ĠfÃ¡k":9915,"irodalom":9916,"Ġmutatott":9917,"engyel":9918,"ĠelÅĳterjeszt":9919,"Ġkezeli":9920,"djÃ¶n":9921,"yÃ¡s":9922,"Ġgondolt":9923,":)":9924,"ĠkategÃ³riÃ¡ban":9925,"Ġinformatikai":9926,"Ġdekor":9927,"ĠÃ¼gyvezetÅĳ":9928,"gyÅ±lÃ©si":9929,"ĠidÅĳn":9930,"csator":9931,"ĠszÃ¼rke":9932,"rek":9933,"ĠszÃ¡mol":9934,"Ġtanulni":9935,"ĠteljesÃŃtÃ©se":9936,"ĠKÃ¡rpÃ¡t":9937,"ĠhÃŃrek":9938,"ĠvÃ¡lnak":9939,"ĠSim":9940,"Ġnapok":9941,"ĠintenzÃŃv":9942,"olnÃ¡r":9943,"¡jt":9944,"Ġugyancsak":9945,"ardi":9946,"ĠFig":9947,"Pr":9948,"ĠkÃŃsÃ©rt":9949,"onyi":9950,"Ġeszembe":9951,"hib":9952,"elkÃ¶telezett":9953,"Ġfigyelemmel":9954,"Ġilles":9955,"atossÃ¡gi":9956,"ĠÃ©tkez":9957,"ĠtehetsÃ©g":9958,"Fi":9959,"obbant":9960,"ĠgyÅĳzelem":9961,"ĠÃ©pÃ¼lete":9962,"Ġinsp":9963,"hhoz":9964,"ĠszolgÃ¡lat":9965,"Ġfelvon":9966,"tudomÃ¡nyi":9967,"Ġholnap":9968,"Ġfantasztikus":9969,"zetek":9970,"ĠelsÅĳkÃ©nt":9971,"sÃŃr":9972,"Ġszerver":9973,"szolgÃ¡lat":9974,"mozd":9975,"Ã©sÅĳbb":9976,"Ġsh":9977,"ĠKorm":9978,"ĠvÃŃzben":9979,"ĠszÃ©nhid":9980,"csem":9981,"ĠtÃ©ged":9982,"esetre":9983,"Ġcseh":9984,"ĠkezelÃ©si":9985,"ĠmegszÅ±n":9986,"fejlesztÃ©s":9987,"ĠderÃ¼l":9988,"ĠÃ©letÃ¼nk":9989,"ĠmegÃŃt":9990,"ĠdÃŃja":9991,"ĠjÃ¶ttek":9992,"ĠKiss":9993,"Ġmerev":9994,"ĠemlÃ©kezet":9995,"dnak":9996,"87":9997,"ĠAb":9998,"ĠÃīva":9999,"PS":10000,"inger":10001,"ĠNÃ©z":10002,"Ahogy":10003,"ĠbÃ¼":10004,"Ġfolyamatban":10005,"Ġlop":10006,"asson":10007,"ĠbeszÃ©lÃ¼nk":10008,"ĠmegvÃ¡laszt":10009,"ĠÃ¡ruhÃ¡z":10010,"anya":10011,"ĠesztendÅĳ":10012,"Ġhamis":10013,"ĠÃºtjÃ¡ra":10014,"ĠtanÃ¡csadÃ³":10015,"ĠelvÃ¡lt":10016,"Ġideiglen":10017,"Ġvisszajel":10018,"zÃ¡sra":10019,"Ġszoros":10020,"Ġsorrend":10021,"ĠKÃ¶nyvtÃ¡r":10022,"ĠhatÃ©konyan":10023,"ĠdiÃ³":10024,"Ã¶ld":10025,"sÃŃteni":10026,"ÃºgÃ³":10027,"Ġigy":10028,"ĠszenvedÃ©ly":10029,"yulladÃ¡s":10030,"Ġcsal":10031,"ĠkihasznÃ¡l":10032,"valy":10033,"Ġmutatkoz":10034,"\"&":10035,"ĠbarÃ¡tnÅĳ":10036,"ĠkenyÃ©r":10037,"ĠgyÃ¡szolÃ³":10038,"ĠvÃŃzi":10039,"Ġ75":10040,"csok":10041,"ÃŃzÃ¼let":10042,"Ġterep":10043,"szoba":10044,"ĠOlasz":10045,"ĠSzabÃ¡ly":10046,"ĠMoz":10047,"Ġszavak":10048,"ĠzÃ¡sz":10049,"ĠjogszabÃ¡lyok":10050,"ĠÃ©pÃŃtett":10051,"kÃ©pzÅĳ":10052,"hÃ¡lÃ³zat":10053,"ĠÃ¡rnyÃ©k":10054,"ĠkialakÃŃtott":10055,"ĠmÃ¡snap":10056,"ĠelegÃ¡ns":10057,"ĠFele":10058,"fÃ©rg":10059,"Ġfoltok":10060,"ĠkÃ¶veti":10061,"Ġiroda":10062,"iskolai":10063,"Ġly":10064,"ĠtÃ¶nk":10065,"ĠhÃŃrleve":10066,"ĠcipÅĳ":10067,"ĠMart":10068,"ĠhasznÃ¡lnak":10069,"essÃ©gÃ©t":10070,"Ġkak":10071,"ĠÃ©jjel":10072,"ĠjÃ¶vedel":10073,"ĠmegbeszÃ©l":10074,"anÃ³":10075,"Ġent":10076,"ĠtÃ¡volsÃ¡g":10077,"ÃŃtve":10078,"UD":10079,"Na":10080,"ĠfogyatÃ©k":10081,"osÃŃtott":10082,"ĠleszokÃ¡s":10083,"Ġspir":10084,"ath":10085,"ĠrÃ©szletesen":10086,"Ã¡srÃ³l":10087,"ĠeljÃ¡rÃ¡sok":10088,"Ġcitrom":10089,"ĠAny":10090,"¼lÃ¼k":10091,"ĠNEM":10092,"Ġront":10093,"ĠOkt":10094,"eiben":10095,"sÃ¼tik":10096,"ĠszerzÅĳi":10097,"ĠelkÃ¶telezett":10098,"ĠÃ¡rfolyam":10099,"ĠkormÃ¡nyzati":10100,"mann":10101,"ĠtÃºra":10102,"bÃ¡ny":10103,"cukor":10104,"Ġrut":10105,"ĠÃ¼nnepi":10106,"Ġku":10107,"ohÃ¡r":10108,"kÃ¶zÃ¶n":10109,"ĠvÃ¡m":10110,"ĠbefektetÃ©si":10111,"ĠGÃ©":10112,"ĠkÃ©mi":10113,"Ġszerettem":10114,"ĠjÃ¡tszÃ³":10115,"Ã©telÃ":10116,"ĠhÃ¼lye":10117,"Ġilyet":10118,"ĠfelesÃ©ge":10119,"jesztÅĳ":10120,"ĠvÃ¡ltak":10121,"ĠZsuzs":10122,"ĠfenntarthatÃ³":10123,"led":10124,"nÃ©gy":10125,"hatta":10126,"Ġbud":10127,"irekt":10128,"Ġkint":10129,"ĠszemÃ©t":10130,"Ġkarrier":10131,"kÃ¡cs":10132,"ĠcÃ©lÃº":10133,"eire":10134,"ĠeredmÃ©nyez":10135,"ĠnÃ©lkÃ¼lÃ¶z":10136,"Fontos":10137,"ĠbÃ¡rmelyik":10138,"ĠTudomÃ¡ny":10139,"©len":10140,"ĠSi":10141,"Ġtesznek":10142,"ĠTri":10143,"ĠtalÃ¡ltak":10144,"ĠDun":10145,"Ġjelentett":10146,"Ġ2002":10147,"ĠszÃŃnt":10148,"ĠhatÃ³sÃ¡gok":10149,"ĠnyilvÃ¡nossÃ¡gra":10150,"virÃ¡g":10151,"ĠÃ¼zemelt":10152,"ĠBizony":10153,"ĠhozzÃ¡tart":10154,"Ġlit":10155,"Ġkezdtem":10156,"iÃ¡bÃ³l":10157,"avig":10158,"ĠÃ©rtÃ©kek":10159,"ĠportÃ¡l":10160,"ĠjÃ¶het":10161,"Ġdu":10162,"ommal":10163,"ĠszÃ¡mon":10164,"ĠkÃ¶zelÃŃt":10165,"mÅ±ve":10166,"ĠszÅ±rÅĳ":10167,"ĠSokan":10168,"Ġlux":10169,"las":10170,"ĠmellÅĳ":10171,"Ġprosztata":10172,"ĠÃ¡ltalunk":10173,"ĠÃ©jszakai":10174,"ĠhozzÃ¡juk":10175,"Ġinfrastrukt":10176,"helyet":10177,"Ġ06":10178,"ĠkÃ¶vetelmÃ©nyek":10179,"mart":10180,"szÃ¡n":10181,"ĠÅĲk":10182,"Ġext":10183,"ĠformÃ¡ja":10184,"mirigy":10185,"Ġillesz":10186,"ĠvÃ¡sÃ¡rolni":10187,"vetÅĳ":10188,"ĠrÃ¶gzÃŃtett":10189,"ĠintÃ©zkedÃ©sek":10190,"rissebb":10191,"ĠPest":10192,"Ġtegye":10193,".).":10194,"ĨĴ":10195,"ĠtÃ©mÃ¡":10196,"darab":10197,"Ġtettek":10198,"Ġsug":10199,"Ġale":10200,"ĠlÃ¡r":10201,"El":10202,"ĠGar":10203,"zsÃ":10204,"ĠnÃ¶vÃ©nyek":10205,"Ġfogjuk":10206,"yakor":10207,"ĠÃīrdemes":10208,"Ġduz":10209,"dÃ©lyi":10210,"ĠkÃ¶zigazgatÃ¡si":10211,"zol":10212,"ĠEGY":10213,"ElsÅĳ":10214,"mailben":10215,"ismÃ©t":10216,"©llyel":10217,"ĠszÃ¡modra":10218,"ÃºrÃ¡":10219,"Ġvisszaigaz":10220,"Ġahonnan":10221,"ĠFEL":10222,"ĠÃ¡rnyal":10223,"ĠkÃ¼lfÃ¶ldÃ¶n":10224,".(":10225,"ĠbÃ¡ny":10226,"ncia":10227,"ĠjÃ¡rnak":10228,"ogatÃ¡s":10229,"Ġolvassa":10230,"ame":10231,"RA":10232,"ltÃ©k":10233,"ĠmÃ©rtÃ©kÅ±":10234,"ĠidÅĳjÃ¡rÃ¡s":10235,"ĠadatkezelÃ©si":10236,"Ġsav":10237,"ĠvÃ¡lasztÃ¡sok":10238,"ĠamirÅĳl":10239,"arnok":10240,"felvÃ©tel":10241,"ĠkÃ©pzel":10242,"Ġ:-)":10243,"Ġforradalom":10244,"Ġmg":10245,"ster":10246,"Ġjelennek":10247,"ĠhasznÃ¡lati":10248,"ars":10249,"emen":10250,"ĠkatasztrÃ³":10251,"Ġszeretett":10252,"Ġszorong":10253,"ĠuralkodÃ³":10254,"ĠaggÃ³d":10255,"ĠkÃ³rok":10256,"kere":10257,"eszp":10258,"77":10259,"ĠcÃ©lbÃ³l":10260,"ĠmadÃ¡r":10261,"hajÃ³":10262,"ĠpÃ¡rhuzamosan":10263,"ĠAndre":10264,"ĠalvÃ¡s":10265,"ulÃ©k":10266,"Ġvonatk":10267,"ĠfÃ¡jdalmas":10268,"igÃ©n":10269,"ĠUS":10270,"Ġkezdeni":10271,"use":10272,"Ġkosz":10273,"ĠÃ¶sszetett":10274,"busz":10275,"ĠÃŃgÃ©r":10276,"Ġ1990":10277,"ĠjellemzÅĳe":10278,"abizt":10279,"hetÅĳsÃ©g":10280,"ĠjellemzÅĳen":10281,"ĠigazÃ¡bÃ³l":10282,"ttÃ³l":10283,"Ġparadics":10284,"Ġvita":10285,"ĠMÃ¡rt":10286,"antikus":10287,"Ġkanyar":10288,"Ġkering":10289,"Ġalbum":10290,"ĠLond":10291,"jainak":10292,"mÃ©lem":10293,"ART":10294,"rae":10295,"Ġepi":10296,"ID":10297,"zette":10298,"icle":10299,"ĠPetÅĳ":10300,"ĠpÃ¡n":10301,"?!":10302,"ĠEle":10303,"esÃ¼l":10304,"Ġfelbont":10305,"ĠjogÃ¡t":10306,"ĠzsÃ¡k":10307,"hatÃ³ak":10308,"ĠtÅĳlÃ¼k":10309,"po":10310,"ĠCon":10311,"lovÃ¡":10312,"my":10313,"gyulladÃ¡s":10314,"ĠsegÃŃthet":10315,"tÃ¶rvÃ©ny":10316,"tad":10317,"ĠintÃ©zet":10318,"Ġegyenesen":10319,"ĠfÃ¶ldÃ¶n":10320,"ĠEzÃ":10321,"ĠzÃ¶ldsÃ©g":10322,"adÃ¡sra":10323,"ĠMer":10324,"ĠszÃ¶vetsÃ©g":10325,"bal":10326,"vezÃ©r":10327,"rakciÃ³":10328,"Ġversenye":10329,"Ġciklus":10330,"ĠÃľgyfÃ©l":10331,"Ġlegke":10332,"ĠÃ©rintettek":10333,"ĠellenkezÅĳ":10334,"ĠÃģllamok":10335,"ĠkÃ©pviselÅĳje":10336,"Ġabbahagy":10337,"Ġell":10338,"Ġmeghir":10339,"ĠgÃ©pek":10340,"ĠokozÃ³":10341,"ĠvettÃ©k":10342,"ĠOszt":10343,"lÃ¡ssal":10344,"Ġspeci":10345,"Ã¡lva":10346,"HÃ¡t":10347,"ĠmÅ±kÃ¶dt":10348,"Ã©ria":10349,"Ġfolyton":10350,"mozg":10351,"ĠsÃ¡v":10352,"ĠdÃ¼":10353,"Ġkonyha":10354,"abbÃ":10355,"ĠszabÃ¡lyokat":10356,"ĠkerÃ¼lhet":10357,"Ġveg":10358,"ĠAjÃ¡n":10359,"Ġanyagokat":10360,"ĠlÃ¡ts":10361,"ĠszÃ©lÃ":10362,"Ġorvosok":10363,"Ġleszek":10364,"Ġkegy":10365,"ĠmennyisÃ©g":10366,"ric":10367,"Ã¼kkel":10368,"Ġmikro":10369,"Ġmenedzs":10370,"lovÃ¡ki":10371,"vent":10372,"ĠgÅĳ":10373,"ĠvÃ¡laszol":10374,"ĠvÃ¡rosÃ":10375,"ute":10376,"lkÃ¼lÃ¶n":10377,"zÃ¼gyi":10378,"Ġpinc":10379,"elkÃ¼lÃ¶n":10380,"arend":10381,"ĠeszkÃ¶zÃ¶ket":10382,"ĠSa":10383,"abbÃ¡":10384,"Ġleszokni":10385,"ĠbiolÃ³giai":10386,"Ġgonosz":10387,"zit":10388,"rendszeri":10389,"RÃ":10390,"ĠiP":10391,"ĠbiztosÃŃtÃ¡si":10392,"ĠCÃ©l":10393,"csÃ©t":10394,"ĠfÃ¶lÃ©":10395,"ĠfordÃŃtott":10396,"fiai":10397,"Ġ48":10398,"ĠjelentÃ©s":10399,"ĠSal":10400,"?âĢĿ":10401,"ĠfÃ©lÃ©v":10402,"oth":10403,"SzÃ¡m":10404,"ĠfÃ¡jdalmat":10405,"zok":10406,"ĠsajnÃ¡l":10407,"ativ":10408,"ĠÃ¶nkormÃ¡nyzatok":10409,"©h":10410,"amikor":10411,"ĠtisztÃ¡n":10412,"ĠmestersÃ©ges":10413,"©les":10414,"Persze":10415,"Ġakkora":10416,"ĠDÃ¡n":10417,"ĠfelszerelÃ©s":10418,"ĠkiegyensÃºly":10419,"csÃ¡ny":10420,"ĠeredmÃ©nyekÃ©nt":10421,"Ġjogalap":10422,"Ġszervezetben":10423,"jatok":10424,"otikus":10425,"ĠmÃ©lye":10426,"vezett":10427,"ano":10428,"almÃº":10429,"ĠPat":10430,"ĠmenÃ¼pont":10431,"ĠfÃ©lelem":10432,"66":10433,"ukkal":10434,"Ġtalp":10435,"lÃ¡ban":10436,"ĠlassÃº":10437,"ĠkitÅ±nÅĳ":10438,"ĠÃ¡lmod":10439,"gyel":10440,"ĠGondol":10441,"ĠSzÃ©chenyi":10442,"kÃ¡rt":10443,"ĠHasznÃ¡l":10444,"techn":10445,"kodnak":10446,"Ġveled":10447,"Ġ120":10448,"ĠÃ¡lom":10449,"ĠÃ¡llni":10450,"ĠfelkÃ©szÃŃt":10451,"ĠbÃ¼szke":10452,"ainkat":10453,"eleg":10454,"ĠkÃ¶zÃ©ppont":10455,"Å±ek":10456,"akti":10457,"onnal":10458,"alista":10459,"evÅĳk":10460,"ĠnÃ©zett":10461,"Ġkonfliktus":10462,"Ġvihar":10463,"arett":10464,"Ġ33":10465,"gyakor":10466,"ĠadÃ³dÃ³":10467,"ĠkÃ©pvise":10468,"iel":10469,"onÃ³":10470,"ĠkÃ¶zepes":10471,"ĠCD":10472,"terme":10473,"MS":10474,"ĠpÃ¡ciens":10475,"vak":10476,"ĠÃŃzlÃ©s":10477,"ĠKÃ¶szÃ¶nÃ¶m":10478,"Tisztelt":10479,"ĠbÃ¼ntetÃ©s":10480,"Ġidege":10481,"Ã¡ljÃ¡k":10482,"rÃ¡sz":10483,"ulmÃ¡ny":10484,"ĠegymÃ¡sra":10485,"ĠmemÃ":10486,"ĠnÃ¶vekedÃ©s":10487,"stru":10488,"ĠHÃ¡rom":10489,"ĠvidÃ©k":10490,"Ġmellette":10491,"ĠGyur":10492,"ĠelkÃ¼lÃ¶n":10493,"ĠJudit":10494,"ĠmegelÅĳzÃ©s":10495,"ĠtÃ¶rÅĳ":10496,"sÃµ":10497,"pan":10498,"Ã©szÃ¡r":10499,"Ġemelt":10500,"ĠjÃ³tÃ¡l":10501,"ĠegyidejÅ±leg":10502,"Ġakars":10503,"osa":10504,"asztÃ¡s":10505,"ĠszenvedÅĳ":10506,"ĠÃ¡tlagosan":10507,"Ġakarsz":10508,"Ġfoglalkozni":10509,"ĠPal":10510,"irt":10511,"ĠvizsgÃ¡lata":10512,"Nap":10513,"vezÃ©s":10514,"Ġtapasztalatok":10515,"ĠLÃ":10516,"Me":10517,"Nincs":10518,"rogÃ©n":10519,"ĠvÃ¡ndor":10520,"ĠÃ¡tfogÃ³":10521,"\"-":10522,"ĠarÃ¡nyban":10523,"zÅ±r":10524,"³nak":10525,"Ġgenet":10526,"kart":10527,"ĠfelszÃ¡m":10528,"ĠhÃ©tkÃ¶znapi":10529,"Ġfontosnak":10530,"hete":10531,"cium":10532,"Ġigyekszik":10533,"Ġtapasztalatai":10534,"kÃ¡ba":10535,"ĠkorlÃ¡tozott":10536,"Ġfelszabad":10537,"ĠelmÃ©leti":10538,"ĠÃ¶sszefÃ¼ggÃ©sben":10539,"ĠMic":10540,"ĠhÃ¶lgy":10541,"ĠkereskedÃ©s":10542,"ĠfÃ¼ggvÃ©ny":10543,"hord":10544,"ĠNÃ©metorszÃ¡g":10545,"Ã¼ntetÃ©s":10546,"Ġszub":10547,"Ġprofesszor":10548,"lzÃ¡r":10549,"ĠÃ¶v":10550,"fot":10551,"fontos":10552,"ĠterÃ¼leti":10553,"kud":10554,"ĠtÃ¼nete":10555,"ĠmÅ±kÃ¶dÃ¶tt":10556,"szet":10557,"ĠszÃ¡llÃŃtÃ¡s":10558,"dÃ¡ig":10559,"kant":10560,"ĠtÃ¶rt":10561,"ĠhÃºg":10562,"Ġgyerekeknek":10563,"ĠklÃŃma":10564,"csillap":10565,"szÃ¡j":10566,"ĠemberisÃ©g":10567,"Ġmegtal":10568,"ÃŃtÃ³k":10569,"Ġtilos":10570,"ĠmÃ©z":10571,"ĠApple":10572,"zÃ¡log":10573,"ĠEmlÃ©k":10574,"ĠcÃ©ge":10575,"ĠmegjelÃ¶lt":10576,"Ġprojek":10577,"ĠszilÃ¡rd":10578,"kapitÃ¡ny":10579,"Ã¡vid":10580,"ĠbefektetÃ©s":10581,"ĠmunkÃ¡k":10582,"ĠkijelÃ¶lt":10583,"Ġtitkos":10584,"Ã©stÅĳl":10585,"Ġmindenhol":10586,"Ġokost":10587,"eszkÃ¶zÃ":10588,"Ãºttal":10589,"Ġkomolyabb":10590,"ĠkÃ©pviselÅĳi":10591,"Ġmegmond":10592,"ĠlÃ©gi":10593,"Ġfogs":10594,"ĠmunkatÃ¡rsai":10595,"kezeti":10596,"Ġlelk":10597,"asok":10598,"ĠterÃ¼letet":10599,"ĠFesztivÃ¡l":10600,"getÅĳ":10601,"mÃ©nyeit":10602,"ĠKlub":10603,"koznak":10604,"Ġcikke":10605,"fÃ³":10606,"ĠVarga":10607,"tics":10608,"ĠkategÃ³ria":10609,"enger":10610,"Ã¡pia":10611,"do":10612,"Ġnyerte":10613,"Ġnyugodt":10614,"ira":10615,"ĠzenÃ©":10616,"fek":10617,"Ġpuha":10618,"ĠmegvÃ¡ltozott":10619,"ĠÃ©rtÃ©ket":10620,"ĠalkalmÃ¡bÃ³l":10621,"ĠvirtuÃ¡lis":10622,"ĠkiszÃ¡mÃŃt":10623,"ĠWe":10624,"dÃ³d":10625,"ĠmÃ©teres":10626,"Ġrepr":10627,"ĠAkÃ¡r":10628,"ĠbefektetÅĳ":10629,"ĠautÃ³t":10630,"Ġversenyt":10631,"lanak":10632,"dy":10633,"Ġborz":10634,"Ã¡lÃ¡sÃ":10635,"ĠhÃ³d":10636,"ĠvasÃºt":10637,"Ġfelg":10638,"illa":10639,"ĠPÃ©cs":10640,"lhal":10641,"Ġrendes":10642,"kÃ¶rben":10643,"kÃ¼ldÃ©s":10644,"Ġnarancs":10645,"ĠSzo":10646,"park":10647,"ĠArra":10648,"odor":10649,"BB":10650,"ĠnyÃºjtani":10651,"Ġszenved":10652,"olÃ¡sra":10653,"kÃ¼z":10654,"Ġfogalma":10655,"ĠmennyisÃ©gben":10656,"ĠBib":10657,"ĠszÃ¡zalÃ©kÃ¡t":10658,"Ġtettem":10659,"ĠszÃ©r":10660,"Ġbul":10661,"TER":10662,"ĠtermelÃ©s":10663,"ĠÃīppen":10664,"ĠhatÃ¡lyba":10665,"ohas":10666,"ĠOK":10667,"ĠFer":10668,"hone":10669,"csik":10670,"ĠkÃ¶zbeszer":10671,"ĠÅĳszinte":10672,"ĠerkÃ¶lcsi":10673,"Ġsikerrel":10674,"Ġteret":10675,"ĠÃ©lvezet":10676,"ĠfelÅĳl":10677,"jÃ¶vÅĳ":10678,"elhal":10679,"vÃ©lemÃ©ny":10680,"Ġbirod":10681,"ĠHatÃ³":10682,"ĠbeszÃ©lg":10683,"Ġlevelet":10684,"ĠNyilvÃ¡n":10685,"ĠlÃ¡nyok":10686,"Ġkeletkezett":10687,"Ġszervezeti":10688,"dens":10689,"ĠvonzÃ³":10690,"ĠszÃ©klet":10691,"Ġilluszt":10692,"zum":10693,"cal":10694,"ĠmagÃ¡nszemÃ©ly":10695,"Ġgyor":10696,"ĠilletÅĳleg":10697,"ĠvÃ©lemÃ©nyek":10698,"ĠAkadÃ©mia":10699,"Ã¼tÃ©s":10700,"ĠTisza":10701,"¡sÃ¡ra":10702,"Å±ri":10703,"ĠcsalÃ¡dtag":10704,"ĠParlament":10705,"ĠHÃ":10706,"article":10707,"ĠVÃ¡llal":10708,"Ġharag":10709,"Ġfogsz":10710,"ozÃ¡sÃ¡val":10711,"ĠtÃ¶rvÃ©nyben":10712,"ĠmindenkÃ©pp":10713,"kÃ©se":10714,"vesz":10715,"ĠSzerzÅĳdÃ©s":10716,"nyeg":10717,"ĠmegelÅĳzÅĳe":10718,"ĠmegelÅĳzÅĳen":10719,"ilab":10720,"ĠbolygÃ³":10721,"ĠmegyÃ©ben":10722,"anunk":10723,"ĠkastÃ©ly":10724,"Ġfolytat":10725,"ĠNos":10726,"ĠÃ³rÃ¡ig":10727,"ĠhelyÃ©re":10728,"nÃ¶ksÃ©g":10729,"ĠmegjelÃ":10730,"ĠfelmÃ©rÃ©s":10731,"Ġgyert":10732,"esze":10733,"Ã©bb":10734,"habilit":10735,"ĠAir":10736,"Ġtechnika":10737,"ront":10738,"ĠbevÃ¡ndor":10739,"Ġtagok":10740,"ĠkÃŃvÃ¡nja":10741,"ĠszÃ³ba":10742,"ĠhalÃ¡la":10743,"ĠszÃ©g":10744,"Ġkoc":10745,"ĠpÃ©ldÃ¡t":10746,"ĠkÃ¶szÃ¶nhetÅĳ":10747,"Szab":10748,"Ġgyakorlatban":10749,"Ġmindazokkal":10750,"blog":10751,"zÃ¡ciÃ³s":10752,"lter":10753,"ĠsÃ¶r":10754,"ĠfelÃ¡l":10755,"ĠÃ¡bra":10756,"ĠerÅĳsÃ¶":10757,"Ġolyanok":10758,"Ã¡lnak":10759,"csen":10760,"Ġklinikai":10761,"hai":10762,"Ġalapon":10763,"ĠbeszÃ©":10764,"Mert":10765,"ĠidÅĳnkÃ©nt":10766,"ĠgyÃ³gymÃ³d":10767,"Ã©lÃ©s":10768,"ĠfehÃ©rje":10769,"ĠSy":10770,"Ġigazol":10771,"TovÃ¡bbi":10772,"ĠelÅĳad":10773,"Ġfokhagy":10774,"ĠkutatÃ¡sok":10775,"jetek":10776,"ĠMun":10777,"ÃŃtjuk":10778,"ĠgarantÃ¡lt":10779,"ĠRÃ©g":10780,"sy":10781,"ĠkÃ©pessÃ©ge":10782,"ĠbevÃ¡lt":10783,"Ġmele":10784,"rÃ¶s":10785,"Ġkifejleszt":10786,"ĠQu":10787,"ĠÃĸr":10788,"Ġ65":10789,"zsÃ¡k":10790,"profit":10791,"kine":10792,"Ġadunk":10793,"sunk":10794,"Ġapp":10795,"tve":10796,"Ġelhang":10797,"ĠmegszÃ¼let":10798,"Ġrendesen":10799,"Ġtulajdonosa":10800,"Ġkaptunk":10801,"anÃ¡":10802,"ĠkÃ©rte":10803,"ĠSE":10804,"ĠhaladÃ©k":10805,"kÃ¶rÅ±":10806,"Ã¡zi":10807,"Ġgaszt":10808,"./":10809,"vÃ¡ns":10810,"ĠÃ¼lÅĳ":10811,"ĠkenÅĳ":10812,"ĠKÃ¼l":10813,"ĠkÃ¶rÃ¼lÃ¶tt":10814,"ĠÃ¡svÃ¡nyi":10815,"Ġavagy":10816,"Ġcsere":10817,"ĠlegutÃ³bbi":10818,"ĠmÅ±velet":10819,"napos":10820,"ĠkÃ¶zsÃ©g":10821,"ĠVÃ¶rÃ¶s":10822,"ĠoldalrÃ³l":10823,"ĠÃ¶rÃ¼l":10824,"Ġpa":10825,"ĠmÅ±kÃ¶dÃ©se":10826,"ĠBa":10827,"hatok":10828,"eztÃ¼nk":10829,"Ġotthont":10830,"Ã¡sainak":10831,"Ġembereknek":10832,"ĠtÃ©nyleges":10833,"Nek":10834,"LT":10835,"\\\"":10836,"telenek":10837,"ĠcÃ©lszerÅ±":10838,"ĠszlovÃ¡k":10839,"ĠtartalmÃ¡t":10840,"vics":10841,"ellen":10842,"ĠPan":10843,"uljon":10844,"rÃ³f":10845,"nÃ¶t":10846,"________":10847,"Ġhuszon":10848,"Ġ55":10849,"ĠHam":10850,"Ġkapcsolatt":10851,"ĠfelvÃ©tel":10852,"Ebben":10853,"Ġrad":10854,"ĠSc":10855,"ĠMat":10856,"Ġfront":10857,"ĠÃ¶sszhangban":10858,"ĠbennÃ¼k":10859,"Ġmegoldani":10860,"Ġszoktam":10861,"ĠÃ¼tkÃ¶":10862,"ĠbÃŃrÃ³sÃ¡gi":10863,"ĠfejlesztÃ©sek":10864,"ĠHungary":10865,"Ġakivel":10866,"ĠâĨĴ":10867,"Jelen":10868,"pÃ©ldÃ¡ul":10869,"ĠvÃ©lemÃ©nyÃ©t":10870,"ĠkÃ¶vetkezÅĳk":10871,"©lÅĳs":10872,"onok":10873,"ĠelÅĳadÃ¡st":10874,"¶veg":10875,"ĠokbÃ³l":10876,"ĠakarjÃ¡k":10877,"ztetÃ©s":10878,"ĠAntal":10879,"ĠmÃºlik":10880,"Ġakarta":10881,"ĠfÃ¶ldi":10882,"Ġverse":10883,"ĠvesszÃ¼k":10884,"ĠAnal":10885,"rÃ¶v":10886,"Â®":10887,"Ã¡zat":10888,"OT":10889,"Ġelhal":10890,"apja":10891,"Ġfrissen":10892,"ĠÃ¡ltaluk":10893,"Ġmaradnak":10894,"ĠkÃ©pzett":10895,"Ġuk":10896,"ĠjelentÃ©se":10897,"ĠszÃ³rakoztatÃ³":10898,"dÃ¶k":10899,"ĠszeretnÃ©d":10900,"ĠcsalÃ¡dja":10901,"ĠtÃ¡rgyak":10902,"maj":10903,"ĠgyÃ³gyszert":10904,"rÃ©mium":10905,"Ġdinam":10906,"ĠnaptÃ¡r":10907,"ĠÃ¡llÃŃtÃ³lag":10908,"ĠSzervezet":10909,"ĠnÃ©zzÃ¼k":10910,"Ġgyorsabban":10911,"lÃ©n":10912,"elzÃ¡r":10913,"hezÃŃt":10914,"ĠÃ¶rÃ¶kÃ¶":10915,"orvosi":10916,"ozÃ¡ssal":10917,"ĠvÃ¡lasztÃ³":10918,"Ġfelirat":10919,"Ġindokolt":10920,"oszkÃ³p":10921,"Ġvaj":10922,"izÃ¡lt":10923,"Ã¡llomÃ¡ny":10924,"ĠÃ©letem":10925,"Ġhomlok":10926,"ĠszolgÃ¡lja":10927,"vei":10928,"ASZ":10929,"ORM":10930,"Em":10931,"ĠhangsÃºlyt":10932,"ĠhozzÃ¡m":10933,"ĠcÃ©llal":10934,"ĠTor":10935,"szerkezet":10936,"esÃŃtÃ©s":10937,"Ft":10938,"59":10939,"azott":10940,"EZET":10941,"Ġszol":10942,"ĠkapcsolÃ³dik":10943,"ForrÃ¡s":10944,"pÃ³tlÃ¡s":10945,"...\",\"":10946,"ĠCol":10947,"ĠtablettÃ¡k":10948,"lyag":10949,"ĠtanÃºsÃŃt":10950,"ĠlÃ¡togatÃ¡s":10951,"ĠajÃ¡nlom":10952,"ĠnevelÅĳ":10953,"ĠkÃ¼lÃ":10954,"ĠÃ©rdekelt":10955,"Ã¡ron":10956,"csal":10957,"ĠfelÃ©ben":10958,"ĠÃ©rdem":10959,"ĠPort":10960,"ĠhatÃ¡lya":10961,"ĠkÃ©rdÅĳ":10962,"ĠÃ¡llapota":10963,"Ġmeglep":10964,"asonlÃ³":10965,"Ġmasz":10966,"ĠÃ©leted":10967,"Ġmeggy":10968,"kent":10969,"ĠhivatÃ¡s":10970,"ddig":10971,"ho":10972,"Ġcso":10973,"ĠhÃ¡romszor":10974,"nÃ¶ki":10975,"ĠbeÃ¡llÃŃtÃ¡sokat":10976,"ĠvÃ¡rni":10977,"Ġragy":10978,"ĠtÃ¼re":10979,"ĠpadlÃ³":10980,"ĠalapÃŃtott":10981,"ikÃ¡lis":10982,"ĠkÃ©se":10983,"cska":10984,"ĠHotel":10985,"Ã¡tok":10986,"ĠJobbik":10987,"ĠSZER":10988,"Ġmegtakar":10989,"ĠIde":10990,"¡bor":10991,"osak":10992,"ĠHP":10993,"zetesen":10994,"Ġtartalmak":10995,"Ġrutin":10996,"ĠmegszÃ³l":10997,"hÃºz":10998,"ishvg":10999,"ĠmegprÃ³bÃ¡lt":11000,"roid":11001,"ĠtÃ¶mÃ¶r":11002,"Ġtea":11003,"ĠemelkedÃ©s":11004,"vizsgÃ":11005,"mÃ©rtÃ©k":11006,"ogrÃ¡f":11007,"ĠHD":11008,"ĠÃ©letkor":11009,"unt":11010,"ĠfÅĳvÃ¡rosi":11011,"emelÃ©s":11012,"jÃ©be":11013,"kiegÃ©szÃŃt":11014,"zÃ¡ban":11015,"ĠLengyel":11016,"Ġoldalra":11017,"Ġstand":11018,"ĠAnnak":11019,"ĠkÃ¶rnyezete":11020,"ĠlÃ©nyegÃ©ben":11021,"Ġmagyarul":11022,"Ġhagyjuk":11023,"ĠtÃ¶k":11024,"ĠMac":11025,"folt":11026,"jelen":11027,"ĠMEG":11028,"An":11029,"Ġszovjet":11030,"Ġakarom":11031,"ĠgyÅ±jtemÃ©ny":11032,"Ġtartalmaznak":11033,"ĠforgatÃ³":11034,"Ġmennek":11035,"lÃ¼":11036,"Ġadminiszt":11037,"ĠhÃŃm":11038,"ĠnettÃ³":11039,"Ġmente":11040,"Ġhallottam":11041,"ĠtÅ±zolt":11042,"yÃ¡r":11043,"ĠkÃ¶zzÃ©":11044,"Ġfelgy":11045,"lÃ¡lÃ³":11046,"Ġperces":11047,"Ġlegfrissebb":11048,"Ġhagyni":11049,"Ġmelletti":11050,"¶d":11051,"KÃ¼lÃ¶n":11052,"ĠigÃ©nylÅĳ":11053,"ĠRomÃ¡n":11054,"ling":11055,"ĠÃ©tkezÃ©s":11056,"ĠVagyis":11057,"attyÃº":11058,"ĠmondtÃ¡k":11059,"illant":11060,"Ġisteni":11061,"ĠJÃ³l":11062,"ĠhÃ³napja":11063,"ĠtÃ¶m":11064,"alatt":11065,"ĠvÃ¡llalati":11066,"lÃ©keny":11067,"assza":11068,"lapot":11069,"ĠtÃ¶bbiek":11070,"ĠellenÃ¡l":11071,"Ġmodul":11072,"petenc":11073,"alizÃ¡ciÃ³":11074,"ĠCsalÃ¡d":11075,"ĠlÃ©leg":11076,"ĠMindenki":11077,"ĠkilÃ³":11078,"nÃ©ben":11079,"mÅ±kÃ¶dÃ©s":11080,"Ġnevezt":11081,"ĠpohÃ¡r":11082,"ĠfelfÃ¼ggeszt":11083,"biztosÃŃtÃ¡si":11084,"ĠkÃ©szÃ¼lÅĳ":11085,"ĠmegÃ©l":11086,"ĠVeszp":11087,"gÃ©s":11088,"Ġliter":11089,"ĠEmi":11090,"Ġamelyre":11091,"ĠsegÃŃtik":11092,"Ġolimpiai":11093,"ĠtesszÃ¼k":11094,"JA":11095,"Ġgyakorlatok":11096,"Ã©lÅĳs":11097,"ĠkrÃ©":11098,"Ġmez":11099,"lÃ©l":11100,"ĠszabadidÅĳ":11101,"Ġcsecsem":11102,"ĠTur":11103,"ĠfertÅĳzÅĳ":11104,"xis":11105,"ĠtÃ¶rtÃ©netÃ©t":11106,"ĠbeÃ©pÃŃtett":11107,"ĠkÃ¶zremÅ±kÃ¶dÃ©s":11108,"uka":11109,"ĠkilÃ¡t":11110,"hasson":11111,"Ġfoglalja":11112,"ipp":11113,"Ġlem":11114,"Ġkommun":11115,"ĠbÃ¡rmit":11116,"Lehet":11117,"Ġkapacit":11118,"Ã¡Ã©rt":11119,"ĠegyÃ¼ttmÅ±kÃ¶":11120,"ĠEP":11121,"Ġbol":11122,"termÃ©k":11123,"ĠfejÃ©t":11124,"Ġkamar":11125,"ĠnyÃ¡l":11126,"ĠkÃ¡rtya":11127,"bbÃ©":11128,"ĠNyugat":11129,"ĠvÃ©l":11130,"ĠismerÅĳs":11131,"mind":11132,"ĠPC":11133,"ĠMc":11134,"Ġegyenes":11135,"Ġ37":11136,"ĠkÃ©rdÃ©seket":11137,"ĠEgyÃ©bkÃ©nt":11138,"kÃ¡rtya":11139,"Ġszerinte":11140,"kir":11141,"ĠTeme":11142,"ĠleÃŃrÃ¡s":11143,"98":11144,"kelÅĳ":11145,"ĠcÃŃmzett":11146,"ĠlÃ©zer":11147,"ĠkerÃ¼leti":11148,"ĠDÃ¡vid":11149,"ĠjavÃŃtÃ¡sa":11150,"ĠbemutatÃ¡sa":11151,"ĠlÃ©tezÅĳ":11152,"Ġrock":11153,"ĠstratÃ©giai":11154,"hajtÃ":11155,"Ġ38":11156,"mÃŃt":11157,"lue":11158,"ĠkerÃ¼lni":11159,"ĠidÅĳpontja":11160,"ĠtÃ¼neteket":11161,"Ġwebhely":11162,"Ġnemes":11163,"57":11164,"zhetÅĳ":11165,"sÃ¡gosan":11166,"Ġiskol":11167,"pÃ¡ros":11168,"ĠkÃ¶vetkezett":11169,"IM":11170,"ĠÃ©rettsÃ©gi":11171,"Ã¡vol":11172,"ph":11173,"hatalma":11174,"ĠmÃ©lyen":11175,"ĠfÃ¡jl":11176,"ĠErÅĳ":11177,"ĠfrissÃŃt":11178,"ĠjÃ¡tÃ©kosok":11179,"Ġkud":11180,"con":11181,"\\/":11182,"ĠremÃ©lem":11183,"ĠGimnÃ¡zium":11184,"intett":11185,"ohasem":11186,"ĠszÃ©khely":11187,"ĠkombinÃ¡ciÃ³":11188,"ezÃ©sÃ©re":11189,"Ġkine":11190,"rai":11191,"Ġcigarett":11192,"ĠvallÃ¡si":11193,"2008":11194,"ĠrÃ¶videbb":11195,"Ġugyanazt":11196,"Ġpontban":11197,"ĠkÃ¶rnyÃ©k":11198,"ĠkÃ¶ltsÃ©gvetÃ©s":11199,"ĠkÃ³st":11200,"font":11201,"ĠdÃ¶ntÃ©se":11202,"ĠutÃ³d":11203,"ZS":11204,"ĠtÃ¡s":11205,"ĠHang":11206,"Ġlin":11207,"ĠfelvÃ©tele":11208,"ĠNeked":11209,"ĠvÃ©gtelen":11210,"Ġszin":11211,"gi":11212,"onnyal":11213,"Ġkri":11214,"bank":11215,"menziÃ³":11216,"esebbet":11217,"ĠAs":11218,"ĠtartottÃ¡k":11219,"Ġpraktikus":11220,"Ġpercben":11221,"ĠkÃ©rem":11222,"ĠTermÃ©szet":11223,"ĠkitÅ±":11224,"ĠszÃ©nhidrÃ¡t":11225,"ztÃ¡r":11226,"ĠlennÃ©nek":11227,"ĠedÃ©ny":11228,"¼gyminiszter":11229,"ĠlÃ©trehozott":11230,"okatlan":11231,"ĠmÅ±kÃ¶dnek":11232,"Ġszektor":11233,"ĠfiÃ³k":11234,"ezen":11235,"ĠSzÃ©k":11236,"hatatlanul":11237,"Ã¼zem":11238,"ĠÃ¡llÃŃtani":11239,"kozni":11240,"ĠproblÃ©mÃ¡kat":11241,"Ġcsoportok":11242,"hasznÃº":11243,"ĠlehetÅĳsÃ©gei":11244,"Ġmindazoknak":11245,"ĠfeltÃ©te":11246,"Ã¶le":11247,"ĠcserÃ©l":11248,"Ġmutatta":11249,"aszÃ¡m":11250,"sÃ¡gon":11251,"Ã©kos":11252,"ĠÃ©lÅĳs":11253,"ÃŃregy":11254,"IG":11255,"Åĳkkel":11256,"ĠgyÅ±rÅ±":11257,"mÃ©retÅ±":11258,"ĠszolgÃ¡ltatÃ¡sokat":11259,"ĠadtÃ¡k":11260,"ĠFekete":11261,"ĠfÅ±zÅĳ":11262,"ĠjelzÅĳ":11263,"ĠalÃ¡t":11264,"EC":11265,"ĠbÃ©ke":11266,"hasznÃ¡lt":11267,"Ġven":11268,"ĠcÃ©lok":11269,"okrÃ¡cia":11270,"Ã©ka":11271,"ĠkonyhÃ":11272,"ĠHold":11273,"Ġultra":11274,"adrÃ¡g":11275,"jegyzÃ©k":11276,"hettem":11277,"ĠamibÅĳl":11278,"ĠelzÃ¡r":11279,"ĠStr":11280,"Ġlovag":11281,"ENT":11282,"lati":11283,"denek":11284,"ĠSan":11285,"Ġhivatalosan":11286,"keszt":11287,"Ġelterjedt":11288,"ĠszerepÃ©t":11289,"ĠrÃ©szesÃ¼l":11290,"ĠmegrendezÃ©sre":11291,"zÃ¡j":11292,"ĠfelhasznÃ¡lÃ¡sa":11293,",-":11294,"jÃ³s":11295,"Ġkezdeti":11296,"Ġmeghosszabb":11297,"latot":11298,"¡jÃ¡nak":11299,"sÃ©gÃ¼nk":11300,"ĠrÃ¡d":11301,"ĠmerÃ¼l":11302,"Ġmegmarad":11303,"ĠtÃ©rt":11304,"pÃ³":11305,"Ġce":11306,"levÃ¡ns":11307,"ĠszÃ¶vÅĳ":11308,"FotÃ³":11309,"Ã¡lint":11310,"rap":11311,"ĠÃ©lettart":11312,"lre":11313,"Ġgondolja":11314,"Ġgyorsabb":11315,"fÃ©lÃ©k":11316,"ĠlegtÃ¶bbszÃ¶r":11317,"ĠorszÃ¡got":11318,"Ġ250":11319,"ĠdicsÅĳ":11320,"ĠmÃ©di":11321,"ĠrendelkezÃ©sek":11322,"Ã©ta":11323,"Ġvalakit":11324,"Mar":11325,"ĠidÅĳtartam":11326,"csÃ¶kkentÅĳ":11327,"Ġbejut":11328,"problÃ©":11329,"Ġkonzerv":11330,"ĠPri":11331,"Ġfidesz":11332,"ĠmegjelenÃ©s":11333,"ĠfogyasztÃ³i":11334,"Ã©tele":11335,"ope":11336,"hold":11337,"Ġhamarabb":11338,"Ġhadsereg":11339,"llem":11340,"olhatja":11341,"Ġelindult":11342,"ĠszÃ¡llo":11343,"Ġorg":11344,"ĠnÃ¶vekvÅĳ":11345,"ĠhasznÃ¡lÃ³":11346,"Ġkeser":11347,"ÃŃtÃ¡sok":11348,"Ġalu":11349,"Ġnagyban":11350,"Ġfutam":11351,"hetÅĳvÃ©":11352,"ÃģV":11353,"oper":11354,"TermÃ©szetesen":11355,"bur":11356,"ĠmenekÃ¼l":11357,"ĠPetÅĳfi":11358,"kÃ¡kat":11359,"ins":11360,"ajzs":11361,"Ġnegyven":11362,"ruttÃ³":11363,"Ġbillent":11364,"ĠmÃ»":11365,"ĠnÃ¡la":11366,"ĠeltÅ±nt":11367,"ĠacÃ©l":11368,"ĠutcÃ¡n":11369,"ĠmÅ±hely":11370,"ĠjelentÅĳsÃ©ge":11371,"ĠlÃ¡that":11372,"lapon":11373,"ada":11374,"emekÃ¼l":11375,"Ġforgalomba":11376,"ĠMezÅĳ":11377,"ĠbÃ¡cs":11378,"ĠvÃ¡ltoztatni":11379,"ĠkÃ¶zgyÅ±lÃ©s":11380,"ĠtÃ©len":11381,"redit":11382,"ĠboldogsÃ¡g":11383,"ĠBÃ©kÃ©s":11384,"lehet":11385,"ĠMÃ¡rton":11386,"Ġzseb":11387,"Ġbors":11388,"ĠmagÃ¡tÃ³l":11389,"velÃ©s":11390,"Ã³val":11391,"VII":11392,"ĠKÃ©sÅĳbb":11393,"97":11394,"Ġkapcsolata":11395,"ĠorszÃ¡gokban":11396,"KÃ©rjÃ¼k":11397,"essÃ©gi":11398,"ovatÃŃv":11399,"ĠbekezdÃ©sben":11400,"68":11401,"nÃ¶ke":11402,"ĠGab":11403,"Ġgondoskodik":11404,"Ġoldalak":11405,"Ġoszlop":11406,"Ġvig":11407,"idÃ":11408,"becsÃ¼l":11409,"Ġrekord":11410,"Ġmegrendelt":11411,"uti":11412,"Ġbesor":11413,"58":11414,"Ġgondot":11415,"berend":11416,"mÃ©rÅĳl":11417,"ĠdicsÃ":11418,"szakÃŃt":11419,"ĠKÃ¶zsÃ©g":11420,"sÃ©gÃ©vel":11421,"ĠkivÃ©tele":11422,"ĠvÃ¡sÃ¡rolt":11423,"Ġvezethet":11424,"ĠSzerencsÃ©re":11425,"ĠÃ¶sszefoglalÃ³":11426,"ĠegyeztetÃ©s":11427,"Ġgyerekeket":11428,"esÃ©s":11429,"Ã¡szok":11430,"ĠBo":11431,"essÃ©ge":11432,"dÃ©st":11433,"Ġtelje":11434,"©ma":11435,"mani":11436,"kutatÃ³":11437,"vebb":11438,"ĠDok":11439,"ednek":11440,"hajtÃ³":11441,"lÃ©sek":11442,"ĠFejleszt":11443,"Ġbuli":11444,"Ġnyugalom":11445,"ĠÃ¼gyfelek":11446,"ĠmotivÃ":11447,"¡bÃŃtÃ³":11448,"ĠstÃºdiÃ³":11449,"Ã¡llÃŃtÃ¡s":11450,"ĠalternatÃŃv":11451,"ĠfÃ¡zis":11452,"hozni":11453,"ĠmegnyilvÃ¡n":11454,"ĠmÃ¡skÃ©pp":11455,"ĠvÃ©delmet":11456,"kÃ³r":11457,"ĠrendÅĳrÃ¶k":11458,"Ġmus":11459,"ĠforrÃ¡sa":11460,"ĠkÃ¶rnyÃ©ke":11461,"Ġnevezte":11462,"Ġdoktor":11463,"ĠhatÃ¡ron":11464,"ĠszervezÅĳk":11465,"ĠvÃ¡rost":11466,"ĠszerencsÃ©t":11467,"ertÃ":11468,"mÃ³ni":11469,"Ġburkol":11470,"mÃ©nek":11471,"Ġmegszabadulni":11472,"Ġhekt":11473,"ĠeredÅĳ":11474,"Ġhazug":11475,"szegÃ©ny":11476,"AJ":11477,"ĠLo":11478,"Ġversenyen":11479,"ottunk":11480,"ĠbeszÃ©lve":11481,"Ġvacsor":11482,"piaci":11483,"mÃ©let":11484,"ĠsegÃŃtett":11485,"ĠszÃ¼letÃ©snap":11486,"ĠfelÃ©t":11487,"anÃ¡l":11488,"Ġegyez":11489,"Ġhttps":11490,"ĠkÃ¶zeg":11491,"ĠhÃŃrlevÃ©l":11492,"hÃ¡zak":11493,"Ġhold":11494,"anni":11495,"Ġbesz":11496,"ongor":11497,"azz":11498,"vettÃ©k":11499,"ĠmagÃ¡ny":11500,"ĠallergiÃ¡s":11501,"ĠszakÃŃt":11502,"zse":11503,"mÃ©g":11504,"mÅ±vÃ©szet":11505,"Ġolyat":11506,"ĠegymÃ¡shoz":11507,"ĠdepressziÃ³":11508,"yt":11509,"Ġgyermeket":11510,"Ġcsepp":11511,"ĠegyszerÅ±bb":11512,"ĠpusztÃ¡n":11513,"52":11514,"onya":11515,"Ġbajnoki":11516,"ile":11517,"nÃ¡n":11518,"Ġelkezd":11519,"ĠmÅ±kÃ¶dÃ©sÃ©hez":11520,"ĠEgyÃ¼tt":11521,"ĠhaladÃ©ktalanul":11522,"Ġokostelefon":11523,"ĠpihenÅĳ":11524,"ĠtÅĳlÃ¼nk":11525,"kÃ©re":11526,"zÃ¡sÃº":11527,"kerÃ¼lt":11528,"iros":11529,"ĠÃ¶sszekapcs":11530,"ĠvezÃ":11531,"Ġmatemat":11532,"ĠfÃ©":11533,"ĠszÃ¡mban":11534,"ĠkÃ¶ltsÃ©ge":11535,"essÃ©get":11536,"ĠBart":11537,"Ġned":11538,"gye":11539,"setek":11540,"itthon":11541,"Ġtartjuk":11542,"ĠolcsÃ³bb":11543,"esei":11544,"szÃ³rÃ³":11545,"aszÃŃn":11546,"ĠutcÃ¡ban":11547,"lÃ©ssel":11548,"He":11549,"ĠerÅĳfeszÃŃt":11550,"ĠszÃ©lesebb":11551,"elÃ¼nk":11552,"Ġvegyes":11553,"Ã©lkÃ¼li":11554,"ĠsÃ¼l":11555,"ĠeredmÃ©nyei":11556,"dÃ¶ntÅĳ":11557,"Ġlettem":11558,"ĠintÃ©zkedÃ©seket":11559,"ĠbÅ±nÃ¶":11560,"Ġelhelyezett":11561,"ĠGyakor":11562,"Ġhonnan":11563,"ĠmegkÃ¶tÃ©s":11564,"Ã¡sÃ¡Ã©rt":11565,"ĠlÃ¡tjÃ¡k":11566,"kedvez":11567,"ĠtalÃ¡lunk":11568,"ĠrajongÃ³":11569,"esfehÃ©r":11570,"¡zÃ¡s":11571,"ĠSom":11572,"szÃ¡ma":11573,"fÃ¡jdalom":11574,"ĠkÃ¶zti":11575,"ĠWeboldal":11576,"ĠMÃŃg":11577,"nger":11578,"ĠRÃ³ber":11579,"fontossÃ¡gÃº":11580,"Ġriz":11581,"ratulÃ¡l":11582,"Ġnedves":11583,"Ġezekkel":11584,"Szerintem":11585,"Ġkonferencia":11586,"ider":11587,"ucat":11588,"Ġfer":11589,"kÃ©nti":11590,"ĠidÅĳsza":11591,"amely":11592,"ĠfÃ©rfit":11593,"Ġgenetikai":11594,"Ġtranzak":11595,"Ġkisfi":11596,"osnak":11597,"ĠtÃ¡mad":11598,"fogyasztÃ¡s":11599,"ĠvÃ©delmi":11600,"ĠÃ©rezni":11601,"eljesÃŃt":11602,"ĠkÃ©pzÃ©si":11603,"ĠkezdÅĳdÅĳ":11604,"elit":11605,"tjÃ¼k":11606,"ĠfelkÃ©szÃ¼lt":11607,"Ġbron":11608,"dv":11609,"indulat":11610,"ĠkiegyensÃºlyozott":11611,"ĠtervezÃ©s":11612,"lÃ©ti":11613,"ekven":11614,"Ġenyhe":11615,"ĠÃ©rvÃ©nyesÃ¼l":11616,"ĠeszÃ":11617,"ole":11618,"kÃ¡rÃ³l":11619,"Ġszerb":11620,"dÃ¶bben":11621,"ĠFelÃ":11622,"ĠtÃ¡voli":11623,"ĠvÃ¡rnak":11624,"Ġszerezni":11625,"ĠnaplÃ³":11626,"vÃ©lt":11627,"ĠadÃ¡s":11628,"zki":11629,"ĠÃ¼gyvÃ©d":11630,"Ġamihez":11631,"igazgatÃ³ja":11632,"ĠalÃ¡ÃŃr":11633,"emutatÃ³":11634,"Ġtabletta":11635,"ĠSzÃ³":11636,"hatÃ¡s":11637,"Ġszembeni":11638,"Ġbarlang":11639,"Ġmegfigyel":11640,"Ġzajlott":11641,"Ġcikket":11642,"Ġtapasztalata":11643,"omon":11644,"ĠszÃ¡mok":11645,"olya":11646,"Ã©kÃ":11647,"ĠlÃ¶v":11648,"ozhat":11649,"rÃ¡ban":11650,"Ġanyu":11651,"ĠOroszorszÃ¡g":11652,"lant":11653,"akÃ¡t":11654,"ĠGÃ©za":11655,"ĠKulturÃ¡lis":11656,"ĠutÃ³bb":11657,"jelentÅĳ":11658,"ĠDu":11659,"Ġpostai":11660,"zÅĳi":11661,"ĠOrszÃ¡ggyÅ±lÃ©s":11662,"ĠFin":11663,"ĠSzabÃ¡lyzat":11664,"ĠfolytatÃ¡s":11665,"Ġbemutatott":11666,"64":11667,"ĠmegrendelÅĳ":11668,"ĠeszkÃ¶zÃ¶kkel":11669,"Ġ34":11670,"rÃ©teg":11671,"Ãģlt":11672,"ĠMont":11673,"Sajnos":11674,"arÃ¡ny":11675,"Ġgi":11676,"cÃ©g":11677,"ĠkÃ©szlet":11678,"ĠkÃ¶zÃ¼lÃ¼k":11679,"Ġangyal":11680,"Ġelgondol":11681,"Ġprop":11682,"testÃ¼lete":11683,"Ġpicit":11684,"anyagot":11685,"ĠmÃ©rleg":11686,"ĠkirÃ¡lyi":11687,"Ġhajlamos":11688,"Ġjelenet":11689,"Ġvillany":11690,"Ġbicik":11691,"Ġtext":11692,"Ġvont":11693,"urt":11694,"dÅĳdÃ¶tt":11695,"Ġhavonta":11696,"ĠmÃ¶gÃ©":11697,"****":11698,"rans":11699,"ĠmegszÅ±nt":11700,"ĠderÃ¼lt":11701,"Ġkeletkez":11702,"Ġakarunk":11703,"ĠfotÃ³k":11704,"Ġplatform":11705,"ĠMax":11706,"ĠSzÃ¡mos":11707,"atÃº":11708,"udomÃ¡ny":11709,"Ġindex":11710,"ĠfeltÅ±":11711,"arn":11712,"aikat":11713,"ĠsajÃ¡tossÃ¡g":11714,"ĠszakÃ©rtÅĳk":11715,"alizÃ¡l":11716,"Ġszebb":11717,"ĠalkotÃ¡s":11718,"ĠbÅĳrÃ¶n":11719,"kÃ¡nak":11720,"ĠfÃº":11721,"ĠerÅĳvel":11722,"szÃ¼lÃ¶tt":11723,"¡jÃ¡n":11724,"ĠÃ©pÃ¼letek":11725,"Ġgab":11726,"ztam":11727,"onprofit":11728,"szolgÃ¡lati":11729,"ĠkapitÃ¡ny":11730,"Ġnavig":11731,"ĠbevÃ¡sÃ¡r":11732,"Ġcsatorna":11733,"Ġjellemzi":11734,"ĠmegtÃ¶rtÃ©nt":11735,"ĠfogyasztÃ¡sa":11736,"yÃ¡k":11737,"sÃ¡gnak":11738,"umÃ¡t":11739,"Ġcsendes":11740,"ella":11741,"ĠTag":11742,"issziÃ³":11743,"ĠlÃ¡mp":11744,"¶b":11745,"Ġzsin":11746,"ational":11747,"ĠJan":11748,"ĠRÃ¡diÃ³":11749,"ĠleÃŃrÃ¡sa":11750,"ĠkÃ©nye":11751,"ĠtÃ¶bblet":11752,"Ġmaradni":11753,"Ġfogadja":11754,"lf":11755,"ĠirÃ¡nyÃ¡ba":11756,"ogÃ©n":11757,"Ġterheli":11758,"ĠÃ©lÅĳk":11759,"ĠKÃ¶zben":11760,"ĠvasÃºti":11761,"©kÃ©nek":11762,"Ġbizonyult":11763,"ĠszakÃ©rtÅĳi":11764,"ĠfÅĳszereplÅĳ":11765,"ĠEgÃ©szsÃ©g":11766,"ĠAzÃ³ta":11767,"sÃ©gesen":11768,"Ġmagabizt":11769,"ĠjogszabÃ¡lyi":11770,"Ġige":11771,"ĠKecskemÃ©t":11772,"Ġalternat":11773,"¶dÃ":11774,"hatÃ©kony":11775,"Ġfelsorolt":11776,"Ġalapos":11777,"ĠtantÃ¡rgy":11778,"ĠElÃ©g":11779,"ĠÃ©lÃ©n":11780,"ĠdÃŃjÃ¡t":11781,"ĠbÃ©kÃ©s":11782,"ĠkialakulÃ¡sÃ¡nak":11783,"ĠfelsÅĳoktatÃ¡si":11784,"ĠkirÃ¡ndulÃ¡s":11785,"Nekem":11786,"ĠkezelÃ©sÃ©ben":11787,"ĠirÃ¡nyÃŃt":11788,"ĠrÃ©szekÃ©nt":11789,"Ġmonitor":11790,"ĠegÃ©szet":11791,"ESZ":11792,"esszion":11793,"Ãµl":11794,"Ġ%":11795,"Ġmegszervez":11796,"ĠtÅ±nÅĳ":11797,"ĠÃŃtÃ©l":11798,"ient":11799,"aa":11800,"ĠPart":11801,"cher":11802,"ĠKiadÃ³":11803,"ĠtevÃ©kenysÃ©gÃ©t":11804,"ĠÃ©rzÃ©":11805,"ĠellÃ¡tÃ":11806,"szÃ¡t":11807,"ĠorszÃ¡ggyÅ±lÃ©si":11808,"egyÃ¼tt":11809,"ĠahovÃ¡":11810,"ĠTra":11811,"Ġszitu":11812,"ĠÃīv":11813,"Ġellenfele":11814,"Ġtartalmat":11815,"ĠhalÃ¡los":11816,"Ġbit":11817,"milliÃ¡rd":11818,"ĠTovÃ¡bbÃ":11819,"ĠTovÃ¡bbÃ¡":11820,"ĠlenyÅ±":11821,"ĠellÃ¡tÃ³":11822,"Ġbarna":11823,"ertÃ³":11824,"ĠelÅĳbbi":11825,"Ġgarancia":11826,"ĠLED":11827,"53":11828,"ĠRÃ³bert":11829,"Ġfelmond":11830,"Ã©h":11831,"ceÃ¡n":11832,"Ġenge":11833,"ismertebb":11834,"fÃ³liÃ³":11835,"ĠszolgÃ¡ltatÃ³k":11836,"ĠoxigÃ©n":11837,"Ġcsuk":11838,"ĠCseh":11839,"Ġmeghalt":11840,"Ġlegmeg":11841,"ĠbarÃ¡ti":11842,"lam":11843,"polgÃ¡rmester":11844,"ĠpÃ¼spÃ¶k":11845,"ĠfelhÅĳ":11846,"NI":11847,"ĠszimbÃ³l":11848,"rosoft":11849,"Ã¡llap":11850,"ĠfolytatÃ³dik":11851,"ĠbennÃ¼nk":11852,"fesztivÃ¡l":11853,"ĠirÃ¡nyelv":11854,"Ġfokozat":11855,"ĠszÃ¼ksÃ©gÃ¼nk":11856,"ĠcsodÃ¡s":11857,"ĠOlv":11858,"Ġtort":11859,"atossÃ¡g":11860,"51":11861,"Ġrost":11862,"ĠkÃ©szÃŃtmÃ©nyek":11863,"omÃ¡ly":11864,"ĠMunka":11865,"Ġlaptop":11866,"ĠfogyasztÃ³k":11867,"ĠtÃ©vÃ©":11868,"ĠjelzÃ©s":11869,"rendelÅĳ":11870,"Ġfedez":11871,"Ġismerik":11872,"atag":11873,"lagos":11874,"54":11875,"Ġhatvan":11876,"ĠtÃ©te":11877,"Ġhosszan":11878,"ĠvÃŃv":11879,"Ġoptimal":11880,"ĠbekezdÃ©sÃ©ben":11881,"ĠtrÃ¼k":11882,"zÃ¶ld":11883,"ĠÃģgnes":11884,"kand":11885,"Ġnevezet":11886,"lmarad":11887,"ilatkoz":11888,"ĠtartalÃ©k":11889,"Ġreform":11890,"ĠDem":11891,"ĠJohn":11892,"ĠkÃ¶vetkeztetÃ©s":11893,"elmarad":11894,"mÃ©":11895,"Ġszerves":11896,"ĠkÃ©sÅĳbbiekben":11897,"¶bbet":11898,"ytics":11899,"atlak":11900,"csont":11901,"Ġmennyit":11902,"Ġadatt":11903,"ĠlaboratÃ³ri":11904,"ĠÃ¼lte":11905,"ĠleghatÃ©kony":11906,"kedtek":11907,"ĠtelepÃ¼lÃ©sen":11908,"Ġvese":11909,"ĠveszÃ©lye":11910,"ĠnyÃºjtÃ":11911,"Ġmaradjon":11912,"fajt":11913,"Ġsohasem":11914,"Ġvetett":11915,"ĠvÃ¡llalt":11916,"ĠjÃ¡rulÃ©k":11917,"lis":11918,"ĠAni":11919,"Ġatom":11920,"Ġkond":11921,"bab":11922,"Ġhangzik":11923,"sÃ¡n":11924,"rang":11925,"ĠlejÃ¡t":11926,"aw":11927,"ĠhÃŃvjÃ¡k":11928,"EI":11929,"igen":11930,"Ġegyeb":11931,"aibÃ³l":11932,"Ġszokatlan":11933,"ĠnyÃºjtÃ³":11934,"ĠkivÃ¡lÃ³an":11935,"\\\\\\\\\\\\\\\\\\\\\\\\\\\\\\\\\\\\\\\\\\\\\\\\\\\\\\\\\\\\\\\\\\\\\\\\\\\\\\\\\\\\\\\\\\\\\\\\\\\\\\\\\\\\\\\\\\\\\\\\\\\\\\\\":11936,"Ġfizetett":11937,"Ġkorrekt":11938,"ĠellenzÃ©k":11939,"ĠMolnÃ¡r":11940,"Ġbeind":11941,"Ġtenge":11942,"Keres":11943,"dd":11944,"Ġfelvet":11945,"ĠtÃ¶reked":11946,"Ġ600":11947,"ĠmegszÃ¼ntetÃ©s":11948,"kÃ¶k":11949,"Ġnapirend":11950,"Ġmegtapasztal":11951,"ĠkÃ³k":11952,"Ġkapja":11953,"mul":11954,"ĠRich":11955,"ee":11956,"yle":11957,"Ġmozi":11958,"ĠfejlÅĳdÃ©si":11959,"Ġpillanatok":11960,"ps":11961,"Ġellene":11962,"ĠtÃ¡jÃ©koztatja":11963,"ĠterÃ¡pia":11964,"ĠhibÃ¡k":11965,"ĠmegoldÃ¡sokat":11966,"ĠmÃ¡shol":11967,"ĠmegvilÃ¡g":11968,"delmes":11969,"ĠhorvÃ¡t":11970,"ĠAlkot":11971,"ĠfÃ¡rad":11972,"ts":11973,"Ġvizes":11974,"ĠÃ©rezte":11975,"ikÃ³":11976,"rop":11977,"ĠteljesÃŃtmÃ©nyt":11978,"ĠhelyezÃ©s":11979,"ĠPÃ¡rizs":11980,"rendelet":11981,"ĠregionÃ¡lis":11982,"ĠrÃ©szei":11983,"ĠmezÅĳny":11984,"ĠsegÃ©ly":11985,"ĠDo":11986,"ĠszÃŃnhÃ¡zi":11987,"Ġelmarad":11988,"asa":11989,"ĠlefelÃ©":11990,"szolgÃ¡ltatÃ³":11991,"Ġokoznak":11992,"ĠkÃ¶vetelÃ©s":11993,"afut":11994,"ĠstÃŃlusÃº":11995,"Ġbelt":11996,"zzÃ¼k":11997,"kormÃ¡ny":11998,"Ġluxus":11999,"ĠÃ©tterem":12000,"ĠkÃ¼lÃ¶nben":12001,"unkkal":12002,"amat":12003,"Ġrendelete":12004,"âĢ¦.":12005,"ĠrendezvÃ©nye":12006,"ĠvÃ¡ltozata":12007,"ĠsvÃ©d":12008,"bud":12009,"ketten":12010,"Ġtudtuk":12011,"TM":12012,"Ġtestben":12013,"kÃ¡m":12014,"Ġbeleegy":12015,"Ġtapasztalt":12016,"Ġfix":12017,"ĠVil":12018,"Ġadjuk":12019,"ĠÃ©rtelmi":12020,"ĠhÃ¡trÃ¡nyos":12021,"Ġhelyben":12022,"ĠelÅĳfordulÃ³":12023,"Ġszegedi":12024,"ĠjÃ¡rni":12025,"ĠvÃ©sz":12026,"Ġereje":12027,"ĠgyÃ¡ri":12028,"ĠakkumulÃ¡tor":12029,"Ġjelek":12030,"Ġnehogy":12031,"Ġgyakrabban":12032,"AGYAR":12033,"ĠtalÃ¡lta":12034,"¼ket":12035,"rÃ¶m":12036,"vadÃ¡s":12037,"ĠkÃ©szÃ¼ltek":12038,"hessÃ¼k":12039,"Ġgyereket":12040,"indrÃ³":12041,"Web":12042,"olat":12043,"csÃ¶kken":12044,"ĠszÃ¡molt":12045,"hel":12046,"SZF":12047,"ĠAmit":12048,"72":12049,"ĠtegyÃ¼k":12050,"ĠpÃ¡rkapcsol":12051,"ifi":12052,"ĠprÃ³bÃ¡lja":12053,"Ġfigu":12054,"78":12055,"ĠÃĸssze":12056,"ĠTÃ©ny":12057,"Ġvizelet":12058,"Ġinger":12059,"ĠfÃ¼r":12060,"Ġmondan":12061,"Ġkedvelt":12062,"sÃ¡nak":12063,"ottan":12064,"ĠJapÃ¡n":12065,"ĠHab":12066,"Ġtengerpart":12067,"korlÃ¡t":12068,"ĠmegszÃ¡l":12069,"ĠfiÃºk":12070,"Ġszellem":12071,"csÃŃ":12072,"Ġ(âĢŀ":12073,"ĠigÃ©nyek":12074,"ĠemlÃ©kszem":12075,"pontja":12076,"dÃ©ken":12077,"ĠigÃ©nyt":12078,"ĠifjÃºsÃ¡gi":12079,"ĠirÃ¡nyÃŃtÃ³":12080,"¡vÃ¡":12081,"ĠzsÅ±ri":12082,"Ã¡sÃ¡n":12083,"jÃ©ig":12084,"Fig":12085,"ĠdohÃ¡nyzÃ¡st":12086,"ĠkÃ¶zÃ©pisko":12087,"getikai":12088,"ĠKÃ¡lmÃ¡n":12089,"hasznÃ¡lat":12090,"Ġdokumentumok":12091,"ĠteljesÃŃteni":12092,"sÃ³t":12093,"Ġ1997":12094,"Ġirt":12095,"ĠbelvÃ¡ros":12096,"Ġproc":12097,"ĠkÃ¶zelmÃºlt":12098,"kezÃ¼nk":12099,"din":12100,"sÃ©gÃ¼k":12101,"sugÃ¡r":12102,"Ġhelyeken":12103,"zÃº":12104,"szek":12105,"gÅĳs":12106,"NÃī":12107,"Ġlatin":12108,"go":12109,"Ġmobilt":12110,"FA":12111,"Ġfiatalabb":12112,"Ġfutball":12113,"Ezzel":12114,"ĠbÃŃrt":12115,"Ġkedvence":12116,"kerÃ©k":12117,"resszÃŃv":12118,"ĠhÃ¡m":12119,"attuk":12120,"ĠÃºtra":12121,"ĠlegkÃ¶zelebb":12122,"ĠEM":12123,"ĠbÅ±nt":12124,"ĠHajd":12125,"Ġkimer":12126,"kÃ©vel":12127,"?)":12128,"kÃ³t":12129,"ĠbizonyÃŃtja":12130,"Ġjelentenek":12131,"Ġsehol":12132,"Åĳvel":12133,"Ãĸn":12134,"ĠTudomÃ¡nyegyetem":12135,"ĠevangÃ©l":12136,"Ã¡ig":12137,"rott":12138,"apt":12139,"ĠÃģltalÃ¡ban":12140,"ĠHatÃ³sÃ¡g":12141,"Ġident":12142,"ĠegyÃºttal":12143,"ĠmunkanÃ©lkÃ¼li":12144,"Ġdefin":12145,"ĠegÃ©szÃ©ben":12146,"Ġarch":12147,"Ġsoron":12148,"ĠTemetÃ©se":12149,"ĠpÃ¡pa":12150,"forgalmi":12151,"ĠKÃ¶ztÃ¡rsasÃ¡g":12152,"ĠKez":12153,"ettet":12154,"Ġtartottak":12155,"Ġmondat":12156,"Ġnyilatkozt":12157,"ĠfeltÃ©tel":12158,"Ġ,,":12159,"dtÃ¼nk":12160,"ĠtanÃŃtÃ³":12161,"Ġuniver":12162,"ĠnevelÃ©s":12163,"ĠKÃ³r":12164,"ĠvÃ¡ltozÃ¡st":12165,"ogatni":12166,"ĠTrump":12167,"kolt":12168,"Ġszeretik":12169,"ĠTiszt":12170,"mÃ¡m":12171,"atlansÃ¡g":12172,"ĠliberÃ¡lis":12173,"ĠGyÅĳ":12174,"ukÃ¡l":12175,"ĠpÃ¡lyÃ¡ra":12176,"avid":12177,"ĠfunkciÃ³k":12178,"Â«":12179,"elre":12180,"Ġsmin":12181,"ÃŃzis":12182,"yelÅĳ":12183,"jaiban":12184,"hetek":12185,"ĠtrÃ³":12186,"Ġezekben":12187,"ĠmostanÃ¡ban":12188,"ĠVajon":12189,"Ġigencsak":12190,"ĠEszter":12191,"ĠtÃ¡rolÃ³":12192,"ĠpÃ¡lyÃ¡zatot":12193,"ĠkezÃ©ben":12194,"ĠvezetÅĳk":12195,"ĠmindkettÅĳ":12196,"Ġorvoshoz":12197,"ical":12198,"veszi":12199,"ĠÃ³rÃ¡tÃ³l":12200,"Ã¶rÅĳ":12201,"Ġcucc":12202,"ĠvezetÃ©s":12203,"Ġmondhat":12204,"ĠsportÃ¡g":12205,"Ġlovas":12206,"Ġfolyamatot":12207,"Ġtartunk":12208,"uly":12209,"ikkel":12210,"ikÃ¼k":12211,"Ġgyakorolt":12212,"Ġcsill":12213,"hasznÃ¡lÃ¡s":12214,"Ġellentmond":12215,"ĠJelent":12216,"ÃŃtÃ¡ssal":12217,"olÃ¡":12218,"ĠTar":12219,"cin":12220,"Ġpiacra":12221,"ien":12222,"EzÃ©rt":12223,"lÃ©sre":12224,"Ġorvost":12225,"iÃ³s":12226,"loszt":12227,"ĠvÃ©rt":12228,"Ã¡sakor":12229,"Mikor":12230,"ĠIsmer":12231,"kateg":12232,"dÃ¡ba":12233,"ĠfÃ³ku":12234,"lÃ©rt":12235,"ĠmegemlÃŃt":12236,"ech":12237,"ĠhozzÃ¡jÃ¡rulÃ¡sa":12238,"³kat":12239,"ĠFord":12240,"alapÃº":12241,"osÃ³":12242,"odÃ¡sa":12243,"ĠmunkaidÅĳ":12244,"...]":12245,"Ġpolc":12246,"dÃ¡sÃ¡nak":12247,"Ġhumor":12248,"alÃ©p":12249,"ĠSzegedi":12250,"ĠremekÃ¼l":12251,"Ã¡maszt":12252,"Ġletilt":12253,"szerkesztÅĳ":12254,"ĠpÃ¡lyÃ¡zatok":12255,"vesebb":12256,"vÃ¡jci":12257,"orld":12258,"Ġprojektek":12259,"ĠfennÃ¡ll":12260,"¶ki":12261,"ĠszellÅĳ":12262,"ĠkÃ©relmezÅĳ":12263,"medence":12264,"Ġregener":12265,"Ġbib":12266,"NB":12267,"ĠBÅĳ":12268,"ĠtÃºlÃ©l":12269,"Ġgeszt":12270,"ĠreformÃ¡tus":12271,"Ġezekre":12272,"olok":12273,"ressz":12274,"ĠEgyszer":12275,"ĠEgyes":12276,"ĠnÃ¶vekszik":12277,"idÃ©":12278,"Ġbelse":12279,"ĠtÃ¶re":12280,"ĠrepÃ¼lÅĳgÃ©p":12281,"its":12282,"rÅĳ":12283,"Ġjo":12284,"ĠmegelÅĳzÃ©se":12285,"ĠÃºjonnan":12286,"tnek":12287,"kben":12288,"iport":12289,"Alap":12290,"hetÅĳleg":12291,"ref":12292,"vÃ©Ã©rt":12293,"ĠÃ©vtize":12294,"ĠrelevÃ¡ns":12295,"noki":12296,"ĠBak":12297,"Ġragad":12298,"ĠInformÃ¡ciÃ³":12299,"Ġcsir":12300,"fÃ¡t":12301,"Ġtavasszal":12302,"ĠÃģllamokban":12303,"rie":12304,"ĠkÃ¶rnyezetvÃ©delmi":12305,"eges":12306,"ĠÃŃtÃ©lt":12307,"ĠMÃ¡tyÃ¡s":12308,"Ġ01":12309,"essÃ©gek":12310,"Ġcsakis":12311,"ĠkÃ¶rt":12312,"mosÃ¡s":12313,"Ġegykor":12314,"Ġingyenesen":12315,"Ġjobbra":12316,"ĠformÃ¡k":12317,"Ġillik":12318,"Ġkevesebbet":12319,"Ġazokra":12320,"ĠdiagnÃ³zis":12321,"Ã©nyi":12322,"hÃ¡zat":12323,"miai":12324,"ĠzenÃ©t":12325,"ĠÃŃzÃ¼letek":12326,"Ġforgalmi":12327,"ĠvÃ©dekezÃ©s":12328,"ĠkÃ¼lfÃ¶ld":12329,"terÃ¼lete":12330,"ĠvonatkozÃ¡sÃ¡ban":12331,"izÃ¡ciÃ³":12332,"ĠvalÃ³sÃŃt":12333,"ĠterjedÅĳ":12334,"ĠtudomÃ¡sul":12335,"Ġbent":12336,"Ġsejtek":12337,"Ġhirde":12338,"ĠgyÃ³gyszeres":12339,"Ġprogramja":12340,"ĠHan":12341,"szerint":12342,"Ġharmon":12343,"ĠkÃ¶nyvek":12344,"ulok":12345,"ĠNÃ©meth":12346,"rÃº":12347,"vont":12348,"kÃ¶nyvet":12349,"biot":12350,"fÃ©rgessÃ©g":12351,"Rend":12352,"zenek":12353,"ikot":12354,"ĠVerseny":12355,"eszkÃ¶z":12356,"ombÃ":12357,"Ġ1999":12358,"ĠelÅĳÃŃrÃ¡sok":12359,"felÃ¼gy":12360,"kÃ¼k":12361,"ĠtÃ¶rvÃ©nyek":12362,"ĠfÅĳbb":12363,"ĠÅĳsszel":12364,"Ġakarat":12365,"air":12366,"ĠlegendÃ¡s":12367,"vÃ¡llalkozÃ¡s":12368,"ĠalkalmazÃ¡sÃ¡val":12369,"erem":12370,"Ġpercet":12371,"Ġpul":12372,"ozd":12373,"ĠkristÃ¡ly":12374,"RT":12375,"nn":12376,"rikus":12377,"ĠkezÃ©t":12378,"szÃ¶vetsÃ©g":12379,"amit":12380,"ĠmasszÃ¡zs":12381,"ĠkÃ¼lt":12382,"ĠegybÅĳl":12383,"³kÃº":12384,"ĠhÃ³napon":12385,"sÃ©re":12386,"ĠNB":12387,"ĠFÅĳvÃ¡rosi":12388,"ĠkellÃ©k":12389,"ĠmegnÃ©":12390,"ĠszÃ¶vÅĳd":12391,"ĠlÃŃ":12392,"Ã³kÃº":12393,"ĠÃ¡lm":12394,"ĠTom":12395,"ĠTudomÃ¡nyos":12396,"ĠkÃ¶vetni":12397,"ĠzajlÃ³":12398,"ĠhelyisÃ©g":12399,"ĠlejÃ¡rt":12400,"vettem":12401,"ĠtÃ¶rtÃ©netet":12402,"Ġterhes":12403,"Ġ09":12404,"Ġhallani":12405,"ĠinnovatÃŃv":12406,"ĠvizuÃ¡lis":12407,"ĠlehetÅĳleg":12408,"ĠhelyszÃŃne":12409,"Ġcomb":12410,"ĠÃ©rzed":12411,"ĠkÃ¼ldetÃ©s":12412,"ĠrÃ³zs":12413,"odÃ¡l":12414,"Ġhobb":12415,"ake":12416,"ĠhÃ©tig":12417,"Ġatt":12418,"ney":12419,"Ġszemet":12420,"Ġcikkek":12421,"ĠmegismÃ©t":12422,"ĠÃµ":12423,"ĠszÃ¼lett":12424,"ĠlÃ©nyegesen":12425,"elÅĳl":12426,"Ġsert":12427,"ugy":12428,"69":12429,"Ġkibont":12430,"rendszert":12431,"ics":12432,"RÃĵ":12433,"Ġautomati":12434,"Â°":12435,"ĠPont":12436,"ĠSzil":12437,"zÃ¡sÃ¡t":12438,"ĠkorlÃ¡tozÃ¡s":12439,"Ġkorrup":12440,"bÃŃrÃ³sÃ¡g":12441,"Ġilyenek":12442,"ĠMÃ©r":12443,"ezhet":12444,"alni":12445,"ĠcsapadÃ©k":12446,"ĠGazdasÃ¡gi":12447,"ĠlÃ©pÃ©st":12448,"odÃ¡st":12449,"Ġfon":12450,"Ġkamera":12451,"83":12452,"kitÅ±":12453,"ĠÃ¶rÃ¶kre":12454,"ĠHi":12455,"ĠÃºjbÃ³l":12456,"ĠÃ©rtesÃ¼l":12457,"ape":12458,"ĠmÃ¡skÃ©nt":12459,"ĠÃ¡ltalam":12460,"ĠkiÃ¡lt":12461,"Ġholland":12462,"ĠnÃ©zet":12463,"ĠÃ©pÃ¼lÅĳ":12464,"UM":12465,"szerzÃ©s":12466,"ĠLegyen":12467,"ĠSzt":12468,"ĠkÃ¼zd":12469,"Ġtudatosan":12470,"Ġtermel":12471,"nyÃŃ":12472,"ĠÃ©rzÃ©kel":12473,"Ġszu":12474,"lÃ¡nak":12475,"ĠfennÃ¡llÃ³":12476,"Ġrendszerint":12477,"Ġszerepelnek":12478,"==":12479,"Ġkompetenc":12480,"ian":12481,"vÃ©k":12482,"ĠeredmÃ©nyes":12483,"sÃ¼lÅĳ":12484,"hassa":12485,"Ã¡suk":12486,"Ġhagyott":12487,"ÃŃrÃ¡":12488,"ĠkerÃ¼ljÃ¶n":12489,"ĠÃ³riÃ¡s":12490,"ĠHÃ©t":12491,"ĠmegÃ©rteni":12492,"ĠÃ©rezzÃ¼k":12493,"Ġgram":12494,"ĠÃ©pÃŃteni":12495,"tlenek":12496,"ej":12497,"olsÃ³":12498,"Ġsenkinek":12499,"ĠElek":12500,"gÃ¡z":12501,"ĠlabdarÃºgÃ³":12502,"Ġkitart":12503,"ĠAlex":12504,"ĠmemÃ³r":12505,"ĠtÅĳzs":12506,"Ġdeviz":12507,"rendet":12508,"szÃ³lag":12509,"ĠÃ©rkeztek":12510,"Ġjavaslatot":12511,"ĠVeszprÃ©m":12512,"ĠUr":12513,"Ġkijav":12514,"eltek":12515,"ideg":12516,"Ġfogadta":12517,"ĠszemlÃ©":12518,"ĠMTA":12519,"ĠIgazgatÃ³":12520,"ĠDV":12521,"ĠFilm":12522,"ĠkezelÃ©sÃ©nek":12523,"kÃ³czi":12524,"79":12525,"Ã¼nkÃ¶n":12526,"Ġtermeszt":12527,"adÃ³t":12528,"ĠfeszÃ¼ltsÃ©g":12529,"ĠhÃ¡tul":12530,"ĠbruttÃ³":12531,"ĠhatÃ¡ra":12532,"ĠVa":12533,"ĠrÃ¶":12534,"iknek":12535,"Sziasztok":12536,"ĠHagy":12537,"©ves":12538,"Ġkudarc":12539,"ĠkÃ©ptelen":12540,"Ġbeton":12541,"elettel":12542,"szÃ¡mot":12543,"ĠnevelÃ©si":12544,"ĠjÃ¡rtam":12545,"rael":12546,"olom":12547,"Ġdirekt":12548,"ĠÃ©vtizedek":12549,"don":12550,"Ġmegmaradt":12551,"ĠtechnolÃ³giÃ¡k":12552,"Ġhagyta":12553,"ZAT":12554,"kÃ¶rÃ¶k":12555,"ĠRende":12556,"ĠhÃ³napig":12557,"ĠhÃ©ttel":12558,"row":12559,"Olyan":12560,"³ceÃ¡n":12561,"SzÃ³val":12562,"ĠrÃ¡sz":12563,"Ãīrt":12564,"Ã³ceÃ¡n":12565,"ĠÃ¶nÃ¡llÃ³an":12566,"Ġteker":12567,"Ġlevon":12568,"ĠFotÃ³":12569,"ames":12570,"ĠhelyettesÃŃt":12571,"ĠtrÃ©ning":12572,"Ġszerek":12573,"ĠepizÃ³d":12574,"soroz":12575,"Ġfont":12576,"ĠÃ©rdeklÅĳdÅĳk":12577,"Ġszerencse":12578,"detett":12579,"ĠtÃºlsÃ¡gosan":12580,"ĠÅ±":12581,"olÃ¡ssal":12582,"ĠtermelÅĳ":12583,"Ġener":12584,"ĠÃ©lÃ¼nk":12585,"ĠelÃ¡llÃ¡si":12586,"Ġmal":12587,"ottuk":12588,"ĠjelenlÃ©te":12589,"aszÃ¡t":12590,"ĠhivatkozÃ¡s":12591,"Ġmegford":12592,"ĠjÃ³k":12593,"¡jÃ³":12594,"rok":12595,"Ġterasz":12596,"ĠnyÃºjtanak":12597,"ĠfelmerÃ¼lÅĳ":12598,"Ġ180":12599,"Ġcseleke":12600,"df":12601,"Ġbemutatni":12602,"ĠhajlÃ©k":12603,"Ġco":12604,"Ġcsin":12605,"bÅĳr":12606,"yet":12607,"Ġfilmben":12608,"Ġromantikus":12609,"ĠlevÃ©lben":12610,"Ġvezeti":12611,"Ġfunkcion":12612,"Ġnevezik":12613,"ĠidÅĳtarta":12614,"Ġparadicsom":12615,"utat":12616,"ĠbillentyÅ±":12617,"Ġsim":12618,"betegsÃ©gek":12619,"ĠszÃ¡mÃŃtÃ":12620,"ĠszurkolÃ³":12621,"ĠKan":12622,"ĠAnalytics":12623,"Ġujj":12624,"Ġdolga":12625,"ĠhÃŃvja":12626,"ĠIstent":12627,"ĠszÃ¡mÃŃtÃ³":12628,"Ã©sÃ©tÅĳl":12629,"ĠukrÃ¡n":12630,"Ġfelkeres":12631,"kÃ©pet":12632,"keleti":12633,"Ġrehabilit":12634,"okrata":12635,"ĠnÅĳt":12636,"ĠFarkas":12637,"ips":12638,"OTT":12639,"ĠinnovÃ¡ciÃ³":12640,"azil":12641,"ĠmegvÃ©":12642,"ĠstÃ¡t":12643,"kÃ¶ltÃ":12644,"szavatossÃ¡gi":12645,"ĠszabÃ¡lyai":12646,"vÃ©nyek":12647,"sÃŃtÃ¡s":12648,"ĠtÃ¶ltÅĳ":12649,"Ġtekintetben":12650,"kukor":12651,"oba":12652,"ĠelvÃ¡laszt":12653,"ĠhipertÃ³":12654,"hettÃ©k":12655,"Ġgondoskod":12656,"Ġhittem":12657,"Ġcir":12658,"ĠÃ¶rÃ¶mÃ":12659,"ĠfejlesztÅĳ":12660,"Ġfelf":12661,"szÃ¡mÃ¡t":12662,"ozzon":12663,"ĠtalÃ¡ltÃ¡k":12664,"Ġmentes":12665,"ĠmegÃŃtÃ©l":12666,"Ġazokkal":12667,"Hat":12668,"ultam":12669,"kÃ¶ltÃ¶":12670,"ĠNY":12671,"ĠhÃ¡zak":12672,"eloszt":12673,"ĠÃ©rtÃ©kÃ©t":12674,"kezetek":12675,"Ġ1998":12676,"ĠrÃ¡jÃ¶tt":12677,"Ġ--":12678,"hab":12679,"Ã¡sÃ¡nÃ¡l":12680,"ĠkÃ©szpÃ©nz":12681,"ĠÃ¼zemanyag":12682,"Ġkiker":12683,"ĠcsÃ¶kkenteni":12684,"ĠfelhasznÃ¡lÃ¡sÃ¡val":12685,"Akkor":12686,"AzÃ©rt":12687,"ĠÃ©teleket":12688,"getni":12689,"Ã¼lÃ©si":12690,"ĠkÃ©miai":12691,"84":12692,"ĠSemmi":12693,"Ġgyere":12694,"ĠjegyÃ©ben":12695,"ĠvizsgÃ¡lt":12696,"Ġzseni":12697,"ĠtÃ¡mogatÃ¡sÃ¡val":12698,"ĠTÃ¼":12699,"Ġnyugat":12700,"ĠhÃºzÃ³d":12701,"RÃ©sz":12702,"MTI":12703,"Ġpanaszok":12704,"ÃģSI":12705,"Ġstart":12706,"¡ns":12707,"funk":12708,"Ġkiszab":12709,"csillag":12710,"ĠlenyÅ±gÃ¶":12711,"NS":12712,"ĠhÃŃvta":12713,"Ġnapjainkban":12714,"82":12715,"Ġ1956":12716,"ĠmunkavÃ©gzÃ©s":12717,"ĠadatfeldolgozÃ³":12718,"Ġclass":12719,"...)":12720,"ĠMas":12721,"Ġjutnak":12722,"indulatÃº":12723,"ĠnÃ©pessÃ©g":12724,"so":12725,"bizottsÃ¡g":12726,"ĠKÃ¼lÃ¶nÃ¶sen":12727,"ºti":12728,"ĠcsÃ¼tÃ¶rtÃ¶k":12729,"Ġcsoportos":12730,"ĠvehetÅĳ":12731,"ĠfeltÃ©teleket":12732,"¡it":12733,"Ġ39":12734,"ĠjÃ¡tszanak":12735,"ĠkÃŃnÃ¡lat":12736,"KK":12737,"ĠMicrosoft":12738,"ĠfelfelÃ©":12739,"Ġroham":12740,"Ġismerete":12741,"¡ink":12742,"Ġzuhany":12743,"ĠrÃ¶viden":12744,"ĠmÃ©lyebb":12745,"ĠÃ¡lltak":12746,"Ãĸssz":12747,"ĠvizsgÃ¡latot":12748,"ĠkategÃ³ri":12749,"¡csÃ":12750,"Ġnagyot":12751,"Ã¡sztor":12752,"ĠkÃ©tsÃ©gbe":12753,"hetem":12754,"ĠFeltÃ©t":12755,"ĠÃ¡llunk":12756,"ĠszakaszÃ":12757,"spekt":12758,"oztunk":12759,"ĠmegÃ¡llapÃŃt":12760,"Ġsti":12761,"ĠSzÃŃ":12762,"tudom":12763,"coin":12764,"ĠfestÅĳ":12765,"mama":12766,"sÃ¼tÃ©s":12767,"ĠTit":12768,"Ġtengeri":12769,"edre":12770,"kÃ¶zlekedÃ©s":12771,"ĠszÃ¡molni":12772,"ĠRa":12773,"Ġmegalkot":12774,"anyi":12775,"felÅĳl":12776,"ĠÃ¡rul":12777,"Ġmegtenni":12778,"ĠsemmifÃ©le":12779,"dÃ³dik":12780,"adatok":12781,"Ã¼ltem":12782,"anc":12783,"szervez":12784,"ĠÃģllami":12785,"Ġparaszt":12786,"Vi":12787,"2007":12788,"Ġtechni":12789,"Ġszocialista":12790,"Ġmegyek":12791,"Ġhelyesb":12792,"ĠmunkÃ¡n":12793,"ĠbirtokÃ":12794,"ĠÅĳsz":12795,"utak":12796,"ĠlakÃ¡st":12797,"ĠhumÃ¡n":12798,"Ġlegismertebb":12799,"ĠOli":12800,"KÃ©p":12801,"ĠKarÃ¡csony":12802,"esebbÃ":12803,"esebbÃ©":12804,"aszÃ¡n":12805,"ĠtalÃ¡lja":12806,"Ġbir":12807,"ĠkÃ¶zzÃ©tett":12808,"Ġhard":12809,"ĠEddig":12810,"ĠfeltÃ©telei":12811,"ĠtelepÃ¼lÃ©sek":12812,"ĠgyÃ¼mÃ¶lcsÃ¶k":12813,"Ġradi":12814,"NÃ©hÃ¡ny":12815,"ĠbetegsÃ©get":12816,"ĠmÃ©regtelen":12817,"¡jÃ¡ban":12818,"ĠtalÃ¡lhatÃ³k":12819,"ĠelÅĳz":12820,"ital":12821,"metek":12822,"ĠBÃ©cs":12823,"KÃ¶zÃ":12824,"ĠelteltÃ©vel":12825,"uty":12826,"Ġfekszik":12827,"Reg":12828,"ĠmÅ±kÃ¶dÃ©sÃ©nek":12829,"lata":12830,"Ġbenzin":12831,"Ġdemokratikus":12832,"Ġhy":12833,"ĠÃºgyis":12834,"Ġbem":12835,")-":12836,"Ġideiglenes":12837,"ĠcukorbetegsÃ©g":12838,"ĠMagas":12839,"ĠelvÃ©gezni":12840,"Ġvitor":12841,"kolÃ¡s":12842,"ĠbevÃ©tele":12843,"tk":12844,"ozom":12845,"ĠtÃ¼kÃ¶r":12846,"fÃ¼ggÅĳ":12847,"TC":12848,"ĠhorgÃ¡sz":12849,"Ġvisszak":12850,"ezettek":12851,"Ġapja":12852,"vegy":12853,"adalom":12854,"Ġ42":12855,"atÃ¡k":12856,"ĠtÃ¡volÃŃt":12857,"Ġjogorvos":12858,"ĠnyomÃ":12859,"Ġmegtanul":12860,"Ġbizott":12861,"szÃ¡k":12862,"Ġvinni":12863,"ĠnyÃºl":12864,"Ġend":12865,"ĠSziget":12866,"ĠmunkavÃ¡llalÃ³k":12867,"ĠvÃ¡lasztotta":12868,"talÃ¡l":12869,"ĠegymÃ¡snak":12870,"omet":12871,"dÃ¡kat":12872,"vÃ¡k":12873,"ĠajÃ¡nlani":12874,"ĠszÃ¼ksÃ©gesek":12875,"ĠkÃ¶zÃ©rdek":12876,"ĠszÃ¼lÃ©s":12877,"nzi":12878,"ĠtranzakciÃ³":12879,"ĠmegÃ©rkez":12880,"Ġexport":12881,"ĠnevÃ©":12882,"nyen":12883,"ĠkÃ©rÃ©sÃ©re":12884,"ĠtelepÃŃt":12885,"ĠIng":12886,"ĠhÃ¡zban":12887,"Ġpassz":12888,"RI":12889,"Ġhova":12890,"ĠmegnÃ©zni":12891,"Ġkicser":12892,"sÃ¶n":12893,"ĠSzabolcs":12894,"ĠErrÅĳl":12895,"itÅĳl":12896,"ĠnÃ¡luk":12897,"ĠteljesÃŃtÃ©s":12898,"Ġtucat":12899,"Ġrecep":12900,"ĠegÃ©szsÃ©gÃ¼gy":12901,"ĠzÃ³":12902,"ĠtÃŃpusa":12903,"Ġmindenre":12904,"siker":12905,"erin":12906,"hÃºs":12907,"Ġcsomagot":12908,"ĠÃ¡rÃ¡t":12909,"ĠcsatlakozÃ³":12910,"ĠidÃµ":12911,"ray":12912,"fÃ¶":12913,"itÃ¡st":12914,"Ġelhanyag":12915,"Ġfolytatni":12916,"okol":12917,"ĠfestÃ©k":12918,"ĠkÃ¶zÃ©let":12919,"ĠfelmerÃ¼lt":12920,"ĠvÃ¡lhat":12921,"sanak":12922,"Ġsokak":12923,"ĠTAN":12924,"Ġpotenci":12925,"Ġmellyel":12926,"Ġcikkben":12927,"ĠKal":12928,"TehÃ¡t":12929,"Ġkonferenci":12930,"ĠtehetsÃ©ges":12931,"ÃģNOS":12932,"ĠkezelÃ©sÃ©hez":12933,"ĠÃ©rzÃ©se":12934,"Ġmelle":12935,"ablett":12936,"ĠPÃ¡rt":12937,"ĠÃŃrtÃ¡k":12938,"Ã¶tte":12939,"utÃ³bb":12940,"ĠAbban":12941,"elÃ©k":12942,"ower":12943,"nagyon":12944,"ĠtÃ¶rtÃ©nhet":12945,"ĠnyÃŃlÃ¡s":12946,"ĠMIN":12947,"ĠlakossÃ¡gi":12948,"Ġpici":12949,"ĠVÃ¡rosi":12950,"¶lÅĳ":12951,"Ã¡tum":12952,"ĠMich":12953,"ĠtÃ©mÃ¡t":12954,"ĠvÃ¡dlott":12955,"Ġkeveset":12956,"ĠtisztasÃ¡g":12957,"Ġszempontok":12958,"ĠIpar":12959,"Ġgyarap":12960,"atÃ¡bÃ³l":12961,"vÃ¡nyt":12962,"ĠHit":12963,"ĠutazÃ¡si":12964,"ĠgyÃ¶ngy":12965,"ĠvÃ©lemÃ©nyt":12966,"ĠkÃ©rdÃ©sekre":12967,"ĠÃĸnÃ¶k":12968,"lfogyaszt":12969,"ĠhÃ³nappal":12970,"Ġcsatlakozott":12971,"ĠszÃŃnvonalÃº":12972,"gondol":12973,"ĠvadÃ¡sz":12974,"Ġhany":12975,"elfogyaszt":12976,"ĠpÃ©csi":12977,"ĠmÃ³dszert":12978,"Ġsenkit":12979,"ĠmegtalÃ¡lja":12980,"ukkan":12981,"ĠszÃ¡mÃŃtÃ³gÃ©pes":12982,"mix":12983,"Ã¡nd":12984,"Ġvicces":12985,"jekciÃ³":12986,"ĠTechn":12987,"gazdag":12988,"SE":12989,"illi":12990,"elemek":12991,"CIÃĵ":12992,"ĠszÃ³lÃŃt":12993,"Tan":12994,"mÃ¡ba":12995,"KI":12996,"ĠKÃ¶n":12997,"ĠnyugdÃŃjas":12998,"Ġsorra":12999,"tlenÃ¼l":13000,"Ġeljutt":13001,"----------------":13002,"ĠkikapcsolÃ³d":13003,"ĠKÃ¶zponti":13004,"ĠFÃ¶l":13005,"ĠÃ¶rÃ¼lÃ¶k":13006,"ĠKup":13007,"ĠlevegÅĳt":13008,"ĠTw":13009,"ĠZe":13010,"ael":13011,"Ġkalap":13012,"ĠfejfÃ¡jÃ¡s":13013,"ĠBÃ¡lint":13014,"niÃ¼k":13015,"messzi":13016,"Ġmiatti":13017,"ĠmeghatÃ¡rozÃ¡sa":13018,"500":13019,"Ġkompr":13020,"Ġmul":13021,"ĠmÅ±kÃ¶dni":13022,"rÃ¡lni":13023,"ĠÃ©rtÃ¼nk":13024,"ratÃ":13025,"ĠJÃ¡tÃ©k":13026,"Ġmutatni":13027,"Ã¶b":13028,"eszkÃ¶zÃ¶k":13029,"ĠszemÃ¼veg":13030,"ĠkÃ¶rÃ¶m":13031,"Ġpillant":13032,"ĠcsomagolÃ¡s":13033,"Ã¡sÃ©rt":13034,"fizetÃ©si":13035,"ĠtemetÅĳ":13036,"ĠtÃ©tel":13037,"ĠÃŃgÃ©ret":13038,"nÃ¶veked":13039,"ĠUniver":13040,"ĠpontjÃ¡ban":13041,"Ġfogod":13042,"Ġgondolni":13043,"zÃ¡rÃ":13044,"eszes":13045,"fikus":13046,"bele":13047,"ĠbelÅĳlÃ¼k":13048,"rus":13049,"Ã¡lÃ¡sa":13050,"Ġsereg":13051,"Ġkeresi":13052,"ĠbevÃ©tel":13053,"ÃŃtÃ©k":13054,"erme":13055,"ellenÅĳr":13056,"edve":13057,"iszem":13058,"Ġelfogyaszt":13059,"ĠdiÃ©ta":13060,"Ġbejelentette":13061,"ĠindulÃ¡s":13062,"ĠtÃ¡blÃ¡zat":13063,"Â»":13064,"ĠUtÃ¡n":13065,"ĠTÃ¡jÃ©koztatÃ³":13066,"ĠBra":13067,"nÃ¡s":13068,"Har":13069,"roncs":13070,"ĠSÃ¡r":13071,"LÃ¡t":13072,"ĠplÃ©":13073,"ĠgyÃ¼lekezet":13074,"ĠÃ¶sszer":13075,"ĠsÃŃk":13076,"ĠhatÃ¡ride":13077,"Ġbanki":13078,"ĠvÃ©geredmÃ©ny":13079,"ondoni":13080,"ĠAdÃ³":13081,"nium":13082,"sÃ©gÃ©re":13083,"Ġvalamivel":13084,"ljÃ¼k":13085,"sÃ¡gokat":13086,"ĠcsÃ¶kkentÃ©se":13087,"ĠmegszÅ±nik":13088,"yenes":13089,"ĠBu":13090,"ĠfennÃ¡l":13091,"ĠagrÃ¡r":13092,"Ġ#":13093,"ĠellenÅĳrzÃ©se":13094,"Ġkiterjeszt":13095,"ĠvÃ©gtag":13096,"elad":13097,"ĠhÃ¡ttÃ©rben":13098,"BC":13099,"ĠmeghaladÃ³":13100,"pro":13101,"ĠmagÃ¡ba":13102,"ĠegÃ©szsÃ©gi":13103,"lÃ©lek":13104,"ĠkivÃ©tel":13105,"ĠrÃ©szÃ©nek":13106,"Ġruha":13107,"Ġmozgalom":13108,"Ġprogramokat":13109,"ancia":13110,"ĠAut":13111,"ĠhÃºsvÃ©t":13112,"ozÃ©k":13113,"Ã³zsa":13114,"tro":13115,"azar":13116,"Ġszelek":13117,"Ġszorosan":13118,"ĠUgyanis":13119,"ĠformÃ¡l":13120,"ĠpedagÃ³giai":13121,"ĠÃ¼z":13122,"Ġadhat":13123,"ĠnÃ©lkÃ¼lÃ¶zhetetlen":13124,"kÃ¶nny":13125,"Ġhajnal":13126,"ĠSzolgÃ¡lt":13127,"ĠÃ³vo":13128,"ĠkÃ©pviselÅĳk":13129,"Ġhasmen":13130,"Ġhelyzetbe":13131,"ĠidÅĳpontban":13132,"ĠNÃ©metorszÃ¡gban":13133,"ĠfÃ©nyes":13134,"Ġhogyha":13135,"ĠderÃ©k":13136,"vilÃ¡got":13137,"cookie":13138,"jakÃ©nt":13139,"Ġkiemelte":13140,"liai":13141,"ĠTes":13142,"Ġvonz":13143,"Ġmondunk":13144,"ĠkÃ¼zdel":13145,"Ġbef":13146,"Ġfutt":13147,"feltÃ©t":13148,"lrende":13149,"ĠPÃ¡ly":13150,"Ġhangot":13151,"elrende":13152,"Ġhitelt":13153,"ĠIdÃ©n":13154,"Ġfuvar":13155,"lÃ¡ne":13156,"mÃ©ke":13157,"Ġlegal":13158,"Ġkukor":13159,"74":13160,"ĠrendezÃ©s":13161,"Ġcenti":13162,"ĠszenvedÃ©s":13163,"ĠOsztÃ¡ly":13164,"uki":13165,"ĠfedÃ©l":13166,"lkap":13167,"pÃ¡rti":13168,"utÃ³k":13169,"latos":13170,"ĠmegÃ¡llÃŃt":13171,"Ġokozhatnak":13172,"vere":13173,"ĠEgyed":13174,"Ġ1992":13175,"kÃ¶s":13176,"ĠvilÃ¡gÃ¡ban":13177,"ikkal":13178,"ĠBab":13179,"gyÃ¡r":13180,"ĠfantÃ¡z":13181,"hetetlenÃ¼l":13182,"Ġszeretete":13183,"ĠHozzÃ¡":13184,"ĠvÃŃzt":13185,"kÃ¶rt":13186,"ĠterhelÃ©s":13187,"edÅĳ":13188,"ĠAzok":13189,"ĠÃĵv":13190,"ĠutoljÃ¡ra":13191,"Ġpajzs":13192,"ikÃ¡ja":13193,"Ġdarabot":13194,"kereskedelmi":13195,"ĠleszÃ¼nk":13196,"63":13197,"szerzÅĳdÃ©s":13198,"ĠjavÃŃtja":13199,"ulÃ¡ris":13200,"erre":13201,"ĠtÅĳlem":13202,"Ġeld":13203,"ĠvÃ¡rakozÃ¡s":13204,"kÃ¶tÃ¶tt":13205,"EST":13206,"ĠmegÃ¡llapÃŃtott":13207,"ĠbÃ©k":13208,"ĠstratÃ©gia":13209,"ĠvigyÃ¡z":13210,"odva":13211,"Ġcsip":13212,"ĠGyÃ¡sz":13213,"olyÃ":13214,"ĠkialakulÃ¡sÃ¡t":13215,"ĠkategÃ³riÃ¡":13216,"atkozÃ³":13217,"ĠleendÅĳ":13218,"ĠigazÃŃt":13219,"politika":13220,"kasz":13221,"ĠkoncentrÃ¡ciÃ³":13222,"ĠtÃ©tele":13223,"elkap":13224,"lÃ©te":13225,"szakasz":13226,"ĠÃ©lÅĳskÃ¶dÅĳ":13227,"Ã¡kon":13228,"Ġponton":13229,"Ġolvashat":13230,"ĠDebreceni":13231,"Hol":13232,"ĠbocsÃ":13233,"Ġlevelek":13234,"ĠhÃ¡tterÃ©ben":13235,"ĠSopron":13236,"lÃ¡kat":13237,"oks":13238,"Ġ08":13239,"94":13240,"ĠAdatkezelÃ©si":13241,"ĠmentÃ¡lis":13242,"ĠVala":13243,"wood":13244,"Ġnyelvet":13245,"Ġilyesmi":13246,"ĠminisztÃ©rium":13247,"ĠÃ¡ltali":13248,"AztÃ¡n":13249,"ĠsalÃ¡t":13250,"ĠnÃ©zÅĳk":13251,"ĠTim":13252,"Ġvagytok":13253,"ĠSzÃŃv":13254,"ezek":13255,"ĠSzal":13256,"ulÃ¡sÃ¡nak":13257,"vÃ³d":13258,"ĠlegyÃ¼nk":13259,"Ġelrende":13260,"sag":13261,"Ġmunkanapon":13262,"mosz":13263,"ĠerÅĳsÃŃti":13264,"ĠfelvÃ©teli":13265,"ĠCl":13266,"2021":13267,"Ġmeghaladja":13268,"ĠmegoldÃ¡sÃ":13269,"izony":13270,"ĠmondhatÃ³":13271,"oxidÃ¡ns":13272,"2006":13273,"SH":13274,"kerek":13275,"Ġprec":13276,"vidÃ©k":13277,"work":13278,"ĠtestvÃ©re":13279,"ostor":13280,"ĠhÃ³napok":13281,"Ġelit":13282,"zes":13283,"csapat":13284,"Ġhivatkozva":13285,"Ġelterjed":13286,"vezetÃ©k":13287,"ĠhÃ¡la":13288,"ĠhÃ¡lÃ³zati":13289,"KÃ¶szÃ¶nÃ¶m":13290,"Vagy":13291,"ĠmÃ©gpedig":13292,"ĠspÃ³r":13293,"ĠcÃ©lkitÅ±":13294,"Ġprofit":13295,"ĠbotrÃ¡ny":13296,"Ġhetente":13297,"ĠfeltÃ©teleit":13298,"forgalom":13299,"hÃ¡m":13300,"lor":13301,"ĠfigyelmÃ":13302,"ĠtisztsÃ©g":13303,"ĠEger":13304,"ĠelÅĳrehal":13305,"Ġhazud":13306,"olÃ³k":13307,"Ġelektron":13308,"Ġ800":13309,"venes":13310,"Ã¡llapot":13311,"ĠInst":13312,"Ġbuz":13313,"ĠerdÃ©lyi":13314,"ĠvÃ¡rom":13315,"iki":13316,"ĠÃ³rÃ¡val":13317,"gott":13318,"ĠpotenciÃ¡lis":13319,"ubor":13320,"jÃ¡rat":13321,"ĠmagassÃ¡g":13322,"ĠbiztosÃŃtjÃ¡k":13323,"81":13324,"Ġkard":13325,"vÃ©sbÃ©":13326,"ĠbaktÃ©riumok":13327,"Ġmesszi":13328,"ĠAnnyi":13329,"ĠELTE":13330,"lvet":13331,"ĠelbÃŃrÃ¡":13332,"ĠvendÃ©ge":13333,"Ġkelljen":13334,"hova":13335,"Ġilleg":13336,"Ġbeoszt":13337,"dai":13338,"ĠdÃŃjak":13339,"ĠSzombat":13340,"sÃ¡rnapi":13341,"ĠEner":13342,"ttÃ©":13343,"¡nyi":13344,"sort":13345,"ĠrÃ©":13346,".[":13347,"ĠÃ³vatosan":13348,"ĠkihÃŃvÃ¡s":13349,"Ġmegfogalma":13350,"ĠÃ©telt":13351,"ĠtÃ¶rekv":13352,"nor":13353,"93":13354,"Ġszintet":13355,"ĠhÃºgy":13356,"azt":13357,"ĠkÃ©zmÅ±ves":13358,"ĠBrÃ¼s":13359,"Ġikon":13360,"Ġhelyt":13361,"ĠpÃ¡rtok":13362,"ĠInternet":13363,"ĠkÃ¶szÃ¶netet":13364,"ĠszÃ¼ksÃ©ged":13365,"ĠKÅĳ":13366,"Ġfegye":13367,"ĠlÃ¡togatott":13368,"Ġmentem":13369,"ĠvideÃ³k":13370,"ĠmegtalÃ¡lni":13371,"Ġmedit":13372,"bocsÃ¡t":13373,"kahÃ¡rt":13374,"ĠszigorÃºan":13375,"ĠtÃ¶lteni":13376,"zve":13377,"ĠKb":13378,"ĠRÃ¡kÃ³czi":13379,"ĠelÅĳtÃ©r":13380,"ĠkÃ¶vetkezmÃ©nyei":13381,"ĠsvÃ¡jci":13382,"Ġhelyezkedik":13383,"Ġrejtett":13384,"ivÃ¡lt":13385,"Ġtartalmi":13386,"Ġlegegy":13387,"jelentÅĳsebb":13388,"ĠgazdÃ¡lkodÃ³":13389,"Ġhaszon":13390,"Ã¡sokra":13391,"Ġjutni":13392,"ĠTeljes":13393,"Ġgondolok":13394,"chi":13395,"hÃ¡zy":13396,"Ġhalt":13397,"ĠFal":13398,"ĠÃ©rzik":13399,"Ġkontine":13400,"ĠDom":13401,"ronÃ":13402,"ĠerÅĳk":13403,"ĠszerszÃ¡m":13404,"zmus":13405,"Ġmodellek":13406,"Ġakkoriban":13407,"71":13408,"ĠvÃ¡gott":13409,"ĠSer":13410,"ĠMot":13411,"ĠesÃ©llyel":13412,"rei":13413,"Ġszenvedett":13414,"ĠiparÃ¡g":13415,"ĠkÃ¶vette":13416,"Ġmunkaviszony":13417,"ĠTermÃ©k":13418,"cit":13419,"Ġhangja":13420,"Ġforin":13421,"Ã¼kÃ¶n":13422,"ĠtÃ¡maszt":13423,"ÃģK":13424,"ĠirÃ¡nyban":13425,"Ġalkalmasak":13426,"ĠhozzÃ¡ad":13427,"ĠsokszÃŃnÅ±":13428,"ĠpÃ¡lyafut":13429,"sÃ¡ban":13430,"ance":13431,"ĠtÃ©szta":13432,"Ġpof":13433,"BEN":13434,"ÅĳtÅĳl":13435,"Ġneves":13436,"ĠAhhoz":13437,"kÃ¡d":13438,"Ġfeket":13439,"ronÃ³":13440,"Ġelkap":13441,"ĠmuszÃ¡j":13442,"ĠokokbÃ³l":13443,"ĠÃ©letbe":13444,"Ġmegfont":13445,"ĠvezetÃ©sÃ©vel":13446,"szag":13447,"Ġcsapatot":13448,"Ġgomba":13449,"Ã¡rok":13450,"Ġelmegy":13451,"jjÃ¶n":13452,"ĠOR":13453,"ÃºrÃ¡k":13454,"ĠKollÃ©g":13455,"ĠtudÃ¡st":13456,"ĠcsalÃ³d":13457,"Ã¶ki":13458,"ĠSzem":13459,"eljesen":13460,"ĠÃ¡llag":13461,"Ġunalmas":13462,"ĠdÃ©":13463,"ĠszomszÃ©dos":13464,"ĠmennyisÃ©ge":13465,"ĠcsalÃ¡dban":13466,"ĠbinÃ¡ris":13467,"ĠkedvÃ©Ã©rt":13468,"ĠFr":13469,"Ã¡ljuk":13470,"motor":13471,"ĠgÃ©n":13472,"Ã©rdek":13473,"ĠengedÃ©lyezett":13474,"ĠbÅĳvÃŃt":13475,"Ã¶meg":13476,"ĠhiÃ¡nyossÃ¡g":13477,"BA":13478,"ĠRÃ¶v":13479,"gÃ³t":13480,"ĠSpe":13481,"ĠBajnok":13482,"ĠkÃ©nyelmesen":13483,"ĠmotivÃ¡ciÃ³":13484,"ĠminÅĳsÃ©ge":13485,"Ġturisztikai":13486,"Ġkevesen":13487,"ĠFolyam":13488,"ild":13489,"dent":13490,"ĠhasznÃ¡latÃ¡ra":13491,"lob":13492,"Ġelvise":13493,"tatni":13494,"ĠszÃŃnÃ©sznÅĳ":13495,"ĠKev":13496,"Ã©m":13497,"sleg":13498,"Ġriport":13499,"Ġ44":13500,"ĠKereskedelmi":13501,"bÃ¶l":13502,"ĠmegbÃŃzott":13503,"Ġrette":13504,"Ġtestet":13505,"ĠgyÃ¡rtÃ³k":13506,"ĠolvasÃ³k":13507,"Ġapa":13508,"Ġkerti":13509,"Ġleves":13510,"ĠszeretÅĳ":13511,"¡zÃ¡r":13512,"ĠMÃ¼":13513,"ĠcserÃ":13514,"ĠkÃ©nytelen":13515,"ĠfelÃ¼leten":13516,"ĠszÃ³ban":13517,"UNK":13518,"Ġtot":13519,"ĠforgÃ³":13520,"Ġbebizony":13521,"ĠKamar":13522,"ĠtÃ¶rleszt":13523,"ĠhÃŃrt":13524,"Ġmaradtak":13525,"Ġlondoni":13526,"adÃ¡sok":13527,"lÃ¡ja":13528,"ĠMÃ¡tÃ":13529,"Ġszakszervezet":13530,"ĠelÅĳrejel":13531,"Ġmutatnak":13532,"ĠidejÃ©t":13533,"ĠKÃ¶szÃ¶njÃ¼k":13534,"ELL":13535,"ĠszÃ¶":13536,"ikusok":13537,"ĠrendeltetÃ©s":13538,"nyira":13539,"ĠajÃ¡nlatt":13540,"ĠkormÃ¡nyfÅĳ":13541,"kirÃ¡ly":13542,"Ġmacska":13543,"ĠiPhone":13544,"ĠmÃ³dosÃŃtÃ¡sa":13545,"ĠSzemÃ©lyes":13546,"Ġbelg":13547,"Ġnyomtat":13548,"ĠnagysÃ¡g":13549,"FÃ©r":13550,"oszk":13551,"Ã©rtelm":13552,"ĠIntÃ©z":13553,"ĠgyÃ³gyÃŃtÃ³":13554,"Ġemelkedik":13555,"ĠcserÃ©be":13556,"Ġszarvas":13557,"ĠmozgÃ¡st":13558,"ĠelkÃ¶vetett":13559,"CO":13560,"ĠprÃ©mium":13561,"ĠFogyasztÃ³":13562,"jÃ¡vÃ¡":13563,"ĠrÃ³luk":13564,"ĠelÅĳadÃ¡sok":13565,"Ġwebshop":13566,"Ġmindannyian":13567,"ĠMÃ¡tÃ©":13568,"Ġinni":13569,"ĠszerencsÃ©s":13570,"ĠMagyarorszÃ¡gra":13571,"ĠelÃ©rÃ©se":13572,"ĠhatÃ¡lyon":13573,"ĠtetejÃ©n":13574,"elejt":13575,"Ġminek":13576,"ĠIfjÃº":13577,"Ã¡llni":13578,"jÃ¡rvÃ¡ny":13579,"ĠtÃ¡madÃ³":13580,"ĠSimon":13581,"Ġlyuk":13582,"Ã¼lÃ¼nk":13583,"Ġkaphat":13584,"ĠEttÅĳl":13585,"ĠZala":13586,"Ġelad":13587,"likÃ¡ciÃ³":13588,"ĠkÃ¶vetelmÃ©ny":13589,"que":13590,"Kar":13591,"ĠgyulladÃ¡sos":13592,"ĠEgyÃ©b":13593,"Ġantibiot":13594,"ĠJavas":13595,"ĠEmberi":13596,"ĠÃ¡llÃŃtotta":13597,"Ã©rkÃ©p":13598,"gÃ¡tlÃ³":13599,"kÃ¶dik":13600,"ĠmetrÃ³":13601,"kÃ©pzÃ©si":13602,"ĠvÃ¡lÃ¡s":13603,"ĠterÃ¡piÃ¡s":13604,"felsÅĳ":13605,"ĠbankkÃ¡rty":13606,"Ġdolgozunk":13607,"iumban":13608,"Ġkiemelten":13609,"ĠszolgÃ¡ltatÃ¡si":13610,"oo":13611,"ĠLE":13612,"lÃ¡v":13613,"ĠUtÃ":13614,"Ġhalm":13615,"ies":13616,"ĠkÃ¶telezettsÃ©ge":13617,"esszionÃ¡lis":13618,"Ġnemze":13619,"Ġmedence":13620,"keret":13621,"ĠevÅĳk":13622,"raeli":13623,"ĠtÃ¶lti":13624,"adÃ¡sÃ¡t":13625,"kÃ©z":13626,"Ġemelet":13627,"mazott":13628,"iÃ¡lis":13629,"ĠsÃºjt":13630,"ĠÃ©vrÅĳl":13631,"ĠÃģSZF":13632,"Ġret":13633,"orÃ":13634,"ĠUtÃ³":13635,"ĠDÃ¡niel":13636,"arok":13637,"DSZ":13638,"eszem":13639,"ax":13640,"ValÃ³":13641,"inkron":13642,"Ġinst":13643,"ĠkorÃ¡n":13644,"osult":13645,"ĠSP":13646,"ĠkiÃ©pÃŃt":13647,"ĠkÃ³rokozÃ³":13648,"imn":13649,"Ġfelvett":13650,"ĠCsoport":13651,"uhÃ¡sz":13652,"ĠLak":13653,"mis":13654,"etek":13655,"Bizt":13656,"ĠhÃ¡tha":13657,"amerikai":13658,"ĠREND":13659,"ĠkommunikÃ¡l":13660,"ĠfeltÃ¼ntetett":13661,"Ġimport":13662,"ĠÃŃrÃ¡sos":13663,"Ã¡zta":13664,"ĠlÃ¡tszÃ³lag":13665,"61":13666,"lÃ¡lÃ¡s":13667,"ĠbetÃ©t":13668,"ĠtestsÃºly":13669,"iste":13670,"ĠmÃ¡sikat":13671,"Ġizmok":13672,"ĠtisztÃŃtÃ³":13673,"âĢĿ)":13674,"Ġkreativ":13675,"ĠmegyÃ¼nk":13676,"ĠmunkatÃ¡rsa":13677,"ĠEng":13678,"ĠkÃ¼zdÅĳ":13679,"Ġjelenthet":13680,"Ġjelezte":13681,"ĠENSZ":13682,"ĠÃ¼zenetet":13683,"kÃ¡jÃ¡t":13684,"ĠÃ©pÃŃtÃ©szeti":13685,"szerelÃ©s":13686,"Ġinzul":13687,"ellness":13688,"kÃ©rÅĳ":13689,"Ġken":13690,"Ġtox":13691,"ĠInne":13692,"ĠKelet":13693,"ĠhelmintÃ¡k":13694,"ĠInn":13695,"MÃ©ly":13696,"vezetÅĳk":13697,"ĠhÃ¡lÃ¡s":13698,"ĠlegjelentÅĳsebb":13699,"Ġth":13700,"ĠVol":13701,"izÃ¡lÃ³":13702,"ĠIldi":13703,"Ġkeresett":13704,"lÄ±":13705,"ilap":13706,"dÃ¼lÅĳ":13707,"Ġleszel":13708,"Ġlapos":13709,"Ã¼lÃ©st":13710,"Ġfedezet":13711,"szenny":13712,"Ã©szÃ¡ros":13713,"ĠAzon":13714,"Ġszerve":13715,"ĠOnline":13716,"enzi":13717,"ĠZene":13718,"ĠnÃ©ztem":13719,"ĠszerÃ©ny":13720,"Ġdesign":13721,"Ġfelvenni":13722,"ĠvillÃ¡m":13723,"Ġfelte":13724,"ĠelÃŃt":13725,"ĠMargit":13726,"ĠEgÃ©szsÃ©gÃ¼gyi":13727,"zar":13728,"ĠszekrÃ©ny":13729,"osabban":13730,"ase":13731,"ĠkonstrukciÃ³":13732,"ĠrÃ©gebbi":13733,"Ġolyas":13734,"ĠkÃ³kusz":13735,"ĠkapcsolÃ³d":13736,"ĠÃ¶ng":13737,"ĠtÃ¶bbszÃ":13738,"Ġkart":13739,"klu":13740,"rÃ¡val":13741,"ĠhatÃ¡sos":13742,"ĠfelelÅĳ":13743,"lnÃ¶ke":13744,"ĠlegtÃ¶bben":13745,"ĠkatasztrÃ³fa":13746,"menni":13747,"ĠmegemlÃ©k":13748,"vÃŃ":13749,"Ġneur":13750,"ĠAc":13751,"ĠtudÃ³s":13752,"ĠÃ©rteni":13753,"Ġkisgyermek":13754,"Ġmered":13755,"ĠRendÅĳ":13756,"ĠkÃ©szÃŃtÃ©se":13757,"kraj":13758,"Ġkeretek":13759,"Ġtudjon":13760,"krÃ³l":13761,"ĠHosszÃº":13762,"Ġhangulatot":13763,"ĠiskolÃ¡ba":13764,"ĠvÃŃr":13765,"Ġrajtuk":13766,"nos":13767,"ĠIrod":13768,"otok":13769,"Ġjoggal":13770,"Ġelfogadni":13771,"ĠtÃ¶rtÃ©neti":13772,"Ġadatlap":13773,"KV":13774,"zÅĳje":13775,"ĠtervezÅĳ":13776,"92":13777,"ĠkÃ¡l":13778,"yÃ¡n":13779,"ĠjÃ¶v":13780,"ĠRemÃ©lem":13781,"zÃ³dÃ³":13782,"ĠkÃ¶rÃ¼lmÃ©ny":13783,"Ġegyszeri":13784,"szÃŃnÅ±leg":13785,"Ġfoci":13786,"ĠrendezvÃ©nyen":13787,"ĠGond":13788,"ĠelnevezÃ©sÅ±":13789,"thetÅĳ":13790,"nnep":13791,"ĠÃĸt":13792,"oppant":13793,"ĠhÃ¡zat":13794,"62":13795,"llenÅĳr":13796,"ĠellenÃ©ben":13797,"IdÅĳ":13798,"ĠfelÃ¼gyelet":13799,"Ġbaloldali":13800,"ĠLab":13801,"ĠÃ¡llapotÃ¡t":13802,"ĠmÅ±vÃ©szi":13803,"ĠKereszt":13804,"ĠPap":13805,"Ġodafigyel":13806,"hessenek":13807,"rta":13808,"Ã³zis":13809,"MA":13810,"ĠismerjÃ¼k":13811,"Ġweboldalt":13812,"Ġdall":13813,"ĠvÃ¡lasztÃ©k":13814,"egyver":13815,"ĠMÅ±szaki":13816,"Ġlebont":13817,"jem":13818,"zÃ©sÃ©hez":13819,"ezetÅĳ":13820,"munkÃ¡s":13821,"tic":13822,"ĠgyÅ±jtÅĳ":13823,"Ġfolytatja":13824,"Ġkezdetek":13825,"zettel":13826,"tÅ±":13827,"ĠkÃ©szÃŃtette":13828,"Ã³ria":13829,"nyog":13830,"ĠMÅ±vÃ©szeti":13831,"almatlan":13832,"ĠVÃ¡l":13833,"Ġinci":13834,"ms":13835,"Ġvideo":13836,"ĠSeb":13837,"Ġvehet":13838,"ĠjelkÃ©p":13839,"ĠszÅĳr":13840,"Ġfordulat":13841,"adtÃ©ri":13842,"Ġcsatlakozt":13843,"ĠmerevedÃ©si":13844,"ĠfotÃ³s":13845,"Ġzab":13846,"Ġmaj":13847,"TalÃ¡n":13848,"ĠengedÃ©lyezni":13849,"Ã©vÃ©":13850,"ĠKedves":13851,"ĠrÃ¡szor":13852,"bon":13853,"Ġhajd":13854,"box":13855,"ElÅĳszÃ¶r":13856,"gyÅĳ":13857,"ulta":13858,"âĢ¦âĢ¦":13859,"nÃ¶s":13860,"Ġteszte":13861,"rosszabb":13862,"ĠelÃ©rhetÅĳvÃ©":13863,"ĠÃ¶tlete":13864,"tovÃ¡bbi":13865,"ĠmentÅĳ":13866,"ĠtÃ¼krÃ":13867,
[...]
